{
  "version": "1.0",
  "truncation": null,
  "padding": null,
  "added_tokens": [
    {
      "id": 0,
      "content": "<pad>",
      "single_word": false,
      "lstrip": false,
      "rstrip": false,
      "normalized": false,
      "special": true
    },
    {
      "id": 16000,
      "content": "<|endoftext|>",
      "single_word": false,
      "lstrip": false,
      "rstrip": false,
      "normalized": false,
      "special": true
    },
    {
      "id": 16001,
      "content": "<|im_start|>",
      "single_word": false,
      "lstrip": false,
      "rstrip": false,
      "normalized": false,
      "special": true
    },
    {
      "id": 16002,
      "content": "<|im_end|>",
      "single_word": false,
      "lstrip": false,
      "rstrip": false,
      "normalized": false,
      "special": true
    },
    {
      "id": 16003,
      "content": "<|object_ref_start|>",
      "single_word": false,
      "lstrip": false,
      "rstrip": false,
      "normalized": false,
      "special": true
    },
    {
      "id": 16004,
      "content": "<|object_ref_end|>",
      "single_word": false,
      "lstrip": false,
      "rstrip": false,
      "normalized": false,
      "special": true
    },
    {
      "id": 16005,
      "content": "<|box_start|>",
      "single_word": false,
      "lstrip": false,
      "rstrip": false,
      "normalized": false,
      "special": true
    },
    {
      "id": 16006,
      "content": "<|box_end|>",
      "single_word": false,
      "lstrip": false,
      "rstrip": false,
      "normalized": false,
      "special": true
    },
    {
      "id": 16007,
      "content": "<|quad_start|>",
      "single_word": false,
      "lstrip": false,
      "rstrip": false,
      "normalized": false,
      "special": true
    },
    {
      "id": 16008,
      "content": "<|quad_end|>",
      "single_word": false,
      "lstrip": false,
      "rstrip": false,
      "normalized": false,
      "special": true
    },
    {
      "id": 16009,
      "content": "<|vision_start|>",
      "single_word": false,
      "lstrip": false,
      "rstrip": false,
      "normalized": false,
      "special": true
    },
    {
      "id": 16010,
      "content": "<|vision_end|>",
      "single_word": false,
      "lstrip": false,
      "rstrip": false,
      "normalized": false,
      "special": true
    },
    {
      "id": 16011,
      "content": "<|vision_pad|>",
      "single_word": false,
      "lstrip": false,
      "rstrip": false,
      "normalized": false,
      "special": true
    },
    {
      "id": 16012,
      "content": "<|image_pad|>",
      "single_word": false,
      "lstrip": false,
      "rstrip": false,
      "normalized": false,
      "special": true
    },
    {
      "id": 16013,
      "content": "<|video_pad|>",
      "single_word": false,
      "lstrip": false,
      "rstrip": false,
      "normalized": false,
      "special": true
    },
    {
      "id": 16014,
      "content": "<think>",
      "single_word": false,
      "lstrip": false,
      "rstrip": false,
      "normalized": false,
      "special": false
    },
    {
      "id": 16015,
      "content": "</think>",
      "single_word": false,
      "lstrip": false,
      "rstrip": false,
      "normalized": false,
      "special": false
    },
    {
      "id": 16016,
      "content": "<tool_call>",
      "single_word": false,
      "lstrip": false,
      "rstrip": false,
      "normalized": false,
      "special": false
    },
    {
      "id": 16017,
      "content": "</tool_call>",
      "single_word": false,
      "lstrip": false,
      "rstrip": false,
      "normalized": false,
      "special": false
    },
    {
      "id": 16018,
      "content": "<tool_response>",
      "single_word": false,
      "lstrip": false,
      "rstrip": false,
      "normalized": false,
      "special": false
    },
    {
      "id": 16019,
      "content": "</tool_response>",
      "single_word": false,
      "lstrip": false,
      "rstrip": false,
      "normalized": false,
      "special": false
    },
    {
      "id": 16020,
      "content": "<|fim_prefix|>",
      "single_word": false,
      "lstrip": false,
      "rstrip": false,
      "normalized": false,
      "special": false
    },
    {
      "id": 16021,
      "content": "<|fim_middle|>",
      "single_word": false,
      "lstrip": false,
      "rstrip": false,
      "normalized": false,
      "special": false
    },
    {
      "id": 16022,
      "content": "<|fim_suffix|>",
      "single_word": false,
      "lstrip": false,
      "rstrip": false,
      "normalized": false,
      "special": false
    },
    {
      "id": 16023,
      "content": "<|fim_pad|>",
      "single_word": false,
      "lstrip": false,
      "rstrip": false,
      "normalized": false,
      "special": false
    },
    {
      "id": 16024,
      "content": "<|repo_name|>",
      "single_word": false,
      "lstrip": false,
      "rstrip": false,
      "normalized": false,
      "special": false
    },
    {
      "id": 16025,
      "content": "<|file_sep|>",
      "single_word": false,
      "lstrip": false,
      "rstrip": false,
      "normalized": false,
      "special": false
    },
    {
      "id": 16026,
      "content": "<unk>",
      "single_word": false,
      "lstrip": false,
      "rstrip": false,
      "normalized": false,
      "special": true
    }
  ],
  "normalizer": {
    "type": "NFC"
  },
  "pre_tokenizer": {
    "type": "Sequence",
    "pretokenizers": [
      {
        "type": "Split",
        "pattern": {
          "Regex": "(?i:'s|'t|'re|'ve|'m|'ll|'d)|[^\\r\\n\\p{L}\\p{N}]?\\p{L}+|\\p{N}| ?[^\\s\\p{L}\\p{N}]+[\\r\\n]*|\\s*[\\r\\n]+|\\s+(?!\\S)|\\s+"
        },
        "behavior": "Isolated",
        "invert": false
      },
      {
        "type": "ByteLevel",
        "add_prefix_space": false,
        "trim_offsets": false,
        "use_regex": false
      }
    ]
  },
  "post_processor": {
    "type": "ByteLevel",
    "add_prefix_space": false,
    "trim_offsets": false,
    "use_regex": false
  },
  "decoder": {
    "type": "ByteLevel",
    "add_prefix_space": true,
    "trim_offsets": true,
    "use_regex": true
  },
  "model": {
    "type": "BPE",
    "dropout": null,
    "unk_token": null,
    "continuing_subword_prefix": null,
    "end_of_word_suffix": null,
    "fuse_unk": false,
    "byte_fallback": false,
    "ignore_merges": false,
    "vocab": {
      "<pad>": 0,
      "!": 1,
      "\"": 2,
      "#": 3,
      "$": 4,
      "%": 5,
      "&": 6,
      "'": 7,
      "(": 8,
      ")": 9,
      "*": 10,
      "+": 11,
      ",": 12,
      "-": 13,
      ".": 14,
      "/": 15,
      "0": 16,
      "1": 17,
      "2": 18,
      "3": 19,
      "4": 20,
      "5": 21,
      "6": 22,
      "7": 23,
      "8": 24,
      "9": 25,
      ":": 26,
      ";": 27,
      "<": 28,
      "=": 29,
      ">": 30,
      "?": 31,
      "@": 32,
      "A": 33,
      "B": 34,
      "C": 35,
      "D": 36,
      "E": 37,
      "F": 38,
      "G": 39,
      "H": 40,
      "I": 41,
      "J": 42,
      "K": 43,
      "L": 44,
      "M": 45,
      "N": 46,
      "O": 47,
      "P": 48,
      "Q": 49,
      "R": 50,
      "S": 51,
      "T": 52,
      "U": 53,
      "V": 54,
      "W": 55,
      "X": 56,
      "Y": 57,
      "Z": 58,
      "[": 59,
      "\\": 60,
      "]": 61,
      "^": 62,
      "_": 63,
      "`": 64,
      "a": 65,
      "b": 66,
      "c": 67,
      "d": 68,
      "e": 69,
      "f": 70,
      "g": 71,
      "h": 72,
      "i": 73,
      "j": 74,
      "k": 75,
      "l": 76,
      "m": 77,
      "n": 78,
      "o": 79,
      "p": 80,
      "q": 81,
      "r": 82,
      "s": 83,
      "t": 84,
      "u": 85,
      "v": 86,
      "w": 87,
      "x": 88,
      "y": 89,
      "z": 90,
      "{": 91,
      "|": 92,
      "}": 93,
      "~": 94,
      "¡": 95,
      "¢": 96,
      "£": 97,
      "¤": 98,
      "¥": 99,
      "¦": 100,
      "§": 101,
      "¨": 102,
      "©": 103,
      "ª": 104,
      "«": 105,
      "¬": 106,
      "®": 107,
      "¯": 108,
      "°": 109,
      "±": 110,
      "²": 111,
      "³": 112,
      "´": 113,
      "µ": 114,
      "¶": 115,
      "·": 116,
      "¸": 117,
      "¹": 118,
      "º": 119,
      "»": 120,
      "¼": 121,
      "½": 122,
      "¾": 123,
      "¿": 124,
      "À": 125,
      "Á": 126,
      "Â": 127,
      "Ã": 128,
      "Ä": 129,
      "Å": 130,
      "Æ": 131,
      "Ç": 132,
      "È": 133,
      "É": 134,
      "Ê": 135,
      "Ë": 136,
      "Ì": 137,
      "Í": 138,
      "Î": 139,
      "Ï": 140,
      "Ð": 141,
      "Ñ": 142,
      "Ò": 143,
      "Ó": 144,
      "Ô": 145,
      "Õ": 146,
      "Ö": 147,
      "×": 148,
      "Ø": 149,
      "Ù": 150,
      "Ú": 151,
      "Û": 152,
      "Ü": 153,
      "Ý": 154,
      "Þ": 155,
      "ß": 156,
      "à": 157,
      "á": 158,
      "â": 159,
      "ã": 160,
      "ä": 161,
      "å": 162,
      "æ": 163,
      "ç": 164,
      "è": 165,
      "é": 166,
      "ê": 167,
      "ë": 168,
      "ì": 169,
      "í": 170,
      "î": 171,
      "ï": 172,
      "ð": 173,
      "ñ": 174,
      "ò": 175,
      "ó": 176,
      "ô": 177,
      "õ": 178,
      "ö": 179,
      "÷": 180,
      "ø": 181,
      "ù": 182,
      "ú": 183,
      "û": 184,
      "ü": 185,
      "ý": 186,
      "þ": 187,
      "ÿ": 188,
      "Ā": 189,
      "ā": 190,
      "Ă": 191,
      "ă": 192,
      "Ą": 193,
      "ą": 194,
      "Ć": 195,
      "ć": 196,
      "Ĉ": 197,
      "ĉ": 198,
      "Ċ": 199,
      "ċ": 200,
      "Č": 201,
      "č": 202,
      "Ď": 203,
      "ď": 204,
      "Đ": 205,
      "đ": 206,
      "Ē": 207,
      "ē": 208,
      "Ĕ": 209,
      "ĕ": 210,
      "Ė": 211,
      "ė": 212,
      "Ę": 213,
      "ę": 214,
      "Ě": 215,
      "ě": 216,
      "Ĝ": 217,
      "ĝ": 218,
      "Ğ": 219,
      "ğ": 220,
      "Ġ": 221,
      "ġ": 222,
      "Ģ": 223,
      "ģ": 224,
      "Ĥ": 225,
      "ĥ": 226,
      "Ħ": 227,
      "ħ": 228,
      "Ĩ": 229,
      "ĩ": 230,
      "Ī": 231,
      "ī": 232,
      "Ĭ": 233,
      "ĭ": 234,
      "Į": 235,
      "į": 236,
      "İ": 237,
      "ı": 238,
      "Ĳ": 239,
      "ĳ": 240,
      "Ĵ": 241,
      "ĵ": 242,
      "Ķ": 243,
      "ķ": 244,
      "ĸ": 245,
      "Ĺ": 246,
      "ĺ": 247,
      "Ļ": 248,
      "ļ": 249,
      "Ľ": 250,
      "ľ": 251,
      "Ŀ": 252,
      "ŀ": 253,
      "Ł": 254,
      "ł": 255,
      "Ń": 256,
      "ï¼": 257,
      "ä¸": 258,
      "çļ": 259,
      "çļĦ": 260,
      "ï¼Į": 261,
      "ãĢ": 262,
      "ãĢĤ": 263,
      "ä»": 264,
      "äº": 265,
      "åı": 266,
      "æľ": 267,
      "ä½": 268,
      "è¿": 269,
      "æĪ": 270,
      "åħ": 271,
      "åĴ": 272,
      "åĪ": 273,
      "åĴĮ": 274,
      "çĶ": 275,
      "å®": 276,
      "å¤": 277,
      "åľ": 278,
      "åĬ": 279,
      "æĺ": 280,
      "è¯": 281,
      "ä¸Ģ": 282,
      "åĲ": 283,
      "æĸ": 284,
      "ç»": 285,
      "ä»¥": 286,
      "ä¹": 287,
      "æĺ¯": 288,
      "ãĢģ": 289,
      "ï¼ļ": 290,
      "è®": 291,
      "ĥ½": 292,
      "åŃ": 293,
      "åı¯": 294,
      "å°": 295,
      "åľ¨": 296,
      "æķ": 297,
      "ä¸ª": 298,
      "éĢ": 299,
      "åº": 300,
      "èĥ½": 301,
      "\\n": 302,
      "æĪĳ": 303,
      "ä¼": 304,
      "æĹ": 305,
      "å¸": 306,
      "äºº": 307,
      "æĿ": 308,
      "æľī": 309,
      "éĩ": 310,
      "åĮ": 311,
      "çĶ¨": 312,
      "è¡": 313,
      "è§": 314,
      "å¯": 315,
      "åĽ": 316,
      "å¹": 317,
      "å·": 318,
      "è¿Ļ": 319,
      "åĩ": 320,
      "ä¸Ń": 321,
      "æĢ": 322,
      "åı¯ä»¥": 323,
      "è¦": 324,
      "è¦ģ": 325,
      "å¼": 326,
      "åĨ": 327,
      "çİ": 328,
      "çŃ": 329,
      "ä¿": 330,
      "äºĨ": 331,
      "ä¸º": 332,
      "é¢": 333,
      "éĹ": 334,
      "çī": 335,
      "æĬ": 336,
      "ä»¬": 337,
      "ç§": 338,
      "**": 339,
      "å¦": 340,
      "æŀ": 341,
      "å¾": 342,
      "èĢ": 343,
      "ä¸į": 344,
      "å¦Ĥ": 345,
      "æī": 346,
      "st": 347,
      "æ³": 348,
      "å¥": 349,
      "çĶŁ": 350,
      "im": 351,
      "çĲ": 352,
      "çĽ": 353,
      "å½": 354,
      "æı": 355,
      "æł": 356,
      "æŃ": 357,
      "Ġt": 358,
      "æĦ": 359,
      "éĿ": 360,
      "èĩ": 361,
      "æķ°": 362,
      "æĿ¥": 363,
      "ä¾": 364,
      "åį": 365,
      "en": 366,
      "æĹ¶": 367,
      "åĵ": 368,
      "er": 369,
      "in": 370,
      "ä½ł": 371,
      "æĽ": 372,
      "<|": 373,
      "|>": 374,
      "æĥ": 375,
      "æİ": 376,
      "åŃ¦": 377,
      "å¯¹": 378,
      "è¡Į": 379,
      "çŃī": 380,
      "ar": 381,
      "æĪĲ": 382,
      "ãĢĤ\\": 383,
      "æıĲ": 384,
      "äºİ": 385,
      "æĸ¹": 386,
      "an": 387,
      "æĻ": 388,
      "æĸĩ": 389,
      "éľ": 390,
      "æĶ": 391,
      "äºĽ": 392,
      "è´": 393,
      "æĭ": 394,
      "ä¸ĭ": 395,
      "ä¼ļ": 396,
      "çĲĨ": 397,
      "æĽ´": 398,
      "æĮ": 399,
      "ä¸Ģä¸ª": 400,
      "åĪ°": 401,
      "æį": 402,
      "å¿": 403,
      "ä½ľ": 404,
      "æ°": 405,
      "åĳ": 406,
      "éľĢ": 407,
      "åĪĨ": 408,
      "âĢ": 409,
      "åľ°": 410,
      "è¿ĩ": 411,
      "å·¥": 412,
      "æµ": 413,
      "èĩª": 414,
      "æĢ§": 415,
      "ç®": 416,
      "åĮĸ": 417,
      "åĬ¨": 418,
      "å¥½": 419,
      "éĢļ": 420,
      "ä¿Ŀ": 421,
      "æĪĸ": 422,
      "èµ": 423,
      "å±": 424,
      "æ¯": 425,
      "he": 426,
      "on": 427,
      "åİ": 428,
      "æĤ": 429,
      "åıĳ": 430,
      "ï¼Ł": 431,
      "å¤ļ": 432,
      "ä»ĸ": 433,
      "è¾": 434,
      "æ³ķ": 435,
      "åĩº": 436,
      "åºĶ": 437,
      "æĪĳä»¬": 438,
      "é¢ĺ": 439,
      "ä¸Ĭ": 440,
      "å®ļ": 441,
      "è¿Ľ": 442,
      "æį®": 443,
      "ä½ĵ": 444,
      "æĬĢ": 445,
      "ä½¿": 446,
      "å¤§": 447,
      "éĻ": 448,
      "ĠĠ": 449,
      "åŁ": 450,
      "çī©": 451,
      "è§£": 452,
      "åĬĽ": 453,
      "åĲĮ": 454,
      "åħ³": 455,
      "çļĦç": 456,
      "æŀľ": 457,
      "æ´": 458,
      "éľĢè¦ģ": 459,
      "éĿ¢": 460,
      "çİ°": 461,
      "ç±": 462,
      "é«": 463,
      "é£": 464,
      "ç§į": 465,
      "éĹ®": 466,
      "é«ĺ": 467,
      "Ġ**": 468,
      "å¹¶": 469,
      "çº": 470,
      "åĬł": 471,
      "æĤ¨": 472,
      "ç¨": 473,
      "ç¡": 474,
      "å°Ĩ": 475,
      "å°ı": 476,
      "éģ": 477,
      "ç«": 478,
      "åģ": 479,
      "å¸¸": 480,
      "æ²": 481,
      "æ¸": 482,
      "åħ¶": 483,
      "æ±": 484,
      "èī": 485,
      "åº¦": 486,
      "æľĢ": 487,
      "éĩı": 488,
      "æľ¯": 489,
      "åŃĲ": 490,
      "ä¸İ": 491,
      "at": 492,
      "æľº": 493,
      "è½": 494,
      "end": 495,
      "art": 496,
      "æĥħ": 497,
      "éĩį": 498,
      "éĹ´": 499,
      "ç³": 500,
      "or": 501,
      "çĦ": 502,
      "æĦŁ": 503,
      "æĻº": 504,
      "åĬ©": 505,
      "ãĢĤĊ": 506,
      "åĲĪ": 507,
      "ç¡®": 508,
      "Ġthe": 509,
      "å®ĥ": 510,
      "Ġa": 511,
      "ç±»": 512,
      "ä½¿çĶ¨": 513,
      "_st": 514,
      "å¢": 515,
      "éĺ": 516,
      "**ï¼ļ": 517,
      "è¶": 518,
      "_start": 519,
      "_end": 520,
      "åĵģ": 521,
      "ç¨ĭ": 522,
      "å®ŀ": 523,
      "åĽł": 524,
      "æ¬": 525,
      "æĸ°": 526,
      "è®¡": 527,
      "ä¹Ł": 528,
      "è°": 529,
      "æĻºèĥ½": 530,
      "åı¯èĥ½": 531,
      "è¡¨": 532,
      "æĦı": 533,
      "å»": 534,
      "çĦ¶": 535,
      "ç¤": 536,
      "es": 537,
      "Ġ\\": 538,
      "ä¸ļ": 539,
      "ä¹ł": 540,
      "çĤ": 541,
      "èĢĮ": 542,
      "å®¶": 543,
      "éĹ®é¢ĺ": 544,
      "åĢ": 545,
      "ä¾Ľ": 546,
      "ä¹ĭ": 547,
      "æľ¬": 548,
      "æģ": 549,
      "å»º": 550,
      "å¼ı": 551,
      "Ġc": 552,
      "èĤ": 553,
      "å½±": 554,
      "æĬĢæľ¯": 555,
      "è¯Ń": 556,
      "ä¿¡": 557,
      "å¾Ĺ": 558,
      "å¸®": 559,
      "çľ": 560,
      "æıĲä¾Ľ": 561,
      "åĪ¶": 562,
      "as": 563,
      "å¤©": 564,
      "éĶ": 565,
      "ç»ı": 566,
      "Ġs": 567,
      "Ł¥": 568,
      "èĢħ": 569,
      "ç³»": 570,
      "ç´": 571,
      "æķ°æį®": 572,
      "æĮģ": 573,
      "åī": 574,
      "æĺİ": 575,
      "çİ¯": 576,
      "æ´»": 577,
      "çĿ": 578,
      "ï¼Įä»¥": 579,
      "ä¸ĢäºĽ": 580,
      "åħ¬": 581,
      "éĢļè¿ĩ": 582,
      "åħ·": 583,
      "èĬ": 584,
      "ç½": 585,
      "åĬ¡": 586,
      "å±ķ": 587,
      "al": 588,
      "åħ¥": 589,
      "ä¹Ī": 590,
      "éļ": 591,
      "çĸ": 592,
      "Ġ=": 593,
      "ç®Ĺ": 594,
      "âĢĿ": 595,
      "âĢľ": 596,
      "çī¹": 597,
      "è¿Ľè¡Į": 598,
      "åħ¨": 599,
      "åŃ¦ä¹ł": 600,
      "åĲİ": 601,
      "å¿ĥ": 602,
      "is": 603,
      "åĮħ": 604,
      "ä¸»": 605,
      "å¸®åĬ©": 606,
      "us": 607,
      "ä¾ĭ": 608,
      "ãĢĤè¿Ļ": 609,
      "èī²": 610,
      "re": 611,
      "æīĢ": 612,
      "é¡": 613,
      "it": 614,
      "çĽ¸": 615,
      "äº§": 616,
      "æŃ¤": 617,
      "çĶµ": 618,
      "æ·": 619,
      "ä½Ĩ": 620,
      "çĤ¹": 621,
      "ï¼ī": 622,
      "ï¼Įå¹¶": 623,
      "è®¾": 624,
      "çķ": 625,
      "ä»£": 626,
      "Ġp": 627,
      "åŀ": 628,
      "ç©": 629,
      "äººå·¥": 630,
      "å¼Ģ": 631,
      "ou": 632,
      "æķĪ": 633,
      "ï¼Ī": 634,
      "è¯·": 635,
      "ç»Ļ": 636,
      "Ġf": 637,
      "le": 638,
      "ä»İ": 639,
      "æ°´": 640,
      "ç¾": 641,
      "çĽ®": 642,
      "çĿĢ": 643,
      "å½ĵ": 644,
      "åĨħ": 645,
      "äººå·¥æĻºèĥ½": 646,
      "æģ¯": 647,
      "åıĺ": 648,
      "éª": 649,
      "åĻ": 650,
      "æĥ³": 651,
      "é¦": 652,
      "|>\\": 653,
      "éķ": 654,
      "éĢĤ": 655,
      "çł": 656,
      "éĥ½": 657,
      "ing": 658,
      "è¿ĺ": 659,
      "ist": 660,
      "è·": 661,
      "Ġw": 662,
      "æĪ·": 663,
      "å¹´": 664,
      "åĽ½": 665,
      "èģ": 666,
      "åĻ¨": 667,
      "å¹³": 668,
      "å¦Ĥæŀľ": 669,
      "éĢī": 670,
      "æ°Ķ": 671,
      "ä½ķ": 672,
      "ä»¥ä¸ĭ": 673,
      "åŃĹ": 674,
      "äº¤": 675,
      "äºĭ": 676,
      "Ġb": 677,
      "ï¼Įè¿Ļ": 678,
      "æ±Ĥ": 679,
      "Ġo": 680,
      "ç¬": 681,
      "ç»Ł": 682,
      "åĪĽ": 683,
      "åĿ": 684,
      "æ¯Ķ": 685,
      "åĲį": 686,
      "æ¯ı": 687,
      "é£Ł": 688,
      "ç»ĵ": 689,
      "åıĬ": 690,
      "åĨ³": 691,
      "æ¡": 692,
      "è®©": 693,
      "å¾Ī": 694,
      "éĽ": 695,
      "ç¼": 696,
      "éĤ": 697,
      "åĵį": 698,
      "ï¼ĮæĪĳ": 699,
      "è´¨": 700,
      "éħ": 701,
      "ant": 702,
      "åıĸ": 703,
      "ä»»": 704,
      "Ġm": 705,
      "ä»¶": 706,
      "éĿŀ": 707,
      "ion": 708,
      "è¯¥": 709,
      "éķ¿": 710,
      "åŀĭ": 711,
      "æº": 712,
      "æŃ£": 713,
      "éĥ": 714,
      "èĻ": 715,
      "å¥½çļĦ": 716,
      "åĸ": 717,
      "å°ĳ": 718,
      "æłĩ": 719,
      "åľº": 720,
      "å¤Ħ": 721,
      "å¢ĥ": 722,
      "è¢": 723,
      "è¯Ĩ": 724,
      "å·±": 725,
      "èĩªå·±": 726,
      "åĮ»": 727,
      "æĹ¶éĹ´": 728,
      "å¤ĸ": 729,
      "Ł³": 730,
      "åºĶçĶ¨": 731,
      "çĲĥ": 732,
      "æ¨": 733,
      "å¸Ĥ": 734,
      "ä¿¡æģ¯": 735,
      "Ġd": 736,
      "æľŁ": 737,
      "çĥ": 738,
      "Ġin": 739,
      "ï¼Įåı¯ä»¥": 740,
      "å½±åĵį": 741,
      "æ³¨": 742,
      "å®ī": 743,
      "æĭ¬": 744,
      "ç¾İ": 745,
      "æł¹": 746,
      "æ¶": 747,
      "ic": 748,
      "åıĳå±ķ": 749,
      "åĪ©": 750,
      "ä¾ĭå¦Ĥ": 751,
      "æ®": 752,
      "åıĹ": 753,
      "éĥ¨": 754,
      "ä¸įåĲĮ": 755,
      "æĺ¯ä¸Ģ": 756,
      "è®®": 757,
      "Ġan": 758,
      "èµĦ": 759,
      "ass": 760,
      "åīį": 761,
      "ç¤¾": 762,
      "ed": 763,
      "ç§ĳ": 764,
      "å¤Ł": 765,
      "é¢Ĩ": 766,
      "é£İ": 767,
      "éĩįè¦ģ": 768,
      "æĹ¥": 769,
      "ä½į": 770,
      "åĮħæĭ¬": 771,
      "``": 772,
      "èº": 773,
      "åģ¥": 774,
      "ï¼Įä½Ĩ": 775,
      "ä¸ŃçļĦ": 776,
      "æºĲ": 777,
      "éģĵ": 778,
      "æ¨¡": 779,
      "æıĲé«ĺ": 780,
      "èµ·": 781,
      "ä»ĸä»¬": 782,
      "åŁŁ": 783,
      "istant": 784,
      "user": 785,
      "èº«": 786,
      "æŁ": 787,
      "åĨĻ": 788,
      "æīĭ": 789,
      "åĪ«": 790,
      "çŁ¥": 791,
      "èĲ": 792,
      "è¯´": 793,
      "Ġof": 794,
      "ä»Ģ": 795,
      "è¢«": 796,
      "åķ": 797,
      "æŃ¥": 798,
      "ç«ł": 799,
      "èį": 800,
      "è¨": 801,
      "å®¹": 802,
      "Ġto": 803,
      "ï¼ĮæĪĳä»¬": 804,
      "è¿Ļä¸ª": 805,
      "éĩĮ": 806,
      "è°ĥ": 807,
      "ä»Ģä¹Ī": 808,
      "æľį": 809,
      "çİ¯å¢ĥ": 810,
      "æĭ©": 811,
      "æĢ»": 812,
      "assistant": 813,
      "éĢīæĭ©": 814,
      "æĸĩç«ł": 815,
      "æµģ": 816,
      "ãĢĤ<|": 817,
      "æł¹æį®": 818,
      "åĽŀ": 819,
      "æ»": 820,
      "æ·±": 821,
      "å¯¼": 822,
      "æĬ¤": 823,
      "æĹł": 824,
      "åŁº": 825,
      "å¼º": 826,
      "åĩı": 827,
      "åĩĨ": 828,
      "AI": 829,
      "éŁ³": 830,
      "æľª": 831,
      "çĸĹ": 832,
      "Ġ-": 833,
      "éĤ£": 834,
      "éĿŀå¸¸": 835,
      "æİ¨": 836,
      "çľĭ": 837,
      "èĭ": 838,
      "om": 839,
      "ac": 840,
      "èĢĥ": 841,
      "æł·": 842,
      "å¦Ĥä½ķ": 843,
      "ç´ł": 844,
      "åĢ¼": 845,
      "ç®¡": 846,
      "å§": 847,
      "è¿°": 848,
      "å·¥ä½ľ": 849,
      "Ġn": 850,
      "çİĩ": 851,
      "é¥": 852,
      "è¯į": 853,
      "æķĻ": 854,
      "æ®µ": 855,
      "ãĢĤåľ¨": 856,
      "è¨Ģ": 857,
      "èĥ½å¤Ł": 858,
      "èĬĤ": 859,
      "çĹ": 860,
      "éªĮ": 861,
      "æł¼": 862,
      "ä¼ł": 863,
      "æİ¥": 864,
      "çĭ": 865,
      "åŃĺ": 866,
      "å½¢": 867,
      "åįķ": 868,
      "æĶ¾": 869,
      "é¢ĨåŁŁ": 870,
      "è¯Ŀ": 871,
      "æķ´": 872,
      "äººç±»": 873,
      "æĸŃ": 874,
      "è®¡ç®Ĺ": 875,
      "æŀĲ": 876,
      "çĶŁæ´»": 877,
      "åĳĺ": 878,
      "æĸ¹å¼ı": 879,
      "åħĥ": 880,
      "è¯ķ": 881,
      "åı¥": 882,
      "åº·": 883,
      "æĮĩ": 884,
      "ä¼ĺ": 885,
      "è§Ĥ": 886,
      "th": 887,
      "ç»Ħ": 888,
      "æµĭ": 889,
      "åĪĹ": 890,
      "å¢ŀ": 891,
      "ä¹Ĳ": 892,
      "ent": 893,
      "åı¸": 894,
      "åĪĨæŀĲ": 895,
      "æĸ¹æ³ķ": 896,
      "èĥ": 897,
      "åģ¥åº·": 898,
      "ï¼ļ\\": 899,
      "çģ": 900,
      "å»ºè®®": 901,
      "è±": 902,
      "è¿Ĳ": 903,
      "æĶ¹": 904,
      "ä»·": 905,
      "ç¥": 906,
      "ç³»ç»Ł": 907,
      "æ¸¸": 908,
      "ä¸¤": 909,
      "åĲĮæĹ¶": 910,
      "å®¢": 911,
      "è®¤": 912,
      "ç¤º": 913,
      "å¤ĩ": 914,
      "æ¡Ī": 915,
      "ç¡®ä¿Ŀ": 916,
      "åİ»": 917,
      "æĶ¯": 918,
      "å¤ĦçĲĨ": 919,
      "ï¼Įå¦Ĥ": 920,
      "æ¬¡": 921,
      "çĪ": 922,
      "ç¯": 923,
      "é¢Ħ": 924,
      "èĪ": 925,
      "##": 926,
      "um": 927,
      "æĻ¯": 928,
      "Ġis": 929,
      "ç²": 930,
      "åºı": 931,
      "è®º": 932,
      "çŃĸ": 933,
      "åħ¬åı¸": 934,
      "å¤į": 935,
      "å°±": 936,
      "æĸ¹éĿ¢": 937,
      "ç½ĳ": 938,
      "è§Ĩ": 939,
      "åĨµ": 940,
      "æĸĻ": 941,
      "å£": 942,
      "æĸĩåĮĸ": 943,
      "Ġe": 944,
      "çĶŁæĪĲ": 945,
      "éĢł": 946,
      "Ġand": 947,
      "åĲĳ": 948,
      "æī¾": 949,
      "æĺ¯ä¸Ģä¸ª": 950,
      "çĶ¨æĪ·": 951,
      "æĢģ": 952,
      "è§Ħ": 953,
      "æ²¡": 954,
      "åĽłæŃ¤": 955,
      "åĮº": 956,
      "è¾¾": 957,
      "åħĪ": 958,
      "ro": 959,
      "å®īåħ¨": 960,
      "å®ĥä»¬": 961,
      "é¡¹": 962,
      "|>Ċ": 963,
      "å®Į": 964,
      "èĦ": 965,
      "åħ¶ä»ĸ": 966,
      "æľªæĿ¥": 967,
      "éĴ": 968,
      "è¿ĻäºĽ": 969,
      "çĶ±": 970,
      "çŃĶ": 971,
      "Ġl": 972,
      "åıį": 973,
      "æĢĿ": 974,
      "èĩªå·±çļĦ": 975,
      "æĽ´åĬł": 976,
      "æ£": 977,
      "æ¼": 978,
      "åİĨ": 979,
      "åĬŁ": 980,
      "çĻ": 981,
      "çĬ": 982,
      "ä¸ªäºº": 983,
      "ä¹ī": 984,
      "èİ": 985,
      "æľºåĻ¨": 986,
      "è¯Ńè¨Ģ": 987,
      "åħ±": 988,
      "èĩªçĦ¶": 989,
      "åĲĦ": 990,
      "é¦ĸ": 991,
      "ç¯ĩ": 992,
      "åİŁ": 993,
      "å¸¦": 994,
      "åĲĹ": 995,
      "åģļ": 996,
      "æĸĩæľ¬": 997,
      "åħī": 998,
      "æµ·": 999,
      "éĩĳ": 1000,
      "æľįåĬ¡": 1001,
      "é»": 1002,
      "çķĮ": 1003,
      "Ġh": 1004,
      "å¼ķ": 1005,
      "é©": 1006,
      "åħ³äºİ": 1007,
      "ä¸ī": 1008,
      "åıª": 1009,
      "æŀĦ": 1010,
      "åºĶè¯¥": 1011,
      "et": 1012,
      "èı": 1013,
      "è§Ĵ": 1014,
      "ç©º": 1015,
      "äºĨè§£": 1016,
      "åĩıå°ĳ": 1017,
      "ä¿ĿæĬ¤": 1018,
      "åĪĻ": 1019,
      "åıĤ": 1020,
      "ç«ĭ": 1021,
      "--": 1022,
      "è£": 1023,
      "å¹¿": 1024,
      "çº¿": 1025,
      "æ²¡æľī": 1026,
      "ï¼ĮèĢĮ": 1027,
      "åĲ¦": 1028,
      "èĩ´": 1029,
      "éĢļå¸¸": 1030,
      "èĻĳ": 1031,
      "è¾ĵ": 1032,
      "è§£åĨ³": 1033,
      "æ¬¢": 1034,
      "ä½łçļĦ": 1035,
      "éĢŁ": 1036,
      "æŁ¥": 1037,
      "ç®¡çĲĨ": 1038,
      "è½¦": 1039,
      "Ġ|": 1040,
      "ll": 1041,
      "å¿«": 1042,
      "ä¿ĿæĮģ": 1043,
      "åĸľ": 1044,
      "éĻ©": 1045,
      "æĶ¶": 1046,
      "Ġ$": 1047,
      "å·²": 1048,
      "æ¸ħ": 1049,
      "ç»Ń": 1050,
      "æİĴ": 1051,
      "åķĨ": 1052,
      "åĪĴ": 1053,
      "åĳ³": 1054,
      "åı£": 1055,
      "åħį": 1056,
      "Ġth": 1057,
      "çłģ": 1058,
      "æĥħåĨµ": 1059,
      "ç»Ĩ": 1060,
      "Ġ\"": 1061,
      "Ġy": 1062,
      "çĲĨè§£": 1063,
      "æŀģ": 1064,
      "ä¸ĸ": 1065,
      "ï¼Įä½ł": 1066,
      "ç¤¾ä¼ļ": 1067,
      "éĵ": 1068,
      "è¿ĳ": 1069,
      "äº§åĵģ": 1070,
      "åĩł": 1071,
      "åĨħå®¹": 1072,
      "åĽ¾": 1073,
      "æĪĺ": 1074,
      "æĺŁ": 1075,
      "æ´»åĬ¨": 1076,
      "ĠĠĠĠ": 1077,
      "ct": 1078,
      "å®ŀçİ°": 1079,
      "ç®Ģ": 1080,
      "å§ĭ": 1081,
      "ç»´": 1082,
      "èĥ½åĬĽ": 1083,
      "ä¸ĵ": 1084,
      "çĹħ": 1085,
      "äººä»¬": 1086,
      "è¿ĩç¨ĭ": 1087,
      "è±¡": 1088,
      "çĽ´": 1089,
      "è®¾è®¡": 1090,
      "éļı": 1091,
      "èĮ": 1092,
      "èĤ²": 1093,
      "ç§¯": 1094,
      "æ¸©": 1095,
      "è¯Ħ": 1096,
      "æıı": 1097,
      "éħį": 1098,
      "ç¦": 1099,
      "te": 1100,
      "ä»»åĬ¡": 1101,
      "ï¼Ł<|": 1102,
      "ä¸Ķ": 1103,
      "è®¸": 1104,
      "ï¼Įä¾ĭå¦Ĥ": 1105,
      "id": 1106,
      "ve": 1107,
      "éĽĨ": 1108,
      "éĺŁ": 1109,
      "ãĢĭ": 1110,
      "ãĢĬ": 1111,
      "è¶Ĭ": 1112,
      "Ġre": 1113,
      "åĵª": 1114,
      "åĮ»çĸĹ": 1115,
      "è¶³": 1116,
      "æĹħ": 1117,
      "Ġ+": 1118,
      "ï¼ģ": 1119,
      "æ»¡": 1120,
      "åĽłä¸º": 1121,
      "è½»": 1122,
      "æĽ´å¥½": 1123,
      "åĳĬ": 1124,
      "ä¹ĭéĹ´": 1125,
      "ç¿": 1126,
      "çĮ": 1127,
      "å¤ª": 1128,
      "åħ·ä½ĵ": 1129,
      "ç¼ĸ": 1130,
      "æ²»": 1131,
      "ï¼ĮåĮħæĭ¬": 1132,
      "æľĽ": 1133,
      "æĳ": 1134,
      "am": 1135,
      "èĬ±": 1136,
      "ow": 1137,
      "ãģ": 1138,
      "æĽ´å¤ļ": 1139,
      "æĸ½": 1140,
      "ï¼Įä»İ": 1141,
      "æİ§": 1142,
      "åĥ": 1143,
      "çħ": 1144,
      "éľĢæ±Ĥ": 1145,
      "ĠT": 1146,
      "æķħ": 1147,
      "éĩĩ": 1148,
      "ç»ĥ": 1149,
      "è®°": 1150,
      "çĬ¶": 1151,
      "è¶£": 1152,
      "åŁİ": 1153,
      "ãĢĤæĪĳ": 1154,
      "```": 1155,
      "Ġ(": 1156,
      "éĶ®": 1157,
      "ç©¶": 1158,
      "ç½®": 1159,
      "çĪ±": 1160,
      "è§ī": 1161,
      "æľĪ": 1162,
      "äºĴ": 1163,
      "çłĶ": 1164,
      "æĽ´å¥½åľ°": 1165,
      "ĠĠĠ": 1166,
      "ï¼Įå®ĥ": 1167,
      "è¾ĥ": 1168,
      "èĢĥèĻĳ": 1169,
      "èıľ": 1170,
      "æĺ¯åĲ¦": 1171,
      "ig": 1172,
      "é¸": 1173,
      "çİ¯ä¿Ŀ": 1174,
      "æ¨¡åŀĭ": 1175,
      "å°ıæĺİ": 1176,
      "æĥħæĦŁ": 1177,
      "ãĢĤå¦Ĥæŀľ": 1178,
      "å¸Ĥåľº": 1179,
      "éģ¿": 1180,
      "ä¸»è¦ģ": 1181,
      "ä¾¿": 1182,
      "çĽ®æłĩ": 1183,
      "è½¬": 1184,
      "ä»ħ": 1185,
      ":\\": 1186,
      "åĽ¢": 1187,
      "èģĶ": 1188,
      "åĥı": 1189,
      "ï¼Įè®©": 1190,
      "æİ¢": 1191,
      "æĬķ": 1192,
      "è§ģ": 1193,
      "ç¬¦": 1194,
      "æĤ¨çļĦ": 1195,
      "æĶ¯æĮģ": 1196,
      "å®ļçļĦ": 1197,
      "åĲ«": 1198,
      "æĵ": 1199,
      "æĶ¿": 1200,
      "çĶ¨äºİ": 1201,
      "åĶ": 1202,
      "éĻħ": 1203,
      "è´¹": 1204,
      "ä¹¦": 1205,
      "ur": 1206,
      "åı¯èĥ½ä¼ļ": 1207,
      "çĶµå½±": 1208,
      "çŁ": 1209,
      "åıĭ": 1210,
      "ĠS": 1211,
      "åįĩ": 1212,
      "æĺĵ": 1213,
      "åı¯ä»¥å¸®åĬ©": 1214,
      "ï¼Įä¹Ł": 1215,
      "æĪĸèĢħ": 1216,
      "ç´¢": 1217,
      "å¾ĭ": 1218,
      "ç¬¬": 1219,
      "æııè¿°": 1220,
      "å¯¹äºİ": 1221,
      "æķĻèĤ²": 1222,
      "æĿĲ": 1223,
      "ç¥ŀ": 1224,
      "æĸ°çļĦ": 1225,
      "äº«": 1226,
      "ç®Ĺæ³ķ": 1227,
      "ot": 1228,
      "ä½İ": 1229,
      "æĿ¡": 1230,
      "ers": 1231,
      "Ġg": 1232,
      "åı²": 1233,
      "è¯ģ": 1234,
      "æ³¨æĦı": 1235,
      "æ¤": 1236,
      "è¯»": 1237,
      "èĲ¥": 1238,
      "éģ¿åħį": 1239,
      "æķ°åŃĹ": 1240,
      "èİ·": 1241,
      "ly": 1242,
      "è·¯": 1243,
      "æ¶Ī": 1244,
      "æķĪçİĩ": 1245,
      "ation": 1246,
      "ce": 1247,
      "æļ": 1248,
      "ä¸ĸçķĮ": 1249,
      "ï¼Ľ": 1250,
      "æĺ¯ä¸Ģç§į": 1251,
      "ul": 1252,
      "åħ³éĶ®": 1253,
      "åĲ¬": 1254,
      "å¯¼èĩ´": 1255,
      "åĸľæ¬¢": 1256,
      "ä¸įåĲĮçļĦ": 1257,
      "çīĩ": 1258,
      "éĶĻ": 1259,
      "ç²¾": 1260,
      "ä»½": 1261,
      "ol": 1262,
      "åıĺåĮĸ": 1263,
      "åį³": 1264,
      "ãĢĤä¾ĭå¦Ĥ": 1265,
      "Ġyou": 1266,
      "ç§ĳæĬĢ": 1267,
      "è´¨éĩı": 1268,
      "çľŁ": 1269,
      "çº¢": 1270,
      "åħĭ": 1271,
      "åı¥åŃĲ": 1272,
      "ç¢": 1273,
      "å¸Ī": 1274,
      "ä¸ŃåĽ½": 1275,
      "æĪĳä»¬çļĦ": 1276,
      "åħħ": 1277,
      "if": 1278,
      "é¥®": 1279,
      "éĺ³": 1280,
      "èµĦæºĲ": 1281,
      "èĭ±": 1282,
      "are": 1283,
      "èĩ³": 1284,
      "qu": 1285,
      "éĶĢ": 1286,
      "çĥŃ": 1287,
      "åĲ¸": 1288,
      "ĠA": 1289,
      "èĳ": 1290,
      "ut": 1291,
      "æīĢæľī": 1292,
      "å¥¹": 1293,
      "yth": 1294,
      "é¤": 1295,
      "éĻĲ": 1296,
      "ä¸įæĸŃ": 1297,
      "å·²ç»ı": 1298,
      "è®Ń": 1299,
      "èīº": 1300,
      "æīĵ": 1301,
      "æĲ": 1302,
      "un": 1303,
      "åħ´": 1304,
      "çº¦": 1305,
      "åĳ½": 1306,
      "æĪĲä¸º": 1307,
      "æŃĮ": 1308,
      "ge": 1309,
      "ä»£çłģ": 1310,
      "è£ħ": 1311,
      "éĻ¤": 1312,
      "å°½": 1313,
      "éŁ³ä¹Ĳ": 1314,
      "éļ¾": 1315,
      "åŃĺåľ¨": 1316,
      "å®¢æĪ·": 1317,
      "é¤Ĳ": 1318,
      "ä¸¤ä¸ª": 1319,
      "æħ": 1320,
      "å¯Į": 1321,
      "è®¸å¤ļ": 1322,
      "ython": 1323,
      "æŁĲ": 1324,
      "è®¡åĪĴ": 1325,
      "å¢ŀåĬł": 1326,
      "æ¼Ķ": 1327,
      "çĽ¸åħ³": 1328,
      "ç»ĵæŀľ": 1329,
      "åŁİå¸Ĥ": 1330,
      "èº«ä½ĵ": 1331,
      "åĩ½": 1332,
      "åİĭ": 1333,
      "è°¢": 1334,
      "å¼Ģå§ĭ": 1335,
      "Ġfor": 1336,
      "å¸Į": 1337,
      "em": 1338,
      "å¸¦æĿ¥": 1339,
      "åĢĻ": 1340,
      "ï¼Įä»İèĢĮ": 1341,
      "ĠI": 1342,
      "åĪ°äºĨ": 1343,
      "ä¹ĭä¸Ģ": 1344,
      "Ġr": 1345,
      "çłĶç©¶": 1346,
      "çĻ½": 1347,
      "çĭ¬": 1348,
      "åĬ¿": 1349,
      "åĩ½æķ°": 1350,
      "æķħäºĭ": 1351,
      "èĩªåĬ¨": 1352,
      "åĩĨç¡®": 1353,
      "åĪ©çĶ¨": 1354,
      "çļĦå½±åĵį": 1355,
      "åħ³ç³»": 1356,
      "è®¤ä¸º": 1357,
      "éĢĤåĲĪ": 1358,
      "åħ·æľī": 1359,
      "éĤ£ä¹Ī": 1360,
      "ãĢĤä½ł": 1361,
      "è¡Įä¸º": 1362,
      "åħ»": 1363,
      "å°Ŀ": 1364,
      "å·¥åħ·": 1365,
      "å¯Ĩ": 1366,
      "æĮĳ": 1367,
      "ï¼Įåľ¨": 1368,
      "æĪı": 1369,
      "åĨį": 1370,
      "å¯»": 1371,
      "ĠC": 1372,
      "è´Ń": 1373,
      "åĬŁèĥ½": 1374,
      "ä¸Ģç¯ĩ": 1375,
      "åİĨåı²": 1376,
      "åĽ¢éĺŁ": 1377,
      "è¿ĲåĬ¨": 1378,
      "æĬ¥": 1379,
      "ä¸Ģç§į": 1380,
      "å¤´": 1381,
      "il": 1382,
      "å¤±": 1383,
      "ï¼Įè¯·": 1384,
      "æ£Ģ": 1385,
      "æŃ¤å¤ĸ": 1386,
      "éĩįè¦ģçļĦ": 1387,
      "åŃ¦çĶŁ": 1388,
      "çķ¥": 1389,
      "ä½ľä¸º": 1390,
      "$\\": 1391,
      "Ġst": 1392,
      "åı°": 1393,
      "ä»Ĭ": 1394,
      "ä¸Ģä¸ĭ": 1395,
      "é¦ĸåħĪ": 1396,
      "å®ĮæĪĲ": 1397,
      "ä¸įä»ħ": 1398,
      "æĮģç»Ń": 1399,
      "é£İéĻ©": 1400,
      "æĢ§åĴĮ": 1401,
      "ï¼ĮåĲĮæĹ¶": 1402,
      "æİ§åĪ¶": 1403,
      "èĤī": 1404,
      "å¡": 1405,
      "ç±³": 1406,
      "èģĮ": 1407,
      "èĢģ": 1408,
      "åĪĨç±»": 1409,
      "éĩĬ": 1410,
      "æ¯ıä¸ª": 1411,
      "ç»ľ": 1412,
      "ä¼ģ": 1413,
      "å¿ħ": 1414,
      "è¡¨è¾¾": 1415,
      "ä¸»é¢ĺ": 1416,
      "æ¢": 1417,
      "æ¬¾": 1418,
      "åĳ¨": 1419,
      "æľĢè¿ĳ": 1420,
      "è¯ĨåĪ«": 1421,
      "åħ¨çĲĥ": 1422,
      "åı·": 1423,
      "æĮĳæĪĺ": 1424,
      "ay": 1425,
      "ãĢĤå¥½çļĦ": 1426,
      "å¤§çļĦ": 1427,
      "åĲĦç§į": 1428,
      "å¯¹è¯Ŀ": 1429,
      "æľīæķĪ": 1430,
      "æĿĥ": 1431,
      "èŀ": 1432,
      "éĹ¨": 1433,
      "ç¨ĭåºı": 1434,
      "ï¼Įè¿ĺ": 1435,
      "æ¦": 1436,
      "å¸ĥ": 1437,
      "çļĦäºº": 1438,
      "æ¸¸æĪı": 1439,
      "ãĢĤåĽłæŃ¤": 1440,
      "åĭ": 1441,
      "ä»¥ä¸ĭæĺ¯": 1442,
      "Ġ\\(": 1443,
      "ç§ĳåŃ¦": 1444,
      "åĽ´": 1445,
      "å¼ł": 1446,
      "æĿĤ": 1447,
      "ä¹°": 1448,
      "äº§çĶŁ": 1449,
      "å¸ĮæľĽ": 1450,
      "å²": 1451,
      "åĳ¢": 1452,
      "ãĢĤæŃ¤å¤ĸ": 1453,
      "çª": 1454,
      "èĽ": 1455,
      "ate": 1456,
      "éĺ²": 1457,
      "è¯¯": 1458,
      "çĦ¶åĲİ": 1459,
      "###": 1460,
      "ir": 1461,
      "ä½ĵéªĮ": 1462,
      "ï¼Įæľī": 1463,
      "äººçļĦ": 1464,
      "æį¢": 1465,
      "æīį": 1466,
      "æĬķèµĦ": 1467,
      "äºĮ": 1468,
      "ä¼ģä¸ļ": 1469,
      "å»ºç«ĭ": 1470,
      "çħ§": 1471,
      "åıĳçİ°": 1472,
      "ç§°": 1473,
      "è¥": 1474,
      "ad": 1475,
      "åĽŀçŃĶ": 1476,
      "åı¯ä»¥éĢļè¿ĩ": 1477,
      "ç³ĸ": 1478,
      "æ³Ľ": 1479,
      "åĮ»çĶŁ": 1480,
      "ï¼ĮéľĢè¦ģ": 1481,
      "è¥¿": 1482,
      "ä»·åĢ¼": 1483,
      "æŁĵ": 1484,
      "æ¯Ķå¦Ĥ": 1485,
      "è¯Ĺ": 1486,
      "æľºåĻ¨åŃ¦ä¹ł": 1487,
      "çļĦåıĳå±ķ": 1488,
      "å¥³": 1489,
      ".\\": 1490,
      "è¾¹": 1491,
      "æ²»çĸĹ": 1492,
      "ä¹ĭéĹ´çļĦ": 1493,
      "ç½ĳç»ľ": 1494,
      "æİª": 1495,
      "å°Ŀè¯ķ": 1496,
      "å¼Ģåıĳ": 1497,
      "ï¼Įäººå·¥æĻºèĥ½": 1498,
      "èŀį": 1499,
      "èįĲ": 1500,
      "æĸ¯": 1501,
      "ãĢĤè¿ĻäºĽ": 1502,
      "æİ¨èįĲ": 1503,
      "å½ĵçĦ¶": 1504,
      "ãĢĤè¯·": 1505,
      "å±±": 1506,
      "æĸ¹æ¡Ī": 1507,
      "ç¿»": 1508,
      "å·§": 1509,
      "èħ": 1510,
      "Ġare": 1511,
      "xt": 1512,
      "çı": 1513,
      "åĬ¨çī©": 1514,
      "ï¼ĮæĤ¨": 1515,
      "å¿µ": 1516,
      "æľĭ": 1517,
      "æĴ": 1518,
      "ä»¥åıĬ": 1519,
      "éĥ¨åĪĨ": 1520,
      "ä¸ĵä¸ļ": 1521,
      "iv": 1522,
      "çİ°åľ¨": 1523,
      "æ¿": 1524,
      "èīºæľ¯": 1525,
      "ith": 1526,
      "ä¿®": 1527,
      "èĲ½": 1528,
      "çĽĳ": 1529,
      "æİªæĸ½": 1530,
      "éĻį": 1531,
      "çŁŃ": 1532,
      "æĿ¾": 1533,
      "è®¾å¤ĩ": 1534,
      "åħ¶ä¸Ń": 1535,
      "int": 1536,
      "çļĦæĸĩç«ł": 1537,
      "è¡¡": 1538,
      "ec": 1539,
      "é¡¹çĽ®": 1540,
      "ï¼Įä»ĸ": 1541,
      "æľĭåıĭ": 1542,
      "Ġas": 1543,
      "åĽłç´ł": 1544,
      "çļĦæĺ¯": 1545,
      "åĿĩ": 1546,
      "ç¦»": 1547,
      "åı¤": 1548,
      "å¹¿æ³Ľ": 1549,
      "è¿ľ": 1550,
      "ä¼ĺåĮĸ": 1551,
      "ä¼°": 1552,
      "ĠP": 1553,
      "æµİ": 1554,
      "çŁ¥è¯Ĩ": 1555,
      "çº§": 1556,
      "ãĢĤæĢ»": 1557,
      "æī¾åĪ°": 1558,
      "çļĦéĹ®é¢ĺ": 1559,
      "å¤įæĿĤ": 1560,
      "æ°ĳ": 1561,
      "è¯ī": 1562,
      "ä»ĭ": 1563,
      "ç»Ī": 1564,
      "ä¿ĥ": 1565,
      "ï¼ĮåĽłä¸º": 1566,
      "åºŃ": 1567,
      "ï¼Įä»¥åıĬ": 1568,
      "è°ĥæķ´": 1569,
      "è§Ĵèī²": 1570,
      "ç»ıæµİ": 1571,
      "ä¼Ĺ": 1572,
      "å£°": 1573,
      "$$\\": 1574,
      "åŃ©": 1575,
      "éª¤": 1576,
      "od": 1577,
      "æ¿Ģ": 1578,
      "è®¨": 1579,
      "æŃ¥éª¤": 1580,
      "çĽĬ": 1581,
      "ç»ĻæĪĳ": 1582,
      "åĸĦ": 1583,
      "åĪ¶å®ļ": 1584,
      "å¨": 1585,
      "ï¼Įå¦Ĥæŀľ": 1586,
      "èĽĭ": 1587,
      "å¾Īå¤ļ": 1588,
      "åĲĪä½ľ": 1589,
      "çļĦåºĶçĶ¨": 1590,
      "ï¼Įä¸º": 1591,
      "rac": 1592,
      "çīĮ": 1593,
      "è¯ĳ": 1594,
      "el": 1595,
      "ä¸½": 1596,
      "è¦ģæ±Ĥ": 1597,
      "è´Ł": 1598,
      "åŃ£": 1599,
      "Ġpro": 1600,
      "éļıçĿĢ": 1601,
      "ç¡®å®ļ": 1602,
      "ä¸°": 1603,
      "æľĢåĲİ": 1604,
      "ä¸Ģèµ·": 1605,
      "ä»ĸä»¬çļĦ": 1606,
      "ä¼łç»Ł": 1607,
      "æ²¹": 1608,
      "åħĥç´ł": 1609,
      "è®Ńç»ĥ": 1610,
      "åľ°çĲĥ": 1611,
      "ä¸Ģæ®µ": 1612,
      "é¦Ļ": 1613,
      ")\\": 1614,
      "è¾ĵåħ¥": 1615,
      "çĶ»": 1616,
      "è½¯": 1617,
      "æ½": 1618,
      "æıĲåıĸ": 1619,
      "æ¦Ĥ": 1620,
      "å¾ģ": 1621,
      "ç§¯æŀģ": 1622,
      "æĽ´å¤ļçļĦ": 1623,
      "æĮī": 1624,
      "é¢Ħæµĭ": 1625,
      "çĭĹ": 1626,
      "å¼Ĥ": 1627,
      "åįı": 1628,
      "äº¤éĢļ": 1629,
      "æĬĢèĥ½": 1630,
      "ä¸ĬçļĦ": 1631,
      "æĪ¿": 1632,
      "ç»ĵæŀĦ": 1633,
      "å¾ĹåĪ°": 1634,
      "å±Ĥ": 1635,
      "Ġv": 1636,
      "é²": 1637,
      "Ġcon": 1638,
      "æ¤į": 1639,
      "æĵį": 1640,
      "ãĢĤä»¥ä¸ĭæĺ¯": 1641,
      "åŁºäºİ": 1642,
      "ä»»ä½ķ": 1643,
      "ç¤¾äº¤": 1644,
      "æĹłæ³ķ": 1645,
      "è®¡ç®Ĺæľº": 1646,
      "äºī": 1647,
      "å®¶åºŃ": 1648,
      "éģĩ": 1649,
      "ri": 1650,
      "åĿĹ": 1651,
      "åĪ¶ä½ľ": 1652,
      "ç«Ļ": 1653,
      "æĺ¾": 1654,
      "é¼": 1655,
      "åĶ®": 1656,
      "è§£éĩĬ": 1657,
      "å¤ı": 1658,
      "åĪĽéĢł": 1659,
      "åħ³æ³¨": 1660,
      "å¾Ģ": 1661,
      "ä½ľçĶ¨": 1662,
      "ï¼ĮæıĲé«ĺ": 1663,
      "åĵªäºĽ": 1664,
      "åĪĹè¡¨": 1665,
      "ç±»åŀĭ": 1666,
      "åĬ±": 1667,
      "å¾·": 1668,
      "åĤ": 1669,
      "ãĢĤå®ĥ": 1670,
      "é»ĳ": 1671,
      "è¯¢": 1672,
      "èĥ½æºĲ": 1673,
      "ht": 1674,
      "Ġ`": 1675,
      "ï¼Įç¡®ä¿Ŀ": 1676,
      "åĬ©äºİ": 1677,
      "åĨ³çŃĸ": 1678,
      "å·®": 1679,
      "è´£": 1680,
      "çŃĸçķ¥": 1681,
      "ä¸°å¯Į": 1682,
      "ãĢĤåĲĮæĹ¶": 1683,
      "ess": 1684,
      "åĪĽæĸ°": 1685,
      "Â·": 1686,
      "pp": 1687,
      "ch": 1688,
      "éļĲ": 1689,
      "éĩĩåıĸ": 1690,
      "åª": 1691,
      "ãĢĤæĪĳä»¬": 1692,
      "Ġor": 1693,
      "æŃ£ç¡®": 1694,
      "umb": 1695,
      "è¯Ħä¼°": 1696,
      "åĩłä¸ª": 1697,
      "è¡Įä¸ļ": 1698,
      "åĪĩ": 1699,
      "æ±¡": 1700,
      "ke": 1701,
      "é¥®é£Ł": 1702,
      "å¹²": 1703,
      "ï¼Įä¸į": 1704,
      "Ġbe": 1705,
      "ab": 1706,
      "ç®Ģåįķ": 1707,
      "åĲĥ": 1708,
      "èį¯": 1709,
      "ï¼Įä½¿": 1710,
      "èī¯": 1711,
      "æĿĲæĸĻ": 1712,
      "å½ķ": 1713,
      "éĩıçļĦ": 1714,
      "ï¼Įå°Ĩ": 1715,
      "ï¼Įè¿ĻäºĽ": 1716,
      "èĮĥ": 1717,
      "ä¼¼": 1718,
      "ç¿»è¯ĳ": 1719,
      "Ġwh": 1720,
      "æİ¢ç´¢": 1721,
      "se": 1722,
      "åĨĻä¸Ģç¯ĩ": 1723,
      "æĵįä½ľ": 1724,
      "Ġthat": 1725,
      "è¯¦": 1726,
      "çŃīçŃī": 1727,
      "è¡¨ç¤º": 1728,
      "èĳĹ": 1729,
      "æĿİ": 1730,
      "ä¸įæĺ¯": 1731,
      "èĥĮ": 1732,
      "çļĦéĩįè¦ģ": 1733,
      "çŁ¥éģĵ": 1734,
      "æĬĬ": 1735,
      "æīĢä»¥": 1736,
      "åĬłåħ¥": 1737,
      "ç§ģ": 1738,
      "åı¦": 1739,
      "å®ŀéĻħ": 1740,
      "ver": 1741,
      "æĪĲåĬŁ": 1742,
      "Ġon": 1743,
      "æĦıè¯Ĩ": 1744,
      "ï¼Įæ¯Ķå¦Ĥ": 1745,
      "å®³": 1746,
      "åĽĽ": 1747,
      "ä¿ĥè¿Ľ": 1748,
      "ç»ĩ": 1749,
      "ãĢĤä½Ĩ": 1750,
      "èµĽ": 1751,
      "çģ«": 1752,
      "èİ·å¾Ĺ": 1753,
      "å¿ĥçĲĨ": 1754,
      "æĭ¥": 1755,
      "çĨ": 1756,
      "å¤©æ°Ķ": 1757,
      "åħ´è¶£": 1758,
      "Ġwith": 1759,
      "ï¼ĮåĽłæŃ¤": 1760,
      "pr": 1761,
      "çŃĶæ¡Ī": 1762,
      "æ±¡æŁĵ": 1763,
      "ç»į": 1764,
      "æ³ķå¾ĭ": 1765,
      "èĩªæĪĳ": 1766,
      "åĦ": 1767,
      "æĿ¥è¯´": 1768,
      "è¡¨çİ°": 1769,
      "ä»ĭç»į": 1770,
      "æĭŁ": 1771,
      "åĩºçİ°": 1772,
      "å¾ħ": 1773,
      "åİĭåĬĽ": 1774,
      "åĳĬè¯ī": 1775,
      "çĶŁäº§": 1776,
      "è®²": 1777,
      "and": 1778,
      "çĶŁçī©": 1779,
      "è¯¦ç»Ĩ": 1780,
      "åĮħåĲ«": 1781,
      "åªĴ": 1782,
      "è¿ŀ": 1783,
      "å¾®": 1784,
      "è¶ħ": 1785,
      "çİ©": 1786,
      "æ²Ł": 1787,
      "é£Łçī©": 1788,
      "ĠB": 1789,
      "æŃ£åľ¨": 1790,
      "pt": 1791,
      "ç»ıéªĮ": 1792,
      "å¤ªéĺ³": 1793,
      "åĽŃ": 1794,
      "ä»Ĭå¤©": 1795,
      "æĤ£": 1796,
      "ï¼ĮçĦ¶åĲİ": 1797,
      "å±ħ": 1798,
      "åıĹåĪ°": 1799,
      "¾çĹħ": 1800,
      "Ġit": 1801,
      "é¢ĳ": 1802,
      "è¯Ĭ": 1803,
      "æĪĳçļĦ": 1804,
      "å±ŀ": 1805,
      "æıĲåįĩ": 1806,
      "æĢİ": 1807,
      "éĥ½æĺ¯": 1808,
      "æĻ®": 1809,
      "ä»·æł¼": 1810,
      "å£«": 1811,
      "ï¼ĮéĤ£ä¹Ī": 1812,
      "æłĳ": 1813,
      "èµ·æĿ¥": 1814,
      "çİ°ä»£": 1815,
      "æľºä¼ļ": 1816,
      "åĵģçīĮ": 1817,
      "æĦŁåĪ°": 1818,
      "æŀĹ": 1819,
      "éĶĻè¯¯": 1820,
      "å°Ķ": 1821,
      "\\nä½ł": 1822,
      "æĭī": 1823,
      "çªģ": 1824,
      "æĶ¹åıĺ": 1825,
      "éĺħ": 1826,
      "è¾ĵåĩº": 1827,
      "å¹³åı°": 1828,
      "æĹħè¡Į": 1829,
      "ï¼Įä»¥ä¸ĭ": 1830,
      "è¿ĩç¨ĭä¸Ń": 1831,
      "åģĩ": 1832,
      "åįİ": 1833,
      "æĢ§çļĦ": 1834,
      "åħ±åĲĮ": 1835,
      "ç»¿": 1836,
      "æĽ²": 1837,
      "ï¼Įå¹¶ä¸Ķ": 1838,
      "å®¤": 1839,
      "åĪ»": 1840,
      "é¢ľ": 1841,
      "æķĪæŀľ": 1842,
      "æ·±åº¦": 1843,
      "é©¬": 1844,
      "Ġwe": 1845,
      "ç»Ļåĩº": 1846,
      "ï¼Įä½Ĩæĺ¯": 1847,
      "æ²ŁéĢļ": 1848,
      "çĮ«": 1849,
      "å¹³è¡¡": 1850,
      "åıĤä¸İ": 1851,
      "å¿«éĢŁ": 1852,
      "ere": 1853,
      "åªĴä½ĵ": 1854,
      "éħĴ": 1855,
      "text": 1856,
      "èµ°": 1857,
      "é¾": 1858,
      "é£ŀ": 1859,
      "é¸¡": 1860,
      "ĠM": 1861,
      "è¿½": 1862,
      "ld": 1863,
      "éĿĻ": 1864,
      "æ£ĢæŁ¥": 1865,
      "ï¼Įæĺ¯": 1866,
      "è¾ĳ": 1867,
      "ä½ľåĵģ": 1868,
      "åĩĨå¤ĩ": 1869,
      "æī§": 1870,
      "åŁ¹": 1871,
      "åĪ¤": 1872,
      "ãĤ": 1873,
      "åŃĹç¬¦": 1874,
      "å¥ĩ": 1875,
      "çĸ¾çĹħ": 1876,
      "ä¸ºäºĨ": 1877,
      "åºĵ": 1878,
      "ç¼º": 1879,
      "è´Ńä¹°": 1880,
      "æ¯į": 1881,
      "äºĨä¸Ģ": 1882,
      "ï¼Īå¦Ĥ": 1883,
      "äºĶ": 1884,
      "ä¼¦": 1885,
      "ight": 1886,
      "çģµ": 1887,
      "çļĦåľ°": 1888,
      "'s": 1889,
      "og": 1890,
      "åŃ©åŃĲ": 1891,
      "}{": 1892,
      "ï¼ĮæĪĳä»¬åı¯ä»¥": 1893,
      "ain": 1894,
      "åĦ¿": 1895,
      "çļĦä¸Ģ": 1896,
      "Python": 1897,
      "æĬĢå·§": 1898,
      "åĩ»": 1899,
      "for": 1900,
      "å¢ŀå¼º": 1901,
      "ï¼Į\\": 1902,
      "æ¯Ķè¾ĥ": 1903,
      "åįĹ": 1904,
      "åĽ°": 1905,
      "ç»Ħç»ĩ": 1906,
      "çĶµåŃĲ": 1907,
      "åĮĸçļĦ": 1908,
      "åł": 1909,
      "æľīåĬ©äºİ": 1910,
      "é±": 1911,
      "æĪĲæľ¬": 1912,
      "æĺ¯ä»Ģä¹Ī": 1913,
      "os": 1914,
      "äº¤æµģ": 1915,
      "pl": 1916,
      "æĹħæ¸¸": 1917,
      "frac": 1918,
      "é»Ħ": 1919,
      "é¢ľèī²": 1920,
      "çļĦä¿¡æģ¯": 1921,
      "é±¼": 1922,
      "ä¸¥": 1923,
      "çĥ¤": 1924,
      "æĳĦ": 1925,
      "éĴŁ": 1926,
      "æķ°åŃ¦": 1927,
      "ĠF": 1928,
      "}\\": 1929,
      "è½¯ä»¶": 1930,
      "èįī": 1931,
      "åıĳçĶŁ": 1932,
      "ï¼ĮéĢļè¿ĩ": 1933,
      "çĶŁæĢģ": 1934,
      "æīįèĥ½": 1935,
      "æķ°éĩı": 1936,
      "ãĢĤéĢļè¿ĩ": 1937,
      "æ³¢": 1938,
      "æľºåĻ¨äºº": 1939,
      "æ¶ī": 1940,
      "ç»ª": 1941,
      "éĺħè¯»": 1942,
      "è¯ĬæĸŃ": 1943,
      "ä»¤": 1944,
      "åħ¸": 1945,
      "oun": 1946,
      "åĬª": 1947,
      "æ°ĶåĢĻ": 1948,
      "æ´ģ": 1949,
      "æ¹": 1950,
      "çīĽ": 1951,
      "è´¢": 1952,
      "æ½ľ": 1953,
      "ãĢĤæĢ»ä¹ĭ": 1954,
      "å¯»æī¾": 1955,
      "è¿Ļç§į": 1956,
      "é£İæł¼": 1957,
      "ç§»": 1958,
      "é«ĺæķĪ": 1959,
      "åºľ": 1960,
      "åĬªåĬĽ": 1961,
      "çī¹å¾ģ": 1962,
      "æĢĿèĢĥ": 1963,
      "æĻļ": 1964,
      "å¤ļå°ĳ": 1965,
      "æ¤įçī©": 1966,
      "äºļ": 1967,
      "ï¼Įæ¯ı": 1968,
      "ï¼ļåľ¨": 1969,
      "ue": 1970,
      "æŃ¢": 1971,
      "åŁºç¡": 1972,
      "éĢĲ": 1973,
      "åŁºç¡Ģ": 1974,
      "Ġcan": 1975,
      "åįķè¯į": 1976,
      "éĢĤåºĶ": 1977,
      "é¢Ŀ": 1978,
      "æļĸ": 1979,
      "ĠH": 1980,
      "Ġx": 1981,
      "æĿ¡ä»¶": 1982,
      "æ©": 1983,
      "æĭ¥æľī": 1984,
      "ä»¥ä¸Ĭ": 1985,
      "ï¼Įå¸®åĬ©": 1986,
      "éĢŁåº¦": 1987,
      "åĮĹ": 1988,
      "åĴĸ": 1989,
      "éĶĢåĶ®": 1990,
      "æł¸": 1991,
      "çĶŁåĳ½": 1992,
      "æµĭè¯ķ": 1993,
      "èĦĳ": 1994,
      "æĦıä¹ī": 1995,
      "å¥¶": 1996,
      "ç´§": 1997,
      "åĤ¨": 1998,
      "éļĲç§ģ": 1999,
      "åľºæĻ¯": 2000,
      "ä¸ĢæŃ¥": 2001,
      "åĳĺå·¥": 2002,
      "éĨ": 2003,
      "èģĮä¸ļ": 2004,
      "åįģ": 2005,
      "èŃ": 2006,
      "å®Ŀ": 2007,
      "åĪĿ": 2008,
      "åŁºæľ¬": 2009,
      "èĩªçĦ¶è¯Ńè¨Ģ": 2010,
      "å°Ĭ": 2011,
      "ï¼Įéģ¿åħį": 2012,
      "åį°": 2013,
      "æľĢç»Ī": 2014,
      "ter": 2015,
      "çĳ": 2016,
      "ä½ı": 2017,
      "ç¾¤": 2018,
      "our": 2019,
      "ĠThe": 2020,
      "ä¾Ŀ": 2021,
      "ä¸ľ": 2022,
      "åı¯ä»¥åľ¨": 2023,
      "é¼ĵ": 2024,
      "è¶ĭ": 2025,
      "åĪĽå»º": 2026,
      "çĶ·": 2027,
      "åºĹ": 2028,
      "ï¼Įåį³": 2029,
      "æķ£": 2030,
      "å®ļæľŁ": 2031,
      "èĵ": 2032,
      "æĹ©": 2033,
      "åį¡": 2034,
      "æĤ£èĢħ": 2035,
      "æľīè¶£": 2036,
      "æĥħç»ª": 2037,
      "å¤ļä¸ª": 2038,
      "åķ¡": 2039,
      "èģĶç³»": 2040,
      "å¾ª": 2041,
      "è¡ĮåĬ¨": 2042,
      "è¯¾": 2043,
      "äººå·¥æĻºèĥ½æĬĢæľ¯": 2044,
      "ï¼Įä»¥ä¾¿": 2045,
      "¹æŀľ": 2046,
      "ind": 2047,
      "èĭ¹æŀľ": 2048,
      "åĪĽä½ľ": 2049,
      "çĵ": 2050,
      "ä¸´": 2051,
      "æ¶īåıĬ": 2052,
      "æĶ¿åºľ": 2053,
      "çĽ´æİ¥": 2054,
      "äºĳ": 2055,
      "åī§": 2056,
      "é²ľ": 2057,
      "Ġby": 2058,
      "ç¼ĸç¨ĭ": 2059,
      "æ±½": 2060,
      "ï¼Įä»¥ä¸ĭæĺ¯": 2061,
      "éĵ¾": 2062,
      "Ġhe": 2063,
      "ä¸Ģä½į": 2064,
      "åĴĸåķ¡": 2065,
      "ĠD": 2066,
      "yst": 2067,
      "åģı": 2068,
      "Ġcom": 2069,
      "éĩĳèŀį": 2070,
      "çī¹åĪ«": 2071,
      "çİĭ": 2072,
      "åĲ¸å¼ķ": 2073,
      "çļĦæĸ¹æ³ķ": 2074,
      "ĠE": 2075,
      "ä¸ĭéĿ¢": 2076,
      "è¶ĭåĬ¿": 2077,
      "av": 2078,
      "æ´ĭ": 2079,
      "å¤ľ": 2080,
      "åĿļ": 2081,
      "æī§è¡Į": 2082,
      "åı¯æĮģç»Ń": 2083,
      "ãĢĤä»ĸ": 2084,
      "æľīåħ³": 2085,
      "The": 2086,
      "èĴ": 2087,
      "ä½įç½®": 2088,
      "ä¸ªæĢ§": 2089,
      "æĢ§èĥ½": 2090,
      "æĿ¥è¶Ĭ": 2091,
      "age": 2092,
      "âĢĿï¼Į": 2093,
      "åıĪ": 2094,
      "æ¨¡å¼ı": 2095,
      "ction": 2096,
      "æĥħåĨµä¸ĭ": 2097,
      "å¤ļç§į": 2098,
      "ĠW": 2099,
      "æµª": 2100,
      "è¶ĬæĿ¥è¶Ĭ": 2101,
      "Ġex": 2102,
      "çŃĳ": 2103,
      "åĪĨäº«": 2104,
      "æıĲä¾ĽäºĨ": 2105,
      "èĥĮæĻ¯": 2106,
      "éĹ»": 2107,
      "çĶ±äºİ": 2108,
      "æłĩåĩĨ": 2109,
      "ort": 2110,
      "ãĢĤè¿Ļç§į": 2111,
      "æĶ¿çŃĸ": 2112,
      "èĶ": 2113,
      "åı¯ä»¥ä½¿çĶ¨": 2114,
      "åĳ¼": 2115,
      "æŁĲäºĽ": 2116,
      "ç¼ĵ": 2117,
      "æĿ¿": 2118,
      "ä¸²": 2119,
      "ä¸ºæĤ¨": 2120,
      "æ»¡è¶³": 2121,
      "æľīä»Ģä¹Ī": 2122,
      "ystem": 2123,
      "åĳĬè¯īæĪĳ": 2124,
      "äºĭä»¶": 2125,
      "èĻ½": 2126,
      "æĺ¯åľ¨": 2127,
      "åı¶": 2128,
      "ç¦ı": 2129,
      "å¸¸è§ģ": 2130,
      "çĭ¬çī¹": 2131,
      "å»ºçŃĳ": 2132,
      "æ·»": 2133,
      "ence": 2134,
      "ive": 2135,
      "å½©": 2136,
      "ity": 2137,
      "hn": 2138,
      "åģļåĩº": 2139,
      "èĪĴ": 2140,
      "å·´": 2141,
      "åĽ¾åĥı": 2142,
      "]\\": 2143,
      "çŁ³": 2144,
      "é¦Ī": 2145,
      "æĢİä¹Ī": 2146,
      "çī©è´¨": 2147,
      "æĥ¯": 2148,
      "çī¹å®ļ": 2149,
      "åħ¬åı¸çļĦ": 2150,
      "åľŁ": 2151,
      "çļ®": 2152,
      "å°ıè¯´": 2153,
      "ãĢĤæĤ¨": 2154,
      "æ¸Ĳ": 2155,
      "çļĦç¤": 2156,
      "åıĺå¾Ĺ": 2157,
      "çĶŁæĪĲä¸Ģä¸ª": 2158,
      "Ġne": 2159,
      "ef": 2160,
      "ç»¼": 2161,
      "ï¼ļæĪĳ": 2162,
      "æł·çļĦ": 2163,
      "çļĦç¾": 2164,
      "ï¼Įå¯¹": 2165,
      "èĻ½çĦ¶": 2166,
      "Ġnumb": 2167,
      "éĻįä½İ": 2168,
      "ple": 2169,
      "ĥåľ": 2170,
      "Ġ'": 2171,
      "ç¨³": 2172,
      "å½¢æĪĲ": 2173,
      "åŀĥåľ": 2174,
      "åŀĥåľ¾": 2175,
      "ide": 2176,
      "ï¼Įå®ĥä»¬": 2177,
      "ç¯ĩæĸĩç«ł": 2178,
      "åıįé¦Ī": 2179,
      "imes": 2180,
      "æĥ³è¦ģ": 2181,
      "éº": 2182,
      "éĽ¨": 2183,
      "æ°§": 2184,
      "è¡Ģ": 2185,
      "åĬłå¼º": 2186,
      "å½Ĵ": 2187,
      "ä¸ĩ": 2188,
      "è¯ŃéŁ³": 2189,
      "éĢı": 2190,
      "éĩĩçĶ¨": 2191,
      "çĦ¶èĢĮ": 2192,
      "éŃ": 2193,
      "æħ¢": 2194,
      "ä»ĺ": 2195,
      "é©¶": 2196,
      "ï¼Įåĩıå°ĳ": 2197,
      "æ¸©åº¦": 2198,
      "æ°´å¹³": 2199,
      "ult": 2200,
      "ä¸Ģæ¬¡": 2201,
      "åİŁåĽł": 2202,
      "åħħæ»¡": 2203,
      "ment": 2204,
      "äºĨä¸Ģä¸ª": 2205,
      "æĪĲåĳĺ": 2206,
      "æ²Ļ": 2207,
      "ice": 2208,
      "ç²ī": 2209,
      "rom": 2210,
      "åİħ": 2211,
      "å½ĵåľ°": 2212,
      "ä¹łæĥ¯": 2213,
      "ç»ĥä¹ł": 2214,
      "é¼ĵåĬ±": 2215,
      "å½¢å¼ı": 2216,
      "èĻļ": 2217,
      "ï¼Įä»ĸä»¬": 2218,
      "åĪĨéĴŁ": 2219,
      "æī¿": 2220,
      "èĪŀ": 2221,
      "ç¥¨": 2222,
      "ä»£è¡¨": 2223,
      "\\nåľ¨": 2224,
      "éĥ½æľī": 2225,
      "åľ°åĮº": 2226,
      "ï¼īï¼Į": 2227,
      "åĲ§": 2228,
      "èģĬ": 2229,
      "éļľ": 2230,
      "åĬĽåĴĮ": 2231,
      "æĸĩä»¶": 2232,
      "AIæĬĢæľ¯": 2233,
      "åºĶå¯¹": 2234,
      "è®°å½ķ": 2235,
      "ç«¯": 2236,
      "è®¨è®º": 2237,
      "æĶ¾æĿ¾": 2238,
      "ç©¿": 2239,
      "ãĢĤä½Ĩæĺ¯": 2240,
      "çķĻ": 2241,
      "å®ļä¹ī": 2242,
      "ä¼¤": 2243,
      "Jo": 2244,
      "ine": 2245,
      "æĹı": 2246,
      "è¡£": 2247,
      "æ¢¦": 2248,
      "èĩªçĦ¶è¯Ńè¨Ģå¤ĦçĲĨ": 2249,
      "ç«ŀ": 2250,
      "ãĢĤè¿Ļä¸ª": 2251,
      "æ¶Īè´¹": 2252,
      "---": 2253,
      "ç»Ļå®ļçļĦ": 2254,
      "é£Łåĵģ": 2255,
      "ä¸īä¸ª": 2256,
      "å°Ħ": 2257,
      "æ±½è½¦": 2258,
      "__": 2259,
      "æĶ¹åĸĦ": 2260,
      "æĸ¹åĲĳ": 2261,
      "æīĭæľº": 2262,
      "ãĢĤâĢĿ": 2263,
      "æĺ¥": 2264,
      "çĩ": 2265,
      "æĭħ": 2266,
      "ï¼ĮæĪĸèĢħ": 2267,
      "ç¤¾äº¤åªĴä½ĵ": 2268,
      "Ġle": 2269,
      "çī¹çĤ¹": 2270,
      "ä¸Ģä»½": 2271,
      "ãĢĤä»¥ä¸ĭæĺ¯ä¸ĢäºĽ": 2272,
      "æ·±åħ¥": 2273,
      "çļĦæķ°æį®": 2274,
      "ç¾İåĽ½": 2275,
      "æ°´æŀľ": 2276,
      "æĺİç¡®": 2277,
      "ï¼ļâĢľ": 2278,
      "äººç±»çļĦ": 2279,
      "çĹĩ": 2280,
      "ä»į": 2281,
      "çļĦç¾İ": 2282,
      "èľ": 2283,
      "äº¬": 2284,
      "åĨ°": 2285,
      "oc": 2286,
      "äº²": 2287,
      "å¯Ł": 2288,
      "èª": 2289,
      "ĠR": 2290,
      "æĽ´å¥½çļĦ": 2291,
      "çŃīæĸ¹éĿ¢": 2292,
      "ä¸¾": 2293,
      "Ġus": 2294,
      "æĹ¥å¸¸": 2295,
      "æĮīçħ§": 2296,
      "à¤": 2297,
      "\\)": 2298,
      "ase": 2299,
      "è´£ä»»": 2300,
      "çł´": 2301,
      "```\\": 2302,
      "ä¸įèĥ½": 2303,
      "å¿Ĺ": 2304,
      "å°±æĺ¯": 2305,
      "æ¦Ĥå¿µ": 2306,
      "çĬ¶æĢģ": 2307,
      "æĦŁè§ī": 2308,
      "åŃĹç¬¦ä¸²": 2309,
      "Ġch": 2310,
      "æĽ¿": 2311,
      "ç¬Ķ": 2312,
      "èĮĥåĽ´": 2313,
      "ame": 2314,
      "åº¦åĴĮ": 2315,
      "å¦Ĥä¸ĭ": 2316,
      "SS": 2317,
      "åħ·ä½ĵçļĦ": 2318,
      "çľł": 2319,
      "èĶ¬": 2320,
      "æĶ¹è¿Ľ": 2321,
      "æİ¨åĬ¨": 2322,
      "ub": 2323,
      "æľªæĿ¥çļĦ": 2324,
      "è¿İ": 2325,
      ".<|": 2326,
      "à¸": 2327,
      "ï¼Įä»¥ç¡®ä¿Ŀ": 2328,
      "åĨĻä¸Ģç¯ĩåħ³äºİ": 2329,
      "Ġ[": 2330,
      "å±Ģ": 2331,
      "åķĨåĵģ": 2332,
      "çīĪ": 2333,
      "Ġ\\)": 2334,
      "å¾Ħ": 2335,
      "sw": 2336,
      "å¡ĳ": 2337,
      "é¡»": 2338,
      "æĦ¿": 2339,
      "åĨľ": 2340,
      "ä¸įä¼ļ": 2341,
      "ï¼ĮæĪĳä»¬éľĢè¦ģ": 2342,
      "èĲ¥éĶĢ": 2343,
      "åĽ½å®¶": 2344,
      "ç¼ĸåĨĻ": 2345,
      "èĵĿ": 2346,
      "é¡¾": 2347,
      "æĿ¯": 2348,
      "ç§ĭ": 2349,
      "é©¾": 2350,
      "ag": 2351,
      "åĲįç§°": 2352,
      "ä¼ĳ": 2353,
      "èī²çļĦ": 2354,
      "éĿł": 2355,
      "å¹³åĿĩ": 2356,
      "è±Ĩ": 2357,
      "éĢłæĪĲ": 2358,
      "ï¼Įä¸Ģ": 2359,
      "ĠL": 2360,
      "ç¬¦åĲĪ": 2361,
      "èİ·åıĸ": 2362,
      "éĢĤçļĦ": 2363,
      "ä½³": 2364,
      "John": 2365,
      "åĲĪçĲĨ": 2366,
      "ç½ĳç«Ļ": 2367,
      "æŀ¶": 2368,
      "å°Ĩä¼ļ": 2369,
      "æ¯ĶèµĽ": 2370,
      "æĺ¯çļĦ": 2371,
      "éĴĪ": 2372,
      "èĲ¥åħ»": 2373,
      "out": 2374,
      "æ¥": 2375,
      "äº®": 2376,
      "ä»ĸçļĦ": 2377,
      "çĶ¨çļĦ": 2378,
      "éĢģ": 2379,
      "åıįåºĶ": 2380,
      "çİ°å®ŀ": 2381,
      "ä¼¦çĲĨ": 2382,
      "æįŁ": 2383,
      "è®¿": 2384,
      "èĶ¬èıľ": 2385,
      "åĮ»åŃ¦": 2386,
      "å¹´è½»": 2387,
      "ï¼ĮåĲĮæĹ¶ä¹Ł": 2388,
      "åĨ²": 2389,
      "äººåĳĺ": 2390,
      "æ·»åĬł": 2391,
      "ç»§": 2392,
      ".Ċ": 2393,
      "é¸Ł": 2394,
      "çĮ®": 2395,
      "åıĮ": 2396,
      "urn": 2397,
      "åĨ·": 2398,
      "æĹ¥æľŁ": 2399,
      "ä¹ĺ": 2400,
      "est": 2401,
      "è¿ĺæĺ¯": 2402,
      "å©": 2403,
      "Ġk": 2404,
      "è¿ĽæŃ¥": 2405,
      "è·µ": 2406,
      "ç»Ļå®ļ": 2407,
      "éģµ": 2408,
      "æĹ¶åĢĻ": 2409,
      "å¨ģ": 2410,
      "ç»´æĬ¤": 2411,
      "æĳĺ": 2412,
      "è§£åĨ³æĸ¹æ¡Ī": 2413,
      "å¼ºè°ĥ": 2414,
      "ies": 2415,
      "æł¡": 2416,
      "pe": 2417,
      "è§īå¾Ĺ": 2418,
      "times": 2419,
      "å®ĩ": 2420,
      "ç§ĺ": 2421,
      "å¿ħé¡»": 2422,
      "çĸ«": 2423,
      "è·Ŀ": 2424,
      "åľ¨çº¿": 2425,
      "æľ¨": 2426,
      "å¸®æĪĳ": 2427,
      "ill": 2428,
      "èĩªçĶ±": 2429,
      "ĠĠĠĠĠĠĠ": 2430,
      "print": 2431,
      "æ·±åº¦åŃ¦ä¹ł": 2432,
      "èĹ": 2433,
      "æĦŁåıĹ": 2434,
      "system": 2435,
      "åıĤåĬł": 2436,
      "èĤ¡": 2437,
      "Ġtr": 2438,
      "æµģç¨ĭ": 2439,
      "å°Ĭéĩį": 2440,
      "æĺ¯æĮĩ": 2441,
      "å®ŀè·µ": 2442,
      "äº«åıĹ": 2443,
      "ure": 2444,
      "é«ĺçļĦ": 2445,
      "è§ĤçĤ¹": 2446,
      "èĩªåĬ¨åĮĸ": 2447,
      "å®¹æĺĵ": 2448,
      "éĤ®": 2449,
      "çĽĸ": 2450,
      "è½¬æį¢": 2451,
      "é¡º": 2452,
      "å½ĵçĦ¶åı¯ä»¥": 2453,
      "è®¾ç½®": 2454,
      "å¯»æ±Ĥ": 2455,
      "âĢĶ": 2456,
      "æİĴåºı": 2457,
      "all": 2458,
      "çľ¼": 2459,
      "è¿Ķ": 2460,
      "åĬŀ": 2461,
      "æĴŃ": 2462,
      "æķ´ä¸ª": 2463,
      "æľīæ²¡æľī": 2464,
      "çĿ¡": 2465,
      "å¤ļæł·": 2466,
      "é¦Ĩ": 2467,
      "èį¯çī©": 2468,
      "è·Ł": 2469,
      "Ġqu": 2470,
      "çĦ¦": 2471,
      "ï¼Įåħ¶ä¸Ń": 2472,
      "ord": 2473,
      "ç©ºéĹ´": 2474,
      "Ġse": 2475,
      "æİĮ": 2476,
      "ä¹Łæĺ¯": 2477,
      "æĥ³æ³ķ": 2478,
      "åĨ³å®ļ": 2479,
      "æĲľ": 2480,
      "ach": 2481,
      "çľĭåĪ°": 2482,
      "åı¥è¯Ŀ": 2483,
      "swer": 2484,
      "æĶ¶éĽĨ": 2485,
      "å¤©çļĦ": 2486,
      "æ´Ĺ": 2487,
      "æ°ĶåĢĻåıĺåĮĸ": 2488,
      "ãĢĤçĦ¶èĢĮ": 2489,
      "é¤Ĳåİħ": 2490,
      "æ´²": 2491,
      "ç»ıåİĨ": 2492,
      "è§ĦåĪĴ": 2493,
      "æĸ°éĹ»": 2494,
      "åº§": 2495,
      "ä½łå¥½": 2496,
      "å·¨": 2497,
      "æĲŃ": 2498,
      "ob": 2499,
      "ä¸Ńå¿ĥ": 2500,
      "ãĢĤæľĢåĲİ": 2501,
      "oo": 2502,
      "æ··": 2503,
      "äºĴåĬ¨": 2504,
      "éĻ¢": 2505,
      "å±ķç¤º": 2506,
      "èģĶç½ĳ": 2507,
      "åºķ": 2508,
      "éĻĲåĪ¶": 2509,
      "æ´ŀ": 2510,
      "è¿ĺæľī": 2511,
      "Ġnot": 2512,
      "æıĲåĩº": 2513,
      "ãĥ": 2514,
      "ãĢĤå½ĵ": 2515,
      "çĨŁ": 2516,
      "Ġun": 2517,
      "åĪ¤æĸŃ": 2518,
      "è¯¾ç¨ĭ": 2519,
      "ud": 2520,
      "å¿ħè¦ģ": 2521,
      "åķĨä¸ļ": 2522,
      "ï¼ĮæīĢä»¥": 2523,
      "ä¾ĭåŃĲ": 2524,
      "çļĦæĹ¶éĹ´": 2525,
      "ï¼ĮæĪĳä¼ļ": 2526,
      "çļĦçĶŁæ´»": 2527,
      "å²ģ": 2528,
      "è¿Ľä¸ĢæŃ¥": 2529,
      "ç¥ŀç»ı": 2530,
      "åı¯èĥ½éľĢè¦ģ": 2531,
      "èŃ¦": 2532,
      "Ġpr": 2533,
      "éĹ®é¢ĺçļĦ": 2534,
      "åŃĺåĤ¨": 2535,
      "éĢĤå½ĵ": 2536,
      "é¢ĺçĽ®": 2537,
      "é©¾é©¶": 2538,
      "python": 2539,
      "éħ¸": 2540,
      "è¶³å¤Ł": 2541,
      "ç»ĵåĲĪ": 2542,
      "éĩİ": 2543,
      "ä¸Ńæĸĩ": 2544,
      "å®ĺ": 2545,
      "çĤ¼": 2546,
      "èģļ": 2547,
      "éĿĴ": 2548,
      "çļĦç¤¾": 2549,
      "Ġnumber": 2550,
      "æ¯ıä¸ªäºº": 2551,
      "ĠG": 2552,
      "ç»ĦæĪĲ": 2553,
      "æĪĲéķ¿": 2554,
      "å¿Ĩ": 2555,
      "æĬĢæľ¯çļĦ": 2556,
      "éģĩåĪ°": 2557,
      "èĮ¶": 2558,
      "è¿ŀæİ¥": 2559,
      "è§ĦåĪĻ": 2560,
      "äºĭæĥħ": 2561,
      "æľºæŀĦ": 2562,
      "åŃ¦ä¹łåĴĮ": 2563,
      "èĪª": 2564,
      "æŃ§": 2565,
      "çī©çĲĨ": 2566,
      "å¯¹è¯ĿåĨħå®¹": 2567,
      "ç¢³": 2568,
      "åıĬæĹ¶": 2569,
      "åĴ¨": 2570,
      "You": 2571,
      "¹ģ": 2572,
      "éģĵå¾·": 2573,
      "ap": 2574,
      "åħ³éĶ®è¯į": 2575,
      "è´§": 2576,
      "èī¯å¥½çļĦ": 2577,
      "æī©": 2578,
      "ions": 2579,
      "èĭ±æĸĩ": 2580,
      "åĳ¼åĲ¸": 2581,
      "ç«ŀäºī": 2582,
      "Ġåľ¨": 2583,
      "æĸĩåŃ¦": 2584,
      "åĴ¨è¯¢": 2585,
      "çļĦå·¥ä½ľ": 2586,
      "ib": 2587,
      "æ¸ħæĻ": 2588,
      "turn": 2589,
      "ç½Ĺ": 2590,
      "èĳĹåĲį": 2591,
      "ï¼Įä½¿çĶ¨": 2592,
      "çļĦçł": 2593,
      "å®¡": 2594,
      "æı¡": 2595,
      "åıĤæķ°": 2596,
      "åĬĽéĩı": 2597,
      "ç»§ç»Ń": 2598,
      "å®ĥä»¬çļĦ": 2599,
      "å®Ļ": 2600,
      "éĵ¶": 2601,
      "è¿ĶåĽŀ": 2602,
      "ä¼´": 2603,
      "ep": 2604,
      "è¯ĹæŃĮ": 2605,
      "å°ıçº¢": 2606,
      "åºĶçĶ¨ç¨ĭåºı": 2607,
      "åĪĽæĦı": 2608,
      "æĢĿç»´": 2609,
      "ang": 2610,
      "åį«": 2611,
      "()": 2612,
      "ä¸įåı¯": 2613,
      "ç¤¼": 2614,
      "éĩıåŃĲ": 2615,
      "Ġ*": 2616,
      "æĮĩå¯¼": 2617,
      "æİ¥åıĹ": 2618,
      "ĠN": 2619,
      "ç©ºæ°Ķ": 2620,
      "è¸": 2621,
      "éĢĶ": 2622,
      "ï¼Įåħ¶": 2623,
      "éĺ³åħī": 2624,
      "ãĢĤé¦ĸåħĪ": 2625,
      "âĢĿãĢĤ": 2626,
      "ĠÃ": 2627,
      "è·ĳ": 2628,
      "èĸ": 2629,
      "å®ĩå®Ļ": 2630,
      "iz": 2631,
      "ial": 2632,
      "ç®±": 2633,
      "éĺ¿": 2634,
      "åĽ½éĻħ": 2635,
      "çĭ¬çī¹çļĦ": 2636,
      "æĲľç´¢": 2637,
      "èĢħçļĦ": 2638,
      "éĿ¢çļĦ": 2639,
      "éĿ¢å¯¹": 2640,
      "åĪĨéħį": 2641,
      "å®Ī": 2642,
      "çĽĲ": 2643,
      "æĦıåĳ³": 2644,
      "åľ¨åĮ»çĸĹ": 2645,
      "éĢ»": 2646,
      "çļĦå»ºè®®": 2647,
      "æ¼«": 2648,
      "çĬ¶åĨµ": 2649,
      "ĠO": 2650,
      "çĽ®åīį": 2651,
      "éģĹ": 2652,
      "---\\": 2653,
      "èĭ±è¯Ń": 2654,
      "å°ıæĹ¶": 2655,
      "Ġme": 2656,
      "Ġres": 2657,
      "ust": 2658,
      "æķ°æį®çļĦ": 2659,
      "to": 2660,
      "æľīæīĢ": 2661,
      "ore": 2662,
      "æĢ»ç»ĵ": 2663,
      "ä¸ŃæıĲåıĸ": 2664,
      "ç¤¾åĮº": 2665,
      "å°¼": 2666,
      "åĽ°éļ¾": 2667,
      "æİĴæĶ¾": 2668,
      "ï¼ĮæıĲä¾Ľ": 2669,
      "æĩ": 2670,
      "åĿı": 2671,
      "æĢ¥": 2672,
      "é¥°": 2673,
      "éĿ¢ä¸´": 2674,
      "æķĪçİĩåĴĮ": 2675,
      "æ®µèĲ½": 2676,
      "erm": 2677,
      "ave": 2678,
      "åĲİçļĦ": 2679,
      "ç³»åĪĹ": 2680,
      "éħ±": 2681,
      "æ¬¢è¿İ": 2682,
      "èĨ": 2683,
      "å¤§éĩıçļĦ": 2684,
      "çĽ¸åħ³çļĦ": 2685,
      "ï¼Įèĥ½å¤Ł": 2686,
      "æ¯Ĵ": 2687,
      "å³": 2688,
      "è¿Ļç¯ĩæĸĩç«ł": 2689,
      "éĢ»è¾ĳ": 2690,
      "ans": 2691,
      "æ²³": 2692,
      "ä½ĵçļĦ": 2693,
      "çī¹å®ļçļĦ": 2694,
      "éķ¿æľŁ": 2695,
      "æĹłè®º": 2696,
      "çļĦç¬": 2697,
      "æĳĺè¦ģ": 2698,
      "éĢĲæ¸Ĳ": 2699,
      "è¯´æĺİ": 2700,
      "çļĦçĥ": 2701,
      "ï¼ĮAI": 2702,
      "çºª": 2703,
      "OSS": 2704,
      "çļĦä¸»è¦ģ": 2705,
      "åľĨ": 2706,
      "ãĢĤä»İ": 2707,
      "ï¼ĮéĢļå¸¸": 2708,
      "ä¸ĢåĲį": 2709,
      "å¹¸": 2710,
      "æĦıåĳ³çĿĢ": 2711,
      "put": 2712,
      "æĬĺ": 2713,
      "éĶ»": 2714,
      "åįĬ": 2715,
      "å·®å¼Ĥ": 2716,
      "ä¸Ģé¦ĸ": 2717,
      "éĴ±": 2718,
      "ãĢĤå¦ĤæŀľæĤ¨": 2719,
      "ä¹ĭåīį": 2720,
      "å®ŀéªĮ": 2721,
      "åħ¶æ¬¡": 2722,
      "è®¿éĹ®": 2723,
      "çļĦæĸ¹å¼ı": 2724,
      "çģ¯": 2725,
      "æ£®": 2726,
      "è¿½æ±Ĥ": 2727,
      "ike": 2728,
      "éĶ»çĤ¼": 2729,
      "Ġat": 2730,
      "çıŃ": 2731,
      "ç¾İä¸½": 2732,
      "act": 2733,
      "ï¼Įè¿Ļä¸ª": 2734,
      "ä¸ĢçĽ´": 2735,
      "å¥ĸ": 2736,
      "ä½Ļ": 2737,
      "åıªæľī": 2738,
      "åĲįåŃĹ": 2739,
      "ä¸ºä»Ģä¹Ī": 2740,
      "Ġsh": 2741,
      "åī©": 2742,
      "éĤ®ä»¶": 2743,
      "ä¸°å¯ĮçļĦ": 2744,
      "ç¨³å®ļ": 2745,
      "æĦŁè°¢": 2746,
      "çĽĺ": 2747,
      "åģľ": 2748,
      "ä¸įéĶĻ": 2749,
      "è§Ĩè§ī": 2750,
      "ï¼Įä½łåı¯ä»¥": 2751,
      "åį±": 2752,
      "æµ·æ´ĭ": 2753,
      "ç¬¬äºĮ": 2754,
      "çļĦçľ": 2755,
      "é¢Ĺ": 2756,
      "ak": 2757,
      "ç³ĸæŀľ": 2758,
      "åŁ¹è®Ń": 2759,
      "ï¼Įäººä»¬": 2760,
      "å®Įåħ¨": 2761,
      "ï¼ļè¿Ļ": 2762,
      "è·Ŀç¦»": 2763,
      "è°¢è°¢": 2764,
      "ich": 2765,
      "åįļ": 2766,
      "Ġj": 2767,
      "å½ĵåīį": 2768,
      "æ¯ıå¤©": 2769,
      "åĬĽçļĦ": 2770,
      "çĸĳ": 2771,
      "æ±ĩ": 2772,
      "åĭĩ": 2773,
      "æ¸ħæĻ°": 2774,
      "å®¶å±ħ": 2775,
      "ring": 2776,
      "æĬ¥åĳĬ": 2777,
      "ould": 2778,
      "æľĢå¤§": 2779,
      "ç¹ģ": 2780,
      "ç¾İé£Ł": 2781,
      "éĢĴ": 2782,
      "çĲĨè®º": 2783,
      "æİ¢è®¨": 2784,
      "able": 2785,
      "åı£æĦŁ": 2786,
      "âĢĿçļĦ": 2787,
      "è½½": 2788,
      "\",": 2789,
      "ox": 2790,
      "ï¼Ł\\": 2791,
      "æŃ£ç¡®çļĦ": 2792,
      "èĻļæĭŁ": 2793,
      "å°ļ": 2794,
      "ï¼ĮæĤ¨åı¯ä»¥": 2795,
      "å¤§å°ı": 2796,
      "å¤§éĩı": 2797,
      "è¿Ĳè¡Į": 2798,
      "ä¸ĭæĿ¥": 2799,
      "Ġfrom": 2800,
      "ç®ĢåįķçļĦ": 2801,
      "æķı": 2802,
      "èĪ¬": 2803,
      "æĽ´æĸ°": 2804,
      "åĢĴ": 2805,
      "éĩįæĸ°": 2806,
      "Ġsp": 2807,
      "ost": 2808,
      "åĲĪéĢĤçļĦ": 2809,
      "è´¡": 2810,
      "æĮ¥": 2811,
      "ä¸Ģå®ļ": 2812,
      "åĮĸåŃ¦": 2813,
      "ç»ĨèĬĤ": 2814,
      "å¾ªçİ¯": 2815,
      "åĪ¶éĢł": 2816,
      "ä¸ļåĬ¡": 2817,
      "åį´": 2818,
      "MOSS": 2819,
      "ä¸¥éĩį": 2820,
      "å¥ı": 2821,
      "éĿ©": 2822,
      "Ġthis": 2823,
      "è·³": 2824,
      "uc": 2825,
      "è§Ĩé¢ĳ": 2826,
      "è·¨": 2827,
      "ĠçļĦ": 2828,
      "éľ²": 2829,
      "ical": 2830,
      "ĠTh": 2831,
      "form": 2832,
      "äº¤æĺĵ": 2833,
      "Ġen": 2834,
      "çī©åĵģ": 2835,
      "åı«": 2836,
      "è´¡çĮ®": 2837,
      "ime": 2838,
      "éĢīé¡¹": 2839,
      "éŁ": 2840,
      "èĢĲ": 2841,
      "è¾ħ": 2842,
      "æİ¨å¹¿": 2843,
      "è§¦": 2844,
      "æĶ»": 2845,
      "åĲ¯": 2846,
      "æŃ§è§Ĩ": 2847,
      "å·¥ç¨ĭ": 2848,
      "èĦĤ": 2849,
      "ie": 2850,
      "ç»Ŀ": 2851,
      "æľºåĪ¶": 2852,
      "ç£": 2853,
      "åĽº": 2854,
      "è´¢åĬ¡": 2855,
      "çŃīé¢ĨåŁŁ": 2856,
      "ast": 2857,
      "ãĢĤ-": 2858,
      "åħ¬åħ±": 2859,
      "éĺ¶": 2860,
      "ä¼½": 2861,
      "å°¤": 2862,
      "éĴĪå¯¹": 2863,
      "æĬĹ": 2864,
      "åįĥ": 2865,
      "ä»¥ä¸ĭåĩłä¸ª": 2866,
      "æ½ľåľ¨": 2867,
      "æ³¨éĩį": 2868,
      "å¸ģ": 2869,
      "ount": 2870,
      "è¾Ĩ": 2871,
      "æ¶²": 2872,
      "èĹı": 2873,
      "åı¯èĥ½çļĦ": 2874,
      "Ġyour": 2875,
      "æłĩé¢ĺ": 2876,
      ".\"": 2877,
      "ile": 2878,
      "èĽĭçĻ½": 2879,
      "çĽ¸äºĴ": 2880,
      "åĵĪ": 2881,
      "åĿĲ": 2882,
      "èĪĴéĢĤ": 2883,
      "éĵģ": 2884,
      "å¹»": 2885,
      "æ¯Ľ": 2886,
      "çĦ¦èĻĳ": 2887,
      "æİĮæı¡": 2888,
      "çĻ¾": 2889,
      "çº³": 2890,
      "æĲŃéħį": 2891,
      "å¢ŀéķ¿": 2892,
      "æĺł": 2893,
      "è¾¾åĪ°": 2894,
      "æľĢä½³": 2895,
      "åºĶçļĦ": 2896,
      "æ¤Ĵ": 2897,
      "çİ°è±¡": 2898,
      "éķ¿åº¦": 2899,
      "ç±į": 2900,
      "çĤĴ": 2901,
      "ï¼Įåı¯ä»¥å¸®åĬ©": 2902,
      "è¿Ļä¸ªéĹ®é¢ĺ": 2903,
      "åĪļ": 2904,
      "å¸¸è§ģçļĦ": 2905,
      "å°Ĩåħ¶": 2906,
      "æ·±åĪ»": 2907,
      "åı¯éĿł": 2908,
      "è´ŁéĿ¢": 2909,
      "å®£": 2910,
      "åĬ©æīĭ": 2911,
      "é¾Ħ": 2912,
      "è´Ńçī©": 2913,
      "è§£åĨ³éĹ®é¢ĺ": 2914,
      "èµĸ": 2915,
      "å®īæİĴ": 2916,
      "è¿ĺåı¯ä»¥": 2917,
      "æł¸å¿ĥ": 2918,
      "----": 2919,
      "è¿Ļæ®µ": 2920,
      "èĤĮ": 2921,
      "ä¸ĵæ³¨": 2922,
      "ç»¿èī²": 2923,
      "æ±¤": 2924,
      "æķ°æį®åĪĨæŀĲ": 2925,
      "ľä¼½": 2926,
      "æĿŁ": 2927,
      "æ¸ħæ´ģ": 2928,
      "æľīè¶£çļĦ": 2929,
      "ä¼ļè®®": 2930,
      "éĩįå¤į": 2931,
      "éĻ¤äºĨ": 2932,
      "æĳĦåħ¥": 2933,
      "æ»©": 2934,
      "ell": 2935,
      "çĽ¸å¯¹": 2936,
      "åĢĭ": 2937,
      "åĨĽ": 2938,
      "ãĢĤå°ıæĺİ": 2939,
      "è¯Ńæ³ķ": 2940,
      "Ġal": 2941,
      "çħ®": 2942,
      "èĢģå¸Ī": 2943,
      "æŁĶ": 2944,
      "åı¦å¤ĸ": 2945,
      "æ²ī": 2946,
      "ç¬ĳ": 2947,
      "èĥľ": 2948,
      "åģĩè®¾": 2949,
      "å¼ķèµ·": 2950,
      "çº¸": 2951,
      "å¤§åĪ©": 2952,
      "å±ŀäºİ": 2953,
      "èĦļ": 2954,
      "çĥĪ": 2955,
      "Tom": 2956,
      "æľīå¾Īå¤ļ": 2957,
      "åŃ£èĬĤ": 2958,
      "èĤ¤": 2959,
      "éĨĴ": 2960,
      "åģ¥èº«": 2961,
      "æľīçĿĢ": 2962,
      "é¡µ": 2963,
      "ip": 2964,
      "çļĦçłĶ": 2965,
      "ä¼ĺåĬ¿": 2966,
      "æ¡Ĩ": 2967,
      "ãĢĤå¦Ĥæŀľä½ł": 2968,
      "åĬ³": 2969,
      "çĶľ": 2970,
      "op": 2971,
      "ack": 2972,
      "ãĢĤä¸į": 2973,
      "Ġå°Ĩ": 2974,
      "çĶ¨æĿ¥": 2975,
      "ary": 2976,
      "åľ¨äºİ": 2977,
      "çŃ¾": 2978,
      "ãĢĤ\"": 2979,
      "Ġpl": 2980,
      "åĮĹäº¬": 2981,
      "æĬ½": 2982,
      "äºĴèģĶç½ĳ": 2983,
      "è¿Ļä¸Ģ": 2984,
      "æ¨¡æĭŁ": 2985,
      "æľīæķĪçļĦ": 2986,
      "éªĮè¯ģ": 2987,
      "èĥ½éĩı": 2988,
      "åı¯ä»¥è®©": 2989,
      "æķ´æķ°": 2990,
      "åŃĹæ¯į": 2991,
      "Ġprov": 2992,
      "cri": 2993,
      "one": 2994,
      "Th": 2995,
      "ï¼Įè¿Ļæł·": 2996,
      "åı³": 2997,
      "Ġde": 2998,
      "è¿ĻéĩĮ": 2999,
      "æ£Ģæµĭ": 3000,
      "è¿ĩåº¦": 3001,
      "å®ĥçļĦ": 3002,
      "åĨħéĥ¨": 3003,
      "ï¼ļ-": 3004,
      "é¾Ļ": 3005,
      "Ġdo": 3006,
      "æ±ł": 3007,
      "çļĦåħ³éĶ®": 3008,
      "unction": 3009,
      "å¡ĳæĸĻ": 3010,
      "arr": 3011,
      "ect": 3012,
      "ï¼Įè¦ģ": 3013,
      "çļĦéľĢæ±Ĥ": 3014,
      "ä¸ªæĢ§åĮĸ": 3015,
      "çĲĨè§£åĴĮ": 3016,
      "ï¼Įå¥¹": 3017,
      "çĶŁæ´»ä¸Ń": 3018,
      "ç¨ĭåº¦": 3019,
      "åĴĮåħ¶ä»ĸ": 3020,
      "æŃĮæĽ²": 3021,
      "çİ¯å¢ĥä¿ĿæĬ¤": 3022,
      "æµĵ": 3023,
      "èĢĹ": 3024,
      "å¹¿åĳĬ": 3025,
      "ä¹ħ": 3026,
      "ç»ĺ": 3027,
      "éĶħ": 3028,
      "è°Ī": 3029,
      "ãĢĤA": 3030,
      "ç¿»è¯ĳæĪĲ": 3031,
      "tal": 3032,
      "æĶ¯ä»ĺ": 3033,
      "è®¢": 3034,
      "æĹ¢": 3035,
      "ear": 3036,
      "æľīä¸Ģä¸ª": 3037,
      "åºĶçĶ¨äºİ": 3038,
      "å·¦": 3039,
      "ï¼ĮæĪĳåı¯ä»¥": 3040,
      "ook": 3041,
      "ï¼īãĢĤ": 3042,
      "Ġad": 3043,
      "æĢĿæĥ³": 3044,
      "åıĺéĩı": 3045,
      "åıĳæĮ¥": 3046,
      "åĴĮæĸĩåĮĸ": 3047,
      "ãĢĤäººå·¥æĻºèĥ½": 3048,
      "ãĢĤæł¹æį®": 3049,
      "ä¹Łåı¯ä»¥": 3050,
      "éĿ¢ç§¯": 3051,
      "èµı": 3052,
      "Ġreturn": 3053,
      "ç¼©": 3054,
      "ĠAI": 3055,
      "åĪĨåĪ«": 3056,
      "ï¼ĮèĢĮä¸Ķ": 3057,
      "æĹ¨": 3058,
      "çĶŁæĢģç³»ç»Ł": 3059,
      "è¯ļ": 3060,
      "ç§»åĬ¨": 3061,
      "å®ł": 3062,
      "çĪ±æĥħ": 3063,
      "åįĪ": 3064,
      "ä¿Ŀè¯ģ": 3065,
      "ãĢĤä»ĸä»¬": 3066,
      "ï¼ĮéĤ£": 3067,
      "çĽĳæµĭ": 3068,
      "æĥĬ": 3069,
      "æ¡£": 3070,
      "æŁ¥è¯¢": 3071,
      "Ġ#": 3072,
      "åħ¬åĽŃ": 3073,
      "ä½¿å¾Ĺ": 3074,
      "çļĦçĪ": 3075,
      "çĽ¸åĲĮ": 3076,
      "ĠæĪĳ": 3077,
      "å¥³æĢ§": 3078,
      "æĹ¶éĹ´åĴĮ": 3079,
      "ä¾Ŀèµĸ": 3080,
      "åı¯æĮģç»Ńåıĳå±ķ": 3081,
      "å¹´é¾Ħ": 3082,
      "ï¼Įä¿ĿæĮģ": 3083,
      "çĹĽ": 3084,
      "ther": 3085,
      "é¥Ń": 3086,
      "\\[": 3087,
      "æŀĦå»º": 3088,
      "ä»įçĦ¶": 3089,
      "å¸¦æĿ¥äºĨ": 3090,
      "åĨĻä½ľ": 3091,
      "ç¾İåħĥ": 3092,
      "è®¤çŁ¥": 3093,
      "ç»ıåħ¸": 3094,
      "å¹¶ä¸į": 3095,
      "çļĦç¨": 3096,
      "**:": 3097,
      "num": 3098,
      "çľģ": 3099,
      "cl": 3100,
      "åħ°": 3101,
      "ç¡®å®ŀ": 3102,
      "åĹ": 3103,
      "çļĦç¼": 3104,
      "çĳľä¼½": 3105,
      "æĿ¥æºĲ": 3106,
      "Ġ{": 3107,
      "æ··åĲĪ": 3108,
      "ard": 3109,
      "è´µ": 3110,
      "çļĦåľ°æĸ¹": 3111,
      "éĢĻ": 3112,
      "åı¯èĥ½æĺ¯": 3113,
      "ome": 3114,
      "æħ§": 3115,
      "åĩıè½»": 3116,
      "ä¿Ŀåģ¥": 3117,
      "çļĦå®īåħ¨": 3118,
      "çļĦæķħäºĭ": 3119,
      "è¡ĮæĺŁ": 3120,
      "åīĤ": 3121,
      "..": 3122,
      "åŃ¦æł¡": 3123,
      "ĠÐ": 3124,
      "ãĢĤèĢĮ": 3125,
      "æľ«": 3126,
      "çľŁæŃ£": 3127,
      "è¿ĩåİ»": 3128,
      "éģį": 3129,
      "ï¼Įä¸İ": 3130,
      "(\"": 3131,
      "é¢Ħç®Ĺ": 3132,
      "ç»ıå¸¸": 3133,
      "çĽ¸ä¿¡": 3134,
      "ï¼Įå»ºè®®": 3135,
      "ä¼ĳæģ¯": 3136,
      "æ£®æŀĹ": 3137,
      "åĢ¾": 3138,
      "èī¾": 3139,
      "Ġass": 3140,
      "è¡¥": 3141,
      "æ»¡æĦı": 3142,
      "çīĻ": 3143,
      "Ġper": 3144,
      "çģ¾": 3145,
      "per": 3146,
      "åĵ²": 3147,
      "è®²è¿°": 3148,
      "ç»ĦåĲĪ": 3149,
      "å·ŀ": 3150,
      "å®łçī©": 3151,
      "',": 3152,
      "å»¶": 3153,
      "éľĢè¦ģæ³¨æĦı": 3154,
      "æµģè¡Į": 3155,
      "æĦıæĢĿ": 3156,
      "å¤įæĿĤçļĦ": 3157,
      "å°¤åħ¶": 3158,
      "ä¸Ĭè¿°": 3159,
      "çļĦå°ı": 3160,
      "æľīäºĽ": 3161,
      "è¡¨æĺİ": 3162,
      "åıĸå¾Ĺ": 3163,
      "ä¹Łä¼ļ": 3164,
      "æ¬§": 3165,
      "ance": 3166,
      "çļĦæĿ¥è¯´": 3167,
      "ç¤ºä¾ĭ": 3168,
      "Ġtotal": 3169,
      "ãĢĤéļıçĿĢ": 3170,
      "ä¸Ŀ": 3171,
      "æľīæķĪåľ°": 3172,
      "ä¿®æĶ¹": 3173,
      "èĲ¨": 3174,
      "æ³ķè§Ħ": 3175,
      "æĻºæħ§": 3176,
      "ï¼ļ```": 3177,
      "æĶ¶åħ¥": 3178,
      "åĮºåŁŁ": 3179,
      "è¿·": 3180,
      "Ġwor": 3181,
      "çļĦæĬĢæľ¯": 3182,
      "ĠJ": 3183,
      "ç¼ĵè§£": 3184,
      "ï¼Łå½ĵçĦ¶åı¯ä»¥": 3185,
      "å®½": 3186,
      "ï¼Įå¯¼èĩ´": 3187,
      "æ¹¿": 3188,
      "ax": 3189,
      "çĬ¯": 3190,
      "åĢ¼å¾Ĺ": 3191,
      "±ä¹Ĳ": 3192,
      "éĢĤå½ĵçļĦ": 3193,
      "tep": 3194,
      "çļĦçłĶç©¶": 3195,
      "ï¼Įè¯·éĹ®": 3196,
      "ï¼ĮæĽ´": 3197,
      "æĪĳæĥ³": 3198,
      "ä¹¦ç±į": 3199,
      "çİ©å®¶": 3200,
      "ç¨İ": 3201,
      "éŃĶ": 3202,
      "imp": 3203,
      "åŁ¹åħ»": 3204,
      "æļ´": 3205,
      "åħ¬å¼ı": 3206,
      "\\næľĢè¿ĳ": 3207,
      "çĥ§": 3208,
      "ï¼ĮæľĢ": 3209,
      "**\\": 3210,
      "è§Ĥå¯Ł": 3211,
      "æ°¸": 3212,
      "ç»Ļä½ł": 3213,
      "å¹¸ç¦ı": 3214,
      "é«ĺåº¦": 3215,
      "ç¡¬": 3216,
      "çļĦçº": 3217,
      "åķĬ": 3218,
      "ç§°ä¸º": 3219,
      "åĨĴ": 3220,
      "çļĦçģ": 3221,
      "æĺ¾ç¤º": 3222,
      "æľīä¸Ģ": 3223,
      ";\\": 3224,
      "è®°å¿Ĩ": 3225,
      "çĩĥ": 3226,
      "ãĢĤå¸ĮæľĽ": 3227,
      "æķĳ": 3228,
      "ire": 3229,
      "inal": 3230,
      "çĶŁéķ¿": 3231,
      "æ¶Īè´¹èĢħ": 3232,
      "ific": 3233,
      "èķ": 3234,
      "ĠU": 3235,
      "æĺ¯çĶ±": 3236,
      "æ³¡": 3237,
      "ç»©": 3238,
      "æ±ģ": 3239,
      "ä»ĸäºº": 3240,
      "æĹĭ": 3241,
      "ç±»åŀĭçļĦ": 3242,
      "fer": 3243,
      "Ġ/": 3244,
      "æ±ī": 3245,
      "ä½įäºİ": 3246,
      "åĨ³äºİ": 3247,
      "åıĸåĨ³äºİ": 3248,
      "ä»·åĢ¼è§Ĥ": 3249,
      "åĮĢ": 3250,
      "çļĦä½¿çĶ¨": 3251,
      "çĶµèĦĳ": 3252,
      "éĢıæĺİ": 3253,
      "éĽ¶": 3254,
      "è¯Ħä»·": 3255,
      "ï¼Įè¯¥": 3256,
      "è´¦": 3257,
      "ç³ķ": 3258,
      "app": 3259,
      "è§Ī": 3260,
      "å±ķçİ°": 3261,
      "éļıæľº": 3262,
      "è§Ĥä¼Ĺ": 3263,
      "Ġif": 3264,
      "åı£åĳ³": 3265,
      "é¹": 3266,
      "çļĦé£İéĻ©": 3267,
      "åįıä½ľ": 3268,
      "æļĹ": 3269,
      "ä½Ľ": 3270,
      "åĩĢ": 3271,
      "æį·": 3272,
      "åĸľæ¬¢çļĦ": 3273,
      "äººçī©": 3274,
      "æŁĲä¸ª": 3275,
      "è¯Ŀé¢ĺ": 3276,
      "To": 3277,
      "ï¼Įä»¥ä¸ĭæĺ¯ä¸ĢäºĽ": 3278,
      "åı¯ä»¥å¸®åĬ©ä½ł": 3279,
      "lp": 3280,
      "æľīåĵªäºĽ": 3281,
      "ç²¾ç¥ŀ": 3282,
      "é¢Ħéĺ²": 3283,
      "ace": 3284,
      "ä¿¡ä»»": 3285,
      "è¸ª": 3286,
      "æĦıå¤§åĪ©": 3287,
      "è¯Ħè®º": 3288,
      "çļĦæĥħæĦŁ": 3289,
      "In": 3290,
      "ange": 3291,
      "ï¼ĮçĶ¨äºİ": 3292,
      "æ¸©æļĸ": 3293,
      "ava": 3294,
      "ç±»ä¼¼": 3295,
      "å²Ľ": 3296,
      "åºĬ": 3297,
      "éĽª": 3298,
      "å¥¥": 3299,
      "æĸ¹éĿ¢çļĦ": 3300,
      "æ°Ľ": 3301,
      "ä¹İ": 3302,
      "å®ŀæĸ½": 3303,
      "åĽ¢éĺŁæĪĲåĳĺ": 3304,
      "Ġhave": 3305,
      "æĻºèĥ½å®¶å±ħ": 3306,
      "ï¼Įä½¿å¾Ĺ": 3307,
      "Ġman": 3308,
      "æĪĲä¸ºäºĨ": 3309,
      "æĽ¾": 3310,
      "çİĽ": 3311,
      "ç¼ĸè¾ĳ": 3312,
      "çĶ³": 3313,
      "å¿Ļ": 3314,
      "æ®Ĭ": 3315,
      "åĬ¨ä½ľ": 3316,
      "å¦Ĥæŀľä½ł": 3317,
      "ï¼Įå¤§": 3318,
      "è§Ĵåº¦": 3319,
      "æīĢè¿°": 3320,
      "è°±": 3321,
      "Ġval": 3322,
      "è¢ĭ": 3323,
      "ç¥ŀç»ıç½ĳç»ľ": 3324,
      "å©ļ": 3325,
      "æīĢéľĢ": 3326,
      "ç¾İåĳ³": 3327,
      "éļıæĹ¶": 3328,
      "ï¼Įå¹¶åľ¨": 3329,
      "åĺ": 3330,
      "æĹ¶å°ļ": 3331,
      "åģ¥åº·çļĦ": 3332,
      "æ¶¦": 3333,
      "ç¥Ŀ": 3334,
      "æĥħèĬĤ": 3335,
      "Ġanswer": 3336,
      "è¾£": 3337,
      "def": 3338,
      "åŃ¤": 3339,
      "å£°éŁ³": 3340,
      "æķ°ç»Ħ": 3341,
      "ry": 3342,
      "å¿ħè¦ģçļĦ": 3343,
      "éŀ": 3344,
      "æĦī": 3345,
      "ç»¼ä¸Ĭ": 3346,
      "å¥Ĺ": 3347,
      "åľ°æĸ¹": 3348,
      "è¿Ľåħ¥": 3349,
      "çĶµè§Ĩ": 3350,
      "çļĦéĩįè¦ģæĢ§": 3351,
      "è½®": 3352,
      "å³°": 3353,
      "åŃĲçļĦ": 3354,
      "åĵ²åŃ¦": 3355,
      "å¼ĢæĶ¾": 3356,
      "æ¶īåıĬåĪ°": 3357,
      "è´¹çĶ¨": 3358,
      "èĽĭçĻ½è´¨": 3359,
      "éĢĤéĩı": 3360,
      "ï¼ĮåĪĻ": 3361,
      "åĨ¥": 3362,
      "åĩºæĿ¥": 3363,
      "çī¹æ®Ĭ": 3364,
      "ath": 3365,
      "èĿ": 3366,
      "æķ°æį®éĽĨ": 3367,
      "å¿ĺ": 3368,
      "ãĢĤå¯¹äºİ": 3369,
      "åºŁ": 3370,
      "ãĢĤå°ı": 3371,
      "Ġi": 3372,
      "åħħåĪĨ": 3373,
      "ãĢĤåħ¶æ¬¡": 3374,
      "ç»¼åĲĪ": 3375,
      "éĿŀå¸¸éĩįè¦ģçļĦ": 3376,
      "ãĢĤéĤ£ä¹Ī": 3377,
      "èĤ¥": 3378,
      "ä¸»ä¹ī": 3379,
      "çĽ¸ä¼¼": 3380,
      "cript": 3381,
      "ft": 3382,
      "ä»¿": 3383,
      "åŁºåĽł": 3384,
      "çĿ¡çľł": 3385,
      "è¾ħåĬ©": 3386,
      "ĠIn": 3387,
      "Ġsu": 3388,
      "èĳĹåĲįçļĦ": 3389,
      "ä¸įè¦ģ": 3390,
      "éĤ£äºĽ": 3391,
      "æ©Ļ": 3392,
      "Ġnum": 3393,
      "è½¬æį¢ä¸º": 3394,
      "Ġhas": 3395,
      "è¡¨éĿ¢": 3396,
      "\\nè¯·": 3397,
      "åĨ²çªģ": 3398,
      "Ġlike": 3399,
      "åį·": 3400,
      "åŃ¦ä¼ļ": 3401,
      "åĲ¬èµ·æĿ¥": 3402,
      "ï¼ĮäºĨè§£": 3403,
      "å¯¹æĸ¹": 3404,
      "åĴĮç¤¾ä¼ļ": 3405,
      "çĽ®çļĦ": 3406,
      "çĶŁåŃĺ": 3407,
      "äººå·¥æĻºèĥ½çļĦ": 3408,
      "çļĦçŁ¥": 3409,
      "æĿ¥èĩª": 3410,
      "ï¼Įå°½": 3411,
      "æĸ¹ç¨ĭ": 3412,
      "ä½ľèĢħ": 3413,
      "èĳ±": 3414,
      "å·¥ä¸ļ": 3415,
      "åŃ¸": 3416,
      "åĵªä¸ª": 3417,
      "ç§Ģ": 3418,
      "iven": 3419,
      "row": 3420,
      "çļĦç½": 3421,
      "æĻ¯çĤ¹": 3422,
      "æ°§åĮĸ": 3423,
      "now": 3424,
      "ï¼Įå°±": 3425,
      "ç¥ŀç§ĺ": 3426,
      "ç§ĳåŃ¦å®¶": 3427,
      "å¦Ĥä½ķåľ¨": 3428,
      "åı¯èĥ½å¯¼èĩ´": 3429,
      "ä¼ĺåħĪ": 3430,
      "\":": 3431,
      "æĹ¶æľŁ": 3432,
      "æ»ĳ": 3433,
      "åı¤ä»£": 3434,
      "å®īè£ħ": 3435,
      "æĸĩåŃĹ": 3436,
      "æģ¢": 3437,
      "åĿļæĮģ": 3438,
      "åĪĨä¸º": 3439,
      "ï¼ĮçĶ¨": 3440,
      "åı¯ä»¥æł¹æį®": 3441,
      "å¹³çŃī": 3442,
      "ä¸ĭçļĦ": 3443,
      "ç»¼ä¸ĬæīĢè¿°": 3444,
      "åĳĪ": 3445,
      "æ¡Ĩæŀ¶": 3446,
      "ï¼ĮèĢĮä¸įæĺ¯": 3447,
      "Ġwhich": 3448,
      "å¹´çļĦ": 3449,
      "èĤ¡ç¥¨": 3450,
      "\\nYou": 3451,
      "ï¼Įå½ĵ": 3452,
      "è©": 3453,
      "ç§¯æŀģçļĦ": 3454,
      "ï¼ĮéĢīæĭ©": 3455,
      "éĸ": 3456,
      "ä¸ĬæľĢ": 3457,
      "æĸ¹ä¾¿": 3458,
      "æĶ»åĩ»": 3459,
      "åĮºåĿĹ": 3460,
      "å¾Īå¥½": 3461,
      "cc": 3462,
      "è®¤è¯Ĩ": 3463,
      "èĮĦ": 3464,
      "è¡¨æł¼": 3465,
      "æķĻåŃ¦": 3466,
      "å¤«": 3467,
      "æģĲ": 3468,
      "ï¼Įæ¯ıä¸ª": 3469,
      "å§Ĩ": 3470,
      "æİ¨çĲĨ": 3471,
      "é¢Ĩå¯¼": 3472,
      "up": 3473,
      "çĶ¨æĪ·çļĦ": 3474,
      "åı¯ä»¥å¸®åĬ©æĤ¨": 3475,
      "å¿«ä¹Ĳ": 3476,
      "ï¼īï¼ļ": 3477,
      "Ġhelp": 3478,
      "å¤ıå¤©": 3479,
      "åĨ¥æĥ³": 3480,
      "Ġequ": 3481,
      "æľĿ": 3482,
      "æ³³": 3483,
      "ä»¤äºº": 3484,
      "çĽ´åĪ°": 3485,
      "è¶³å¤ŁçļĦ": 3486,
      "è®¾å®ļ": 3487,
      "ï¼Įä¿ĥè¿Ľ": 3488,
      "ï¼Įå°¤åħ¶": 3489,
      "æģ¶": 3490,
      "è¹": 3491,
      "æł¼å¼ı": 3492,
      "å¤§åŃ¦": 3493,
      "çģµæ´»": 3494,
      "æĭ¼": 3495,
      "æģ¢å¤į": 3496,
      "åıĳå¸ĥ": 3497,
      "èĥ½åĲ¦": 3498,
      "è³": 3499,
      "è½»æĿ¾": 3500,
      "çĽ¸åºĶçļĦ": 3501,
      "der": 3502,
      "çĻ»": 3503,
      "ãĢĤåı¦å¤ĸ": 3504,
      "è°·": 3505,
      "æī¹": 3506,
      "åĲĦä¸ª": 3507,
      "å®ŀæĹ¶": 3508,
      "é£ŁæĿĲ": 3509,
      "éĺ²æŃ¢": 3510,
      "æĹ¨åľ¨": 3511,
      "æĶ¾åľ¨": 3512,
      "ï¼Įå®ŀçİ°": 3513,
      "åĪĨå¸ĥ": 3514,
      "ite": 3515,
      "è²": 3516,
      "ãĢĤè¯¥": 3517,
      "èĩ³åħ³": 3518,
      "å¨±ä¹Ĳ": 3519,
      "ï¼Įæł¹æį®": 3520,
      "ä¸Ģæ®µå¯¹è¯Ŀ": 3521,
      "èĥ¡": 3522,
      "çĶļ": 3523,
      "ä¼łæĴŃ": 3524,
      "å°º": 3525,
      "list": 3526,
      "èĥģ": 3527,
      "æĹ¥æľ¬": 3528,
      "äº¤äºĴ": 3529,
      "æıĲä¾ĽçļĦ": 3530,
      "é¢ĨåŁŁçļĦ": 3531,
      "Ġfunction": 3532,
      "éŀĭ": 3533,
      "ï¼ĮâĢľ": 3534,
      "é¥¼": 3535,
      "é¡ºåºı": 3536,
      "åħ¬å¹³": 3537,
      "ï¼Įä¸Ģä¸ª": 3538,
      "èĩªèº«": 3539,
      "ç«¥": 3540,
      "åĪĹåĩº": 3541,
      "æĭ¿": 3542,
      "åħ±äº«": 3543,
      "å¨ģèĥģ": 3544,
      "éĹŃ": 3545,
      "æŃ»": 3546,
      "ä¹ı": 3547,
      "çļĦçİ¯å¢ĥ": 3548,
      "èĥŀ": 3549,
      "åŃ¦çĶŁçļĦ": 3550,
      "ous": 3551,
      "æıĲåĪ°": 3552,
      "ï¼Įå¯¹äºİ": 3553,
      "å¤ªç©º": 3554,
      "Ġab": 3555,
      "æĥł": 3556,
      "ä¹³": 3557,
      "æĭį": 3558,
      "åĪĽå»ºä¸Ģä¸ª": 3559,
      "è½¦è¾Ĩ": 3560,
      "Ġdet": 3561,
      "åıĹæ¬¢è¿İ": 3562,
      "äº§åĵģçļĦ": 3563,
      "è¯ŃéŁ³è¯ĨåĪ«": 3564,
      "å®Įæķ´": 3565,
      "ä¸ĸçºª": 3566,
      "äºĪ": 3567,
      "ark": 3568,
      "å¯Ĩçłģ": 3569,
      "èģĬå¤©": 3570,
      "box": 3571,
      "Ġ<": 3572,
      "oll": 3573,
      "åį³åı¯": 3574,
      "ä¸Ĭä¸ĭ": 3575,
      "è°ĥæŁ¥": 3576,
      "éģµå¾ª": 3577,
      "éĵ¶è¡Į": 3578,
      "An": 3579,
      "Ġeach": 3580,
      "å½¢è±¡": 3581,
      "æĸĩåĮĸåĴĮ": 3582,
      "du": 3583,
      "èĤª": 3584,
      "èĦĤèĤª": 3585,
      "å®£ä¼ł": 3586,
      "åĴĮè°": 3587,
      "å»ºè®¾": 3588,
      "æ¹ĸ": 3589,
      "æĢ§åĪ«": 3590,
      "åİŁçĲĨ": 3591,
      "ated": 3592,
      "å®¶äºº": 3593,
      "æıĲä¾Ľä¸ĢäºĽ": 3594,
      "ï¼Įå°ı": 3595,
      "çİ¯å¢ĥçļĦ": 3596,
      "æĦŁåħ´è¶£": 3597,
      "Ġä½¿çĶ¨": 3598,
      "èī²å½©": 3599,
      "ï¼Įè¿Ļç§į": 3600,
      "éĢĢ": 3601,
      "åĳ¨åĽ´": 3602,
      "ãĢĤä¸ºäºĨ": 3603,
      "èĩ³å°ĳ": 3604,
      "è®©æĪĳä»¬": 3605,
      "è¯įæ±ĩ": 3606,
      "åĮºåĿĹéĵ¾": 3607,
      "æĮĩçļĦæĺ¯": 3608,
      "Ġcont": 3609,
      "çĶļèĩ³": 3610,
      "å¼ĥ": 3611,
      "è¯»èĢħ": 3612,
      "ãĢĤåı¯ä»¥": 3613,
      "éº¦": 3614,
      "æĸ°é²ľ": 3615,
      "è§Ĵèī²ä¿¡æģ¯": 3616,
      "Ġcl": 3617,
      "çĶŁæ´»æĸ¹å¼ı": 3618,
      "Ġ||": 3619,
      "æĢģåº¦": 3620,
      "è®¾æĸ½": 3621,
      "å°±ä¸ļ": 3622,
      "ä¸ŃæľĢ": 3623,
      "cul": 3624,
      "res": 3625,
      "çĭ¬ç«ĭ": 3626,
      "nåľ¨": 3627,
      "Ġ|\\": 3628,
      "Ġneed": 3629,
      "å¹ħ": 3630,
      "éĺ¶æ®µ": 3631,
      "æī®": 3632,
      "æ¬£": 3633,
      "åĳ³éģĵ": 3634,
      "ia": 3635,
      "ï¼ŁæĪĳ": 3636,
      "è°ģ": 3637,
      "å¯¹è±¡": 3638,
      "çļĦçĭ": 3639,
      "åĪº": 3640,
      "Ġall": 3641,
      "æĭĮ": 3642,
      "æĭĽ": 3643,
      "åĩĨç¡®çļĦ": 3644,
      "æĸĩæ¡£": 3645,
      "Ġso": 3646,
      "æĢ»æĺ¯": 3647,
      "æľ¬ä¹¦": 3648,
      "ï¼ļå°ıæĺİ": 3649,
      "å°ģ": 3650,
      "æ¥¼": 3651,
      "çļĦçĥŃ": 3652,
      "\\nS": 3653,
      "entence": 3654,
      "çļĦç¬¬": 3655,
      "ï¼ļä¸Ģä½į": 3656,
      "è§Ħæ¨¡": 3657,
      "é»ĺ": 3658,
      "å½¢çĬ¶": 3659,
      "æŁ¥çľĭ": 3660,
      "æķ°çļĦ": 3661,
      "æıĲä¾ĽæĽ´": 3662,
      "ãĢĤå¥¹": 3663,
      "èĩªåĬ¨é©¾é©¶": 3664,
      "é«ĺåħ´": 3665,
      "å¸®åĬ©æĤ¨": 3666,
      "è¿Ļæł·": 3667,
      "è§Ħå¾ĭ": 3668,
      "å¹ķ": 3669,
      "Ġbut": 3670,
      "çĽĳæİ§": 3671,
      "¹é¥": 3672,
      "¹é¥ª": 3673,
      "æµªè´¹": 3674,
      "å®«": 3675,
      "ound": 3676,
      "æī°": 3677,
      "ong": 3678,
      "åĿĩåĮĢ": 3679,
      "éĥ¨éĹ¨": 3680,
      "è´¥": 3681,
      "ata": 3682,
      "ĠStep": 3683,
      "çīĽå¥¶": 3684,
      "åĢĳ": 3685,
      "æľĹ": 3686,
      "ents": 3687,
      "çĶŁç´ł": 3688,
      "å¤ıåŃ£": 3689,
      "æīĵåį°": 3690,
      "åħ¬ä¼Ĺ": 3691,
      "æİĪ": 3692,
      "åĩºäºĨ": 3693,
      "ç¾İä¸½çļĦ": 3694,
      "åħģ": 3695,
      "Ġmore": 3696,
      "åĸĿ": 3697,
      "ï¼Įè¦ģæ±Ĥ": 3698,
      "ä¿Ŀéļľ": 3699,
      "æĿĳ": 3700,
      "çļĦçŁ¥è¯Ĩ": 3701,
      "æİ¥ä¸ĭæĿ¥": 3702,
      "æĻºèĥ½åĮĸ": 3703,
      "Ġprovide": 3704,
      "ç»Ĩèĥŀ": 3705,
      "æĶ¾åħ¥": 3706,
      "çľŁå®ŀ": 3707,
      "\\néĢļè¿ĩ": 3708,
      "çµ": 3709,
      "ï¼ļå°Ĩ": 3710,
      "è£ħé¥°": 3711,
      "çļĦç²": 3712,
      "ç¬¬ä¸Ģ": 3713,
      "åĬ¨åĬĽ": 3714,
      "éķľ": 3715,
      "å¡Ķ": 3716,
      "enc": 3717,
      "æĹ¶ä»£": 3718,
      "ä¾ĽåºĶ": 3719,
      "è®©æĪĳ": 3720,
      "åĩī": 3721,
      "å¤ļçļĦ": 3722,
      "ï¼Įå°ıæĺİ": 3723,
      "æĢĢ": 3724,
      "\\næĪĳ": 3725,
      "çıį": 3726,
      "åĨ¬": 3727,
      "pon": 3728,
      "å¡«": 3729,
      "ake": 3730,
      "åĴĮæ²»çĸĹ": 3731,
      "åĬ¨æĢģ": 3732,
      "çŃīæĸ¹å¼ı": 3733,
      "æĦŁåıĹåĪ°": 3734,
      "æĦıè§ģ": 3735,
      "é¸¡èĽĭ": 3736,
      "ï¼Įéĥ½": 3737,
      "åĴĮå®īåħ¨": 3738,
      "æĪĲåĪĨ": 3739,
      "),": 3740,
      "å½¼": 3741,
      "Ġfind": 3742,
      "å°¾": 3743,
      "è¶ħè¿ĩ": 3744,
      "çļĦåĨħå®¹": 3745,
      "èº«ä»½": 3746,
      "è¿¹": 3747,
      "ç½ª": 3748,
      "äººçĶŁ": 3749,
      "åĪĨæŀĲåĴĮ": 3750,
      "çķħ": 3751,
      "ç³»ç»ŁçļĦ": 3752,
      "åħ·å¤ĩ": 3753,
      "æ¸¸æ³³": 3754,
      "æŃ£å¸¸": 3755,
      "çī©ä½ĵ": 3756,
      "çļĦä¸»é¢ĺ": 3757,
      "è´Łè´£": 3758,
      "çĤİ": 3759,
      "é£ŀè¡Į": 3760,
      "çļĦç½ĳ": 3761,
      "ï¼Įä¹Łæĺ¯": 3762,
      "åįł": 3763,
      "æģĴ": 3764,
      "åİļ": 3765,
      "ition": 3766,
      "åĨľä¸ļ": 3767,
      "numb": 3768,
      "æĿ¥å®ŀçİ°": 3769,
      "èĽĭç³ķ": 3770,
      "Ð°": 3771,
      "åıªæĺ¯": 3772,
      "åº¦çļĦ": 3773,
      "):\\": 3774,
      "çļĦç©": 3775,
      "ï¼Įå¸ĮæľĽ": 3776,
      "åħģè®¸": 3777,
      "åĮ¹": 3778,
      "å¦Ī": 3779,
      "ç¬¬ä¸ī": 3780,
      "ãĢĤB": 3781,
      "åľ°çĤ¹": 3782,
      "å¼±": 3783,
      "ç»ıè¿ĩ": 3784,
      "éĩĮçļĦ": 3785,
      "ä¸ĵä¸ļçļĦ": 3786,
      "ne": 3787,
      "å·§åħĭ": 3788,
      "å¹³æĸ¹": 3789,
      "çĿ£": 3790,
      "æĻĤ": 3791,
      "boxed": 3792,
      "ï¼Łåľ¨": 3793,
      "Ð¾": 3794,
      "çķª": 3795,
      "çļĦç³": 3796,
      "èĤĮèĤī": 3797,
      "æ¢¦æĥ³": 3798,
      "æĹ¶éĹ´çļĦ": 3799,
      "æ£Ĵ": 3800,
      "Ġwill": 3801,
      "åĨįçĶŁ": 3802,
      "åģ¶": 3803,
      "ä½łä»¬": 3804,
      "Ġmin": 3805,
      "å¾Ģå¾Ģ": 3806,
      "lice": 3807,
      "æĽ¿ä»£": 3808,
      "ä¸Ģæł·": 3809,
      "åıĤèĢĥ": 3810,
      "æķ°æį®åĴĮ": 3811,
      "ï¼ī\\": 3812,
      "çĶŁæĪĲä¸Ģæ®µ": 3813,
      "ç®Ģæ´ģ": 3814,
      "éĻĦ": 3815,
      "è§Ħå®ļ": 3816,
      "çĤº": 3817,
      "äºĨä¸ĢäºĽ": 3818,
      "ï¼īãĢģ": 3819,
      "æĪĲå°±": 3820,
      "æ°ĽåĽ´": 3821,
      "åıĺæļĸ": 3822,
      "ï¼Įäººå·¥æĻºèĥ½æĬĢæľ¯": 3823,
      "åĩĨç¡®åľ°": 3824,
      "ode": 3825,
      "çĶ²": 3826,
      "å¼Ĥå¸¸": 3827,
      "ä¿ĿéĻ©": 3828,
      "éĽĨä¸Ń": 3829,
      "ãĢĤä¸Ģ": 3830,
      "åģıå¥½": 3831,
      "Ġapp": 3832,
      "æī®æ¼Ķ": 3833,
      "éģµå®Ī": 3834,
      "ff": 3835,
      "åĽŀæĶ¶": 3836,
      "åĬłå¯Ĩ": 3837,
      "èĻ«": 3838,
      "åĵģè´¨": 3839,
      "æīĵå¼Ģ": 3840,
      "âĢĿãĢģ": 3841,
      "éļ¾ä»¥": 3842,
      "æķ°æį®åºĵ": 3843,
      "We": 3844,
      "we": 3845,
      "Ġwas": 3846,
      "çļĦçĹ": 3847,
      "ä»¥ä¸ĭæĺ¯ä¸Ģ": 3848,
      "é¡¶": 3849,
      "å¸®åĬ©ä½ł": 3850,
      "æ¨¡åŀĭçļĦ": 3851,
      "èĬĤå¥ı": 3852,
      "åĴĮè°Ĳ": 3853,
      "æ°Ķä½ĵ": 3854,
      "åĶ±": 3855,
      "çļĦçĽ®æłĩ": 3856,
      "çļĦå¥½": 3857,
      "åĴĮåıĳå±ķ": 3858,
      "æĺ¾èĳĹ": 3859,
      "hat": 3860,
      "æ´¾": 3861,
      "åĲ¬è¯´": 3862,
      "åľ¨ä¸Ģèµ·": 3863,
      "åºıåĪĹ": 3864,
      "æıĴ": 3865,
      "ä¾Ĩ": 3866,
      "çŃīäºİ": 3867,
      "ç»ĵæĿŁ": 3868,
      "èĦ±": 3869,
      "ĠåĴĮ": 3870,
      "æķ´ä½ĵ": 3871,
      "æĸĹ": 3872,
      "ç±»åĪ«": 3873,
      "ign": 3874,
      "ãĢĤç»ĻæĪĳ": 3875,
      "åĲ«ä¹ī": 3876,
      "ï¼Įçİ°åľ¨": 3877,
      "ä¼ĺç§Ģ": 3878,
      "ens": 3879,
      "ish": 3880,
      "ç¾İå¥½çļĦ": 3881,
      "ĠV": 3882,
      "èĩªè¡Į": 3883,
      "åĨħå¿ĥ": 3884,
      "ations": 3885,
      "æĪĸåħ¶ä»ĸ": 3886,
      "ï¼Įçī¹åĪ«": 3887,
      "æĽ´å¥½åľ°çĲĨè§£": 3888,
      "ï¼Įè¿Ļæĺ¯": 3889,
      "ç¼ºä¹ı": 3890,
      "çļĦåģ¥åº·": 3891,
      "åı¯ä»¥çĶ¨äºİ": 3892,
      "ï¼ļå¥½çļĦ": 3893,
      "ä¾¿åĪ©": 3894,
      "çļĦç¤¾ä¼ļ": 3895,
      "è½¬åĮĸ": 3896,
      "ä¸Ģç»Ħ": 3897,
      "ï¼Įåı¯ä»¥ä½¿çĶ¨": 3898,
      "èªī": 3899,
      "ï¼Įåı¯èĥ½": 3900,
      "èĩªä¸»": 3901,
      "ï¼Įä¸»è¦ģ": 3902,
      "ãĢĤèĻ½çĦ¶": 3903,
      "æĪ¿éĹ´": 3904,
      "ãĢĤæĢ»çļĦæĿ¥è¯´": 3905,
      "åıĺå¾ĹæĽ´åĬł": 3906,
      "åĪ©çĽĬ": 3907,
      "éĥģ": 3908,
      "âĢĿãĢģâĢľ": 3909,
      "ĠAn": 3910,
      "rt": 3911,
      "ily": 3912,
      "ï¼ŁĊ": 3913,
      "ilm": 3914,
      "èĩªä¿¡": 3915,
      "çļĦçĪ±": 3916,
      "ï¼ĮæľĢç»Ī": 3917,
      "é»ĳæ´ŀ": 3918,
      "çľŁçļĦ": 3919,
      "ãĢĤåľ¨è¿Ļä¸ª": 3920,
      "çĨĬ": 3921,
      "æĬ±": 3922,
      "ä¸Ĭä¸ĭæĸĩ": 3923,
      "è§ĦèĮĥ": 3924,
      "çĪ±å¥½": 3925,
      "åĴĮæĮĳæĪĺ": 3926,
      "ks": 3927,
      "ail": 3928,
      "ï¼Įå¢ŀåĬł": 3929,
      "æ¶ĪèĢĹ": 3930,
      "åı¯ä»¥æıĲé«ĺ": 3931,
      "æĬ¥éģĵ": 3932,
      "so": 3933,
      "åĨħçļĦ": 3934,
      "**ï¼ļ\\": 3935,
      "alcul": 3936,
      "lease": 3937,
      "çļĦåħ·ä½ĵ": 3938,
      "éĥ¨çĶµå½±": 3939,
      "çļĦçĶµå½±": 3940,
      "æľŁéĹ´": 3941,
      "ates": 3942,
      "æľµ": 3943,
      "æĪĳä»¬åı¯ä»¥": 3944,
      "æĪ·å¤ĸ": 3945,
      "çļĦè¿ĩç¨ĭ": 3946,
      "é¡¿": 3947,
      "åĴĮåĪĨæŀĲ": 3948,
      "çļĦæĥħåĨµ": 3949,
      "å¤ļæł·æĢ§": 3950,
      "èµĦéĩĳ": 3951,
      "æľīä¸ĢäºĽ": 3952,
      "éĻĪ": 3953,
      "æĮĩæłĩ": 3954,
      "èĭı": 3955,
      "åĮ»çĸĹä¿Ŀåģ¥": 3956,
      "çļĦçŁ": 3957,
      "åĲįä¸º": 3958,
      "åı¦ä¸Ģä¸ª": 3959,
      "Ġ$\\": 3960,
      "éª¨": 3961,
      "çĹĩçĬ¶": 3962,
      "ãĢģæĽ´": 3963,
      "ä½ĵçİ°": 3964,
      "ï¼ĮéĢĤåĲĪ": 3965,
      "éľĢè¦ģèĢĥèĻĳ": 3966,
      "çī¹èī²": 3967,
      "ä¼ĺçĤ¹": 3968,
      "è¿Ļæĺ¯": 3969,
      "çī©çļĦ": 3970,
      "é¡¾å®¢": 3971,
      "è¿Ľå±ķ": 3972,
      "åĩĨç¡®æĢ§": 3973,
      "æĿ°": 3974,
      "åīįæĻ¯": 3975,
      "ãĢĤä¸įè¿ĩ": 3976,
      "çļĦç¼ĸ": 3977,
      "æ·±è¿ľ": 3978,
      "XX": 3979,
      "åİŁåĪĻ": 3980,
      "éľĢæ±ĤåĴĮ": 3981,
      "è¿Ļæł·çļĦ": 3982,
      "çĵ¶": 3983,
      "éĥ½ä¼ļ": 3984,
      "ï¼Įåı¯": 3985,
      "ç»´çĶŁç´ł": 3986,
      "ï¼ĮéļıçĿĢ": 3987,
      "æ³¨æĦıåĬĽ": 3988,
      "è¯¦ç»ĨçļĦ": 3989,
      "gr": 3990,
      "ä¸ªæĢ§åĮĸçļĦ": 3991,
      "æıĲéĨĴ": 3992,
      "ç¤¾ä¼ļçļĦ": 3993,
      "(x": 3994,
      "åı¯èĥ½ä¼ļå¯¼èĩ´": 3995,
      "éļĶ": 3996,
      "âĢĶâĢĶ": 3997,
      "äº§çĶŁäºĨ": 3998,
      "çªĹ": 3999,
      "łéģĵ": 4000,
      "æīĭæ®µ": 4001,
      "åĪĨåŃĲ": 4002,
      "éĺµ": 4003,
      "Ġhow": 4004,
      "ç»Łè®¡": 4005,
      "ä¿¡åı·": 4006,
      "ãĢģæĻºèĥ½": 4007,
      "æĺĵäºİ": 4008,
      "åĴĮåºĶçĶ¨": 4009,
      "ï¼Įä¸įä»ħ": 4010,
      "ify": 4011,
      "è¦Ĩ": 4012,
      "çļĦåŁºç¡Ģ": 4013,
      "è¯ģæĺİ": 4014,
      "ãĢĤè¿Ļæł·": 4015,
      "å¤§æ°Ķ": 4016,
      "çĶµæ±ł": 4017,
      "com": 4018,
      "æ¡Į": 4019,
      "èĢ³": 4020,
      "ä»Ģä¹Īæĺ¯": 4021,
      "åħ¨éĿ¢": 4022,
      "æĥ³è±¡": 4023,
      "å·§åħĭåĬĽ": 4024,
      "æĽ´å¥½åľ°äºĨè§£": 4025,
      "é¢ĨåŁŁçļĦåºĶçĶ¨": 4026,
      "Ġì": 4027,
      "çķªèĮĦ": 4028,
      "ä¼łéĢĴ": 4029,
      "äºĭå®ŀ": 4030,
      "çļĦèĥ½åĬĽ": 4031,
      "éªĳ": 4032,
      "æİī": 4033,
      "å¯¸": 4034,
      "èľľ": 4035,
      "èĭ¥": 4036,
      "å¢Ļ": 4037,
      "ä½¿çĶ¨çļĦ": 4038,
      "èµŀ": 4039,
      "æ¶µ": 4040,
      "ç§įç±»": 4041,
      "å¼łä¸ī": 4042,
      "irst": 4043,
      "çĥŁ": 4044,
      "éĿŀå¸¸éĩįè¦ģ": 4045,
      "èļ": 4046,
      "çľĭèµ·æĿ¥": 4047,
      "ï¼ĮåĨį": 4048,
      "ãĢĤçĦ¶åĲİ": 4049,
      "æ¿Ģåıĳ": 4050,
      "è¿Ŀ": 4051,
      "ĠÃĹ": 4052,
      "ä¸ĵå®¶": 4053,
      "ä¸Ĭåįĩ": 4054,
      "çļĦä¸Ģä¸ª": 4055,
      "é¥®æĸĻ": 4056,
      "çļĦç©º": 4057,
      "èĪ¹": 4058,
      "ç´§æĢ¥": 4059,
      "éĿ¢åĮħ": 4060,
      "ä¸Ģåıª": 4061,
      "Ġâ": 4062,
      "éľĩ": 4063,
      "çİī": 4064,
      "å±ı": 4065,
      "åĳĪçİ°": 4066,
      "éĩįè§Ĩ": 4067,
      "Ġspec": 4068,
      "ç¾İçļĦ": 4069,
      "åĢŁ": 4070,
      "è®©äºº": 4071,
      "åĴĮæľįåĬ¡": 4072,
      "Java": 4073,
      "å¤§å®¶": 4074,
      "åĴĮæĶ¯æĮģ": 4075,
      "è¯Ńåı¥": 4076,
      "å¦ĤæŀľæĤ¨": 4077,
      "AP": 4078,
      "çº¢èī²": 4079,
      "å®Ĺ": 4080,
      "æ°Ķæ¸©": 4081,
      "Ðµ": 4082,
      "çļĦæĢ»": 4083,
      "æµ·æ»©": 4084,
      "çīĪæľ¬": 4085,
      "ï¼ĮåºĶè¯¥": 4086,
      "Ġgo": 4087,
      "åİĺ": 4088,
      "ise": 4089,
      "ï¼Įä¸įè¦ģ": 4090,
      "ä¸Ģå®ļçļĦ": 4091,
      "Ġte": 4092,
      "ä¸ľè¥¿": 4093,
      "è¡¨æ¼Ķ": 4094,
      "æľīçļĦ": 4095,
      "åįķä½į": 4096,
      "è¡Ĺ": 4097,
      "èĴľ": 4098,
      "è§£çŃĶ": 4099,
      "Ġknow": 4100,
      ",\\": 4101,
      "æī©å±ķ": 4102,
      "å¤©ç©º": 4103,
      "ï¼ĮåĽłä¸ºå®ĥ": 4104,
      "æľŁå¾ħ": 4105,
      "å¾ĹåĪ°äºĨ": 4106,
      "wo": 4107,
      "ç´¯": 4108,
      "åį«çĶŁ": 4109,
      "çłĶåıĳ": 4110,
      "çļĦåİĨåı²": 4111,
      "ï¼ĮèĢĮæĺ¯": 4112,
      "æĢ»ä¹ĭ": 4113,
      "è´Ŀ": 4114,
      "sq": 4115,
      "ãĢĤå®ĥä»¬": 4116,
      "æĬ«": 4117,
      "ond": 4118,
      "ï¼ļä½łå¥½": 4119,
      "ä¸Ģæ¬¾": 4120,
      "å·¨å¤§çļĦ": 4121,
      "å®ľ": 4122,
      "ï¼ĮæĪĳå°Ĩ": 4123,
      "ick": 4124,
      "çļĦä¸Ģéĥ¨åĪĨ": 4125,
      "Ġsol": 4126,
      "æ±Ł": 4127,
      "çĽĳç®¡": 4128,
      "æ¯Ķä¾ĭ": 4129,
      "éĽħ": 4130,
      "æĻ®åıĬ": 4131,
      "åħ¬æŃ£": 4132,
      "å«": 4133,
      "ç§ĳå¹»": 4134,
      "çĹħæ¯Ĵ": 4135,
      "æĶ¯æĮģåĴĮ": 4136,
      "ä»¥ä¸ĭåĩłä¸ªæĸ¹éĿ¢": 4137,
      "æķ¬": 4138,
      "å¯¿": 4139,
      "åħ¨çĲĥåıĺæļĸ": 4140,
      "ays": 4141,
      "ãĢĤè¯·éĹ®": 4142,
      "æĺ¯åĲ¦æľī": 4143,
      "çļ®èĤ¤": 4144,
      "ï¼ĮçĽ´åĪ°": 4145,
      "æķ°ä¸º": 4146,
      "èĴ¸": 4147,
      "ï¼ļäººå·¥æĻºèĥ½": 4148,
      "å°½ç®¡": 4149,
      "è¯º": 4150,
      "å¤ªéĺ³èĥ½": 4151,
      "ï¼Įåıª": 4152,
      "åĴĮç®¡çĲĨ": 4153,
      "åĿĢ": 4154,
      "æįķ": 4155,
      "ä¸įæĸŃåıĳå±ķ": 4156,
      "å°Ĩä»¥ä¸ĭ": 4157,
      "ç»´æĮģ": 4158,
      "åı¯ä»¥æıĲä¾Ľ": 4159,
      "è´´": 4160,
      "è¯ģæį®": 4161,
      "çĴ": 4162,
      "ï¼Įåħ±åĲĮ": 4163,
      "åĦ¿ç«¥": 4164,
      "çļĦåŁºæľ¬": 4165,
      "æ¬£èµı": 4166,
      "åĩºçļĦ": 4167,
      "åįĸ": 4168,
      "èŀįåĲĪ": 4169,
      "çºł": 4170,
      "çļĦç¥": 4171,
      "Ġquest": 4172,
      "çł´åĿı": 4173,
      "ove": 4174,
      "ãĢĭãĢģ": 4175,
      "ç²¾åĩĨ": 4176,
      "å¼¹": 4177,
      "çļĦç«": 4178,
      "Ġbo": 4179,
      "ä¸Ģèĩ´": 4180,
      "ci": 4181,
      "çĪ¶": 4182,
      "Ġstr": 4183,
      "çĥ¹é¥ª": 4184,
      "å½¢çļĦ": 4185,
      "çĽĳçĿ£": 4186,
      "les": 4187,
      "èİī": 4188,
      "ä¾µ": 4189,
      "åı¯ä»¥ä¸º": 4190,
      "ä¸Ģå®¶": 4191,
      "å¦Ļ": 4192,
      "å°ıçļĦ": 4193,
      "ç»ĵè®º": 4194,
      "éĵħ": 4195,
      "è±¡å¾ģ": 4196,
      "æĶ¿æ²»": 4197,
      "ç¢į": 4198,
      "èĭ¦": 4199,
      "formation": 4200,
      "åħŃ": 4201,
      "èģĺ": 4202,
      "ä»ª": 4203,
      "å°į": 4204,
      "ãģ®": 4205,
      "ç¡®è®¤": 4206,
      "åĭķ": 4207,
      "ĠThis": 4208,
      "æĲħ": 4209,
      "æī¾åĩº": 4210,
      "min": 4211,
      "ph": 4212,
      "èĭĹ": 4213,
      "Ġsum": 4214,
      "éº»": 4215,
      "ï¼Įä¿ĿæĬ¤": 4216,
      "åĮ¹éħį": 4217,
      "ï¼Łå°ıæĺİ": 4218,
      "è´ŁéĿ¢å½±åĵį": 4219,
      "ãĢĤå½ĵçĦ¶": 4220,
      "hes": 4221,
      "å¼ķåıĳ": 4222,
      "è·¯å¾Ħ": 4223,
      "çıł": 4224,
      "åıįæĺł": 4225,
      "ollow": 4226,
      "å°½åĬĽ": 4227,
      "å¿ĥæĥħ": 4228,
      "ç¾İå¥½": 4229,
      "çļĦæĹ¶åĢĻ": 4230,
      "æĽ´å®¹æĺĵ": 4231,
      "å®īåħ¨æĢ§": 4232,
      "ï¼ĮæľīåĬ©äºİ": 4233,
      "ãĢĤä»¥ä¸Ĭ": 4234,
      "çļĦçĿ": 4235,
      "ree": 4236,
      "Ġadd": 4237,
      "èĤ´": 4238,
      "éĻĲäºİ": 4239,
      "èĦı": 4240,
      "oug": 4241,
      "å¿ĥåĴĮ": 4242,
      "åºĨ": 4243,
      "æĺ¯ä¸Ģä½į": 4244,
      "åŃ¤çĭ¬": 4245,
      "æīĺ": 4246,
      "ä¸ŃçļĦåºĶçĶ¨": 4247,
      "çŁŃè¯Ń": 4248,
      "çī¹æĢ§": 4249,
      "çļĦè¡Įä¸º": 4250,
      "åį±éĻ©": 4251,
      "é£ŁçĶ¨": 4252,
      "çĶ³è¯·": 4253,
      "è¿ħ": 4254,
      "ï¼Įä½¿åħ¶": 4255,
      "åı¯åĨįçĶŁ": 4256,
      "å·¦åı³": 4257,
      "ï¼īåĴĮ": 4258,
      "ä¸įè¶³": 4259,
      "åħ¶ä¸ŃçļĦ": 4260,
      "Ġlist": 4261,
      "çļĦæķ°éĩı": 4262,
      "åĲ«æľī": 4263,
      "çļĦå¤©æ°Ķ": 4264,
      "ãĢĤåħ¶ä¸Ń": 4265,
      "åı¯ä»¥è¢«": 4266,
      "çŃīå¾ħ": 4267,
      "æ¾": 4268,
      "çĶµè¯Ŀ": 4269,
      "çļĦç»ĵæŀľ": 4270,
      "éķĩ": 4271,
      "eng": 4272,
      "âĢĻ": 4273,
      "çĽ®çļĦåľ°": 4274,
      "ĠâĢľ": 4275,
      "ç¼ĸåĨĻä¸Ģä¸ª": 4276,
      "å¯¹æīĭ": 4277,
      "æµ®": 4278,
      "çļĦç²¾": 4279,
      "ï¼ĮæĪĳä»¬åºĶè¯¥": 4280,
      "åİŁå§ĭ": 4281,
      "å®ŀä½ĵ": 4282,
      "å½¼æŃ¤": 4283,
      "èħĲ": 4284,
      "æıĲç¤º": 4285,
      "æĲħæĭĮ": 4286,
      "æĤ¦": 4287,
      "å®¤åĨħ": 4288,
      "æİĴåĪĹ": 4289,
      "ï¼Įä¼ļ": 4290,
      "ä¸ĵæ³¨äºİ": 4291,
      "ex": 4292,
      "Ġfollow": 4293,
      "ä»¥ä¸ĭåĩł": 4294,
      "æłĩçŃ¾": 4295,
      "åħħè¶³": 4296,
      "æĸĩæľ¬ä¸Ń": 4297,
      "å±ĭ": 4298,
      "nA": 4299,
      "ãĢĤæĪĳæĥ³": 4300,
      "ĠK": 4301,
      "äººæ°ĳ": 4302,
      "()`": 4303,
      "æľĢæĸ°": 4304,
      "çľĭçľĭ": 4305,
      "Ġout": 4306,
      "èº«å¿ĥ": 4307,
      "ç§įæĹı": 4308,
      "æľªçŁ¥": 4309,
      "å£¤": 4310,
      "ä»°": 4311,
      "ual": 4312,
      "å®ģ": 4313,
      "åĬłéĢŁ": 4314,
      "Ġpos": 4315,
      "çļĦéŁ³ä¹Ĳ": 4316,
      "åľ¨è¿Ļä¸ª": 4317,
      "Ġè¿Ļ": 4318,
      "ï¼ĮæĿ¥": 4319,
      "é¸£": 4320,
      "ä¸īè§Ĵ": 4321,
      "ç»ķ": 4322,
      "sum": 4323,
      "è¾¹çķĮ": 4324,
      "ãĢĭãĢģãĢĬ": 4325,
      "ä¾§": 4326,
      "æĦŁçŁ¥": 4327,
      "çĵľ": 4328,
      "èĥ½åĬĽåĴĮ": 4329,
      "NA": 4330,
      "çĸ²": 4331,
      "å¿½": 4332,
      "çļĦéĢīæĭ©": 4333,
      ").": 4334,
      "æīĢåľ¨": 4335,
      "é½": 4336,
      "æ°´åĪĨ": 4337,
      "éĺ»": 4338,
      "åħ±æľī": 4339,
      "åģ¥åº·é¥®é£Ł": 4340,
      "æīĢæľīçļĦ": 4341,
      "å¥ĭ": 4342,
      "æ½®": 4343,
      "import": 4344,
      "æİªæĸ½æĿ¥": 4345,
      "èº«ä½ĵåģ¥åº·": 4346,
      "ä»Ķ": 4347,
      "ng": 4348,
      "èħ¿": 4349,
      "éŃĶæ³ķ": 4350,
      "ç¢İ": 4351,
      "æ»¤": 4352,
      "Ġform": 4353,
      "è®ºæĸĩ": 4354,
      "\\nTh": 4355,
      "åģıè§ģ": 4356,
      "ï¼Įä½łéľĢè¦ģ": 4357,
      "Ġacc": 4358,
      "åĨĴéĻ©": 4359,
      "Ġæĺ¯": 4360,
      "åĢį": 4361,
      "ï¼ĮåĬłåħ¥": 4362,
      "éĵħç¬Ķ": 4363,
      "æĢİä¹Īæł·": 4364,
      "åŃĺåľ¨çļĦ": 4365,
      "ä¸ªèĭ¹æŀľ": 4366,
      "æĬĢæľ¯åĴĮ": 4367,
      "å¾Īé«ĺåħ´": 4368,
      "è´¨éĩıåĴĮ": 4369,
      "ï¼Įå¢ŀå¼º": 4370,
      "æķĻå¸Ī": 4371,
      "_list": 4372,
      "æĦŁåĴĮ": 4373,
      "èī¯å¥½": 4374,
      "åıĬåħ¶": 4375,
      "ãĢĤå»ºè®®": 4376,
      "èĵĿèī²": 4377,
      "my": 4378,
      "åľŁå£¤": 4379,
      "ç¯®": 4380,
      "æľĢéĩįè¦ģçļĦ": 4381,
      "å®¶åħ·": 4382,
      "name": 4383,
      "))": 4384,
      "æ¼ı": 4385,
      "é»İ": 4386,
      "åĵ¥": 4387,
      "ample": 4388,
      "æľºåĻ¨åŃ¦ä¹łç®Ĺæ³ķ": 4389,
      "åĢº": 4390,
      "è®©ä½ł": 4391,
      "ä¼łç»ŁçļĦ": 4392,
      "lo": 4393,
      "çİĽä¸½": 4394,
      "å¼ºå¤§çļĦ": 4395,
      "è¹Ī": 4396,
      "å®ĺæĸ¹": 4397,
      "çĿĽ": 4398,
      "æĬĢèĥ½åĴĮ": 4399,
      "æĢ§è´¨": 4400,
      "åĸľå¥½": 4401,
      "çļĦçĿ¡": 4402,
      "èĩ³åħ³éĩįè¦ģ": 4403,
      "åħ¬éĩĮ": 4404,
      "ç²Ĵ": 4405,
      "Ġint": 4406,
      "çŃīéĹ®é¢ĺ": 4407,
      "ä¸ªä½ĵ": 4408,
      "æ¸łéģĵ": 4409,
      "ä¿®å¤į": 4410,
      "åħĭæľį": 4411,
      "åĵįåºĶ": 4412,
      "Ġgr": 4413,
      "æł¹æį®ç»Ļå®ļçļĦ": 4414,
      "æŁ¥æī¾": 4415,
      "ï¼Įä»İèĢĮæıĲé«ĺ": 4416,
      "ä¸Ģä¸ªäºº": 4417,
      "åĲĪåĲĮ": 4418,
      "åħħæ»¡äºĨ": 4419,
      "con": 4420,
      "è¿ĺéľĢè¦ģ": 4421,
      "Ġam": 4422,
      "Ġpre": 4423,
      "äººå£«": 4424,
      "åĮĸåĴĮ": 4425,
      "çļĦä¸»": 4426,
      "è§Ĩä¸º": 4427,
      "ï¼ļéĢļè¿ĩ": 4428,
      "èį£": 4429,
      "æīĭæľ¯": 4430,
      "æĭĵ": 4431,
      "ä¸¥æł¼": 4432,
      "Ġro": 4433,
      "ï¼Įäººç±»": 4434,
      "å¿ĥæĢģ": 4435,
      "èĪŀè¹Ī": 4436,
      "numbers": 4437,
      "åĴĮå»ºè®®": 4438,
      "é¢Ŀå¤ĸ": 4439,
      "ç»ıçĲĨ": 4440,
      "æ·¡": 4441,
      "éħįç½®": 4442,
      "ï¼Įä½ĨæĪĳ": 4443,
      "ç¾¤ä½ĵ": 4444,
      "èĩªè¡Įè½¦": 4445,
      "é¢ĨåŁŁä¸Ń": 4446,
      "ä¹¡": 4447,
      "å§¿": 4448,
      "å¥¹çļĦ": 4449,
      "ï¼Įæ²¡æľī": 4450,
      "éĹª": 4451,
      "ï¼Įå¦Ĥä½ķ": 4452,
      "ä¸ĭéĻį": 4453,
      "æ¿ĢåĬ±": 4454,
      "çº½": 4455,
      "ï¼ģĊ": 4456,
      "ãĢĤæľªæĿ¥": 4457,
      "Ġinformation": 4458,
      "æ½ľåĬĽ": 4459,
      "ä¸ªäººçļĦ": 4460,
      "ä¼ĺæĥł": 4461,
      "èµĭ": 4462,
      "çĶŁæ´»çļĦ": 4463,
      "åĿ¦": 4464,
      "è°ĥèĬĤ": 4465,
      "QL": 4466,
      "ä½ĵç³»": 4467,
      "æ¡¥": 4468,
      "è°ĥåĳ³": 4469,
      "æĻļä¸Ĭ": 4470,
      "ä¸Ģç³»åĪĹ": 4471,
      "ps": 4472,
      "å®ļä½į": 4473,
      "åħīçº¿": 4474,
      "çļĦçĿ¡çľł": 4475,
      "æľĥ": 4476,
      "æĺ¯ä¸ŃåĽ½": 4477,
      "éĹ²": 4478,
      "Ġvalue": 4479,
      "çĻĮ": 4480,
      "çİ¯å¢ĥæ±¡æŁĵ": 4481,
      "æĪĲæŀľ": 4482,
      "è¯Ńè¨Ģæ¨¡åŀĭ": 4483,
      "ï¼ĮæĪĳæĥ³": 4484,
      "é©±": 4485,
      "Ġinc": 4486,
      "ä¸Ĭæµ·": 4487,
      "å¿ł": 4488,
      "ract": 4489,
      "ç¶": 4490,
      "çļĦé£Łçī©": 4491,
      "æıĲä¾Ľä¸Ģä¸ª": 4492,
      "æķ¢": 4493,
      "æĺŁçĲĥ": 4494,
      "çļĦäºĭæĥħ": 4495,
      "è¿Ľè¡ĮåĪĨç±»": 4496,
      "ï¼Įæīįèĥ½": 4497,
      "åłĤ": 4498,
      "ï¼Įè¢«": 4499,
      "ict": 4500,
      "å¤§åŀĭ": 4501,
      "èĦ¸": 4502,
      "åĴĮæķ°æį®": 4503,
      "åıįæĢĿ": 4504,
      "çĶµåŃĲéĤ®ä»¶": 4505,
      "ãĢĤéĤ£": 4506,
      "Ġ>": 4507,
      "Ġpo": 4508,
      "é¼ł": 4509,
      "ari": 4510,
      "æ³°": 4511,
      "åīįå¾Ģ": 4512,
      "ä¸ĬéĿ¢": 4513,
      "åı¯ä»¥æĺ¯": 4514,
      "ãĢĤä½łåı¯ä»¥": 4515,
      "èıľèĤ´": 4516,
      "ä»¥ä¸ĭæĺ¯ä¸Ģä¸ª": 4517,
      "å¤±åİ»": 4518,
      "è¶³çĲĥ": 4519,
      "ï¼ļä½¿çĶ¨": 4520,
      "ä¸İåħ¶ä»ĸ": 4521,
      "ĠIf": 4522,
      "åħįçĸ«": 4523,
      "èİĵ": 4524,
      "ĠĠĠĠĠĠĠĠ": 4525,
      "éĢĤçĶ¨äºİ": 4526,
      "ãĢĤæĿİ": 4527,
      "æĺ¯å¤ļå°ĳ": 4528,
      "ĠPython": 4529,
      "ble": 4530,
      "åīª": 4531,
      "æĪĳä»¬éľĢè¦ģ": 4532,
      "Ġinte": 4533,
      "ä¸¤ç§į": 4534,
      "çļĦäº§åĵģ": 4535,
      "æª": 4536,
      "çļĦç±": 4537,
      "éĢļå¸¸ä¼ļ": 4538,
      "æ¦Ĥçİĩ": 4539,
      "åĲįè¯į": 4540,
      "\"\\": 4541,
      "à¦": 4542,
      "åĪ°è¾¾": 4543,
      "Ġinto": 4544,
      "è¿ĲçĶ¨": 4545,
      "æķ£æŃ¥": 4546,
      "èıĮ": 4547,
      "äººéĻħ": 4548,
      "Ġcomp": 4549,
      "æ¸©å®¤": 4550,
      "éĩĬæĶ¾": 4551,
      "å¸¦æĿ¥çļĦ": 4552,
      "åľ£": 4553,
      "åľ¨æľªæĿ¥": 4554,
      "å£®": 4555,
      "çĬ¬": 4556,
      "Ġno": 4557,
      "æľĢå¤§çļĦ": 4558,
      "è¯·æ±Ĥ": 4559,
      "çĽĽ": 4560,
      "ä¹ĭåĲİ": 4561,
      "val": 4562,
      "å´": 4563,
      "igh": 4564,
      "éĢ²": 4565,
      "ä¹ĭå¤ĸ": 4566,
      "æįŁå¤±": 4567,
      "æ¯ıä¸ªäººéĥ½": 4568,
      "æľĢæĸ°çļĦ": 4569,
      "éĩįçĤ¹": 4570,
      "åįļçī©": 4571,
      "erse": 4572,
      "ãĢĤæ¯Ķå¦Ĥ": 4573,
      "ç§Ł": 4574,
      "æĸĩç«łä¸Ń": 4575,
      "ĠSt": 4576,
      "ç´§å¼ł": 4577,
      "æĽ´å¿«": 4578,
      "è¡£æľį": 4579,
      "éĴ¢": 4580,
      "ï¼Įè¿ĺèĥ½": 4581,
      "åİ¨": 4582,
      "è¯įè¯Ń": 4583,
      "å¿ĥçĲĨåģ¥åº·": 4584,
      "æłĩå¿Ĺ": 4585,
      "Ġsentence": 4586,
      "æĸĩæĺİ": 4587,
      "é«ĺè´¨éĩı": 4588,
      "å®ļåĪ¶": 4589,
      "åĪĽä¸ļ": 4590,
      "Ġone": 4591,
      "åĶ¯": 4592,
      "æĹłè®ºæĺ¯": 4593,
      "clud": 4594,
      "ä¸ĸçķĮä¸ĬæľĢ": 4595,
      "åıĸä»£": 4596,
      "åĴĮä¸į": 4597,
      "ä¼Ļ": 4598,
      "çªģçĦ¶": 4599,
      "ï¼Įè®©æĪĳ": 4600,
      "éĿ¢è¯ķ": 4601,
      "ä½ĵéĩį": 4602,
      "ï¼Įä¸įæĸŃ": 4603,
      "å¤§èĦĳ": 4604,
      "Ġgiven": 4605,
      "ä¹ĭéĹ´çļĦåħ³ç³»": 4606,
      "Ġnew": 4607,
      "ç¿Ĵ": 4608,
      "ç¿°": 4609,
      "èĤº": 4610,
      "åĵªéĩĮ": 4611,
      "ç¼ĸç¨ĭè¯Ńè¨Ģ": 4612,
      "ÑĤ": 4613,
      "æľīè®¸å¤ļ": 4614,
      "çĤ¸": 4615,
      "ãĢĤæīĢä»¥": 4616,
      "åī©ä¸ĭ": 4617,
      "äºĶä¸ª": 4618,
      "ĠY": 4619,
      "ject": 4620,
      "å·¥ç¨ĭå¸Ī": 4621,
      "å°½åı¯èĥ½": 4622,
      "\\]\\": 4623,
      "ä¹īè¯į": 4624,
      "ra": 4625,
      "åŁºéĩĳ": 4626,
      "ï¼Łå½ĵçĦ¶": 4627,
      "éĽ·": 4628,
      "ert": 4629,
      "åįıè°ĥ": 4630,
      "çĺ": 4631,
      "äººä»¬çļĦ": 4632,
      "\\nI": 4633,
      "æĺ¯å¦Ĥä½ķ": 4634,
      "ï¼Įå½¢æĪĲ": 4635,
      "çļĦåİŁåĽł": 4636,
      "äºĭçī©": 4637,
      "åĪł": 4638,
      "åĳ½ä»¤": 4639,
      "æķıæĦŁ": 4640,
      "å¤§èĩªçĦ¶": 4641,
      "è¦ĨçĽĸ": 4642,
      "Ch": 4643,
      "å¯¹çİ¯å¢ĥ": 4644,
      "arg": 4645,
      "å±ħæ°ĳ": 4646,
      "å¹´è½»çļĦ": 4647,
      "æĸ¼": 4648,
      "åĪºæ¿Ģ": 4649,
      "æŃ¦": 4650,
      "ãĢģæ°´": 4651,
      "æĽ¿æį¢": 4652,
      "èģĮä½į": 4653,
      "åı¯èĥ½æĢ§": 4654,
      "çŃĶæ¡Īæĺ¯": 4655,
      "çģ¾å®³": 4656,
      "çļĦæĥħåĨµä¸ĭ": 4657,
      "åı¯åĨįçĶŁèĥ½æºĲ": 4658,
      "æĺ¯æĪĳ": 4659,
      "åıĺæĪĲ": 4660,
      "æŀĦæĪĲ": 4661,
      "Ð¸": 4662,
      "éł": 4663,
      "åĲĮäºĭ": 4664,
      "çī©ç§į": 4665,
      "æĹ¶åħī": 4666,
      "æİ¥è§¦": 4667,
      "ä½Ĩä¸į": 4668,
      "éħĴåºĹ": 4669,
      "ç¬¦åı·": 4670,
      "ä¼¼ä¹İ": 4671,
      "è´§å¸ģ": 4672,
      "____": 4673,
      "Ġla": 4674,
      "æ³Ħ": 4675,
      "Ġdes": 4676,
      "å·²çŁ¥": 4677,
      "Ġits": 4678,
      "äºĭé¡¹": 4679,
      "ðŁ": 4680,
      "æĹ¶çļĦ": 4681,
      "åĭĩæ°Ķ": 4682,
      "æĬ«èĲ¨": 4683,
      "èĬĤæĹ¥": 4684,
      "ä¸ĢèĪ¬": 4685,
      "ä¸ģ": 4686,
      "Ġmany": 4687,
      "ï¼Łæĺ¯çļĦ": 4688,
      "yp": 4689,
      "æĬķåħ¥": 4690,
      "è·Łè¸ª": 4691,
      "åĩºè¡Į": 4692,
      "ning": 4693,
      "æĺ¯åĽłä¸º": 4694,
      "åĵªç§į": 4695,
      "ç¬¬ä¸Ģä¸ª": 4696,
      "åĴĮçĲĨè§£": 4697,
      "Ġem": 4698,
      "èį·": 4699,
      "ä½ĵèĤ²": 4700,
      "åĽŀçŃĶéĹ®é¢ĺ": 4701,
      "å½±åĥı": 4702,
      "å·Ŀ": 4703,
      "æĦ¿æĦı": 4704,
      "åįıè®®": 4705,
      "å½¢å®¹": 4706,
      "çº¦ç¿°": 4707,
      "éĩįéĩı": 4708,
      "å¯Ĵ": 4709,
      "ä¸ŃæıĲåıĸåĩº": 4710,
      "Ã©": 4711,
      "Ġtheir": 4712,
      "èĬĤçº¦": 4713,
      "\\nä»Ĭå¤©": 4714,
      "Ø§": 4715,
      "Ġresult": 4716,
      "æĦŁæŁĵ": 4717,
      "âĢĿåĴĮ": 4718,
      "è¿Ļåı¥è¯Ŀ": 4719,
      "éĢļä¿¡": 4720,
      "å¼ºçĥĪ": 4721,
      "Ġcomm": 4722,
      "åĴĮæĬĢæľ¯": 4723,
      "Ġfe": 4724,
      "çŃīåĽłç´ł": 4725,
      "èĳ¡": 4726,
      "åĳ¨æľŁ": 4727,
      "éĿŀå¸¸æľī": 4728,
      "\\nThe": 4729,
      "orre": 4730,
      "æ¡Īä¾ĭ": 4731,
      "):": 4732,
      "ï¼īçļĦ": 4733,
      "å¾Īæľī": 4734,
      "æľīæīĢä¸įåĲĮ": 4735,
      "æĺ¯ä¸ĢåĲį": 4736,
      "'re": 4737,
      "led": 4738,
      "è¿ĲèĲ¥": 4739,
      "èıľåĵģ": 4740,
      "äºĨè®¸å¤ļ": 4741,
      "æľŁæľĽ": 4742,
      "çļĦçĬ": 4743,
      "èĢĥè¯ķ": 4744,
      "éķ¿çļĦ": 4745,
      "çļĦç¤¾äº¤": 4746,
      "éĽĨæĪĲ": 4747,
      "à¥": 4748,
      "ï¼ĮçĶļèĩ³": 4749,
      "æĳ©": 4750,
      "å¹³åĿĩåĢ¼": 4751,
      "éĿŀå¸¸æĦŁè°¢": 4752,
      "èķī": 4753,
      "å®¢æľį": 4754,
      "åī¯": 4755,
      "åİĺç±³": 4756,
      "çļĦç¼ĸç¨ĭ": 4757,
      "ï¼ĮåºĶ": 4758,
      "æĪĲç»©": 4759,
      "ãĢĤçĶ±äºİ": 4760,
      "èĲĦ": 4761,
      "èĳ¡èĲĦ": 4762,
      "éļľç¢į": 4763,
      "çĽĴ": 4764,
      "è°ĥçĶ¨": 4765,
      "è·ĳæŃ¥": 4766,
      "æµĭéĩı": 4767,
      "ï¼Įå¹¶å°Ĩ": 4768,
      "çī©çĲĨåŃ¦": 4769,
      "æľ¬èº«": 4770,
      "its": 4771,
      "ä»ĸä»¬çļĦå¯¹è¯ĿåĨħå®¹": 4772,
      "è¿ħéĢŁ": 4773,
      "çŁ¿": 4774,
      "çº¤": 4775,
      "åıĮæĸ¹": 4776,
      "å½ĵåľ°çļĦ": 4777,
      "ible": 4778,
      "æĺİæĺ¾": 4779,
      "åĴĮæĥħæĦŁ": 4780,
      "éģĵè·¯": 4781,
      "é¢ĳçİĩ": 4782,
      "åĶĲ": 4783,
      "ater": 4784,
      "çŁ©": 4785,
      "åħ«": 4786,
      "èĻļæĭŁçİ°å®ŀ": 4787,
      "sqrt": 4788,
      "æ¸ħåįķ": 4789,
      "ãĢĤJohn": 4790,
      "åľ°çĲĥçļĦ": 4791,
      "ĠHow": 4792,
      "ys": 4793,
      "å·´é»İ": 4794,
      "ull": 4795,
      "ç§ĳæĬĢçļĦ": 4796,
      "å¯¹äººç±»": 4797,
      "èµĦäº§": 4798,
      "Ġover": 4799,
      "ower": 4800,
      "èĩªæĪĳæĦıè¯Ĩ": 4801,
      "ï¼Įåħ·æľī": 4802,
      "åľºåĲĪ": 4803,
      "æĿĥåĪ©": 4804,
      "ï¼Įè®©æĪĳä»¬": 4805,
      "çļĦç±»": 4806,
      "èĸĦ": 4807,
      "æķ°åĪĹ": 4808,
      "ov": 4809,
      "åĪĩæĪĲ": 4810,
      "åĪ¸": 4811,
      "çĪ±çļĦ": 4812,
      "è¿Ĳç®Ĺ": 4813,
      "æķ¸": 4814,
      "ï¼ļä¸ĢåĲį": 4815,
      "æľ¬è´¨": 4816,
      "ï¼Įæĭ¥æľī": 4817,
      "ç£ģ": 4818,
      "éģĩåĪ°äºĨ": 4819,
      "é¦Ļèķī": 4820,
      "å¤ªéĺ³ç³»": 4821,
      "æģ©": 4822,
      "å¡ŀ": 4823,
      "åĨł": 4824,
      "ä¹ĭå¤Ħ": 4825,
      "æŃĮè¯į": 4826,
      "å¥ĸåĬ±": 4827,
      "äº§ä¸ļ": 4828,
      "ĠCh": 4829,
      "èľĤ": 4830,
      "å·¥èīº": 4831,
      "ä¾¿æį·": 4832,
      "çļĦçŁŃ": 4833,
      "æľ¬æĸĩ": 4834,
      "å®¶çļĦ": 4835,
      "æĶ¶çĽĬ": 4836,
      "ç²¾ç¡®": 4837,
      "ä¼łè¾ĵ": 4838,
      "åıĳå±ķçļĦ": 4839,
      "æĺ¯ä¸Ģéĥ¨": 4840,
      "è½»è½»": 4841,
      "éĻĨ": 4842,
      "åı¦ä¸Ģ": 4843,
      "åľ¨æŁĲäºĽ": 4844,
      "ink": 4845,
      "çĶŁæĪĲä¸Ģé¦ĸ": 4846,
      "é»Ħèī²": 4847,
      "æľįåĬ¡åĻ¨": 4848,
      "ãĢĤåħ·ä½ĵ": 4849,
      "èĦī": 4850,
      "å®ŀéĻħä¸Ĭ": 4851,
      "ãĢģé«ĺ": 4852,
      "æ©ĻåŃĲ": 4853,
      "çĪĨ": 4854,
      "æĴ°": 4855,
      "Ġtwo": 4856,
      "å¤ļåħĥ": 4857,
      "çļĦåıĺåĮĸ": 4858,
      "åįļçī©é¦Ĩ": 4859,
      "å§ĵ": 4860,
      "åĪĨè§£": 4861,
      "æĹ¶åĪ»": 4862,
      "çº½çº¦": 4863,
      "æ³ķåĽ½": 4864,
      "ating": 4865,
      "ï¼Łå½ĵ": 4866,
      "æµªæ¼«": 4867,
      "ermine": 4868,
      "ener": 4869,
      "ãĢģéĩĳèŀį": 4870,
      "éľĢè¦ģæ³¨æĦıçļĦæĺ¯": 4871,
      "ãĢĤä¸ĭéĿ¢": 4872,
      "æł¹æį®ä»¥ä¸ĭ": 4873,
      "æĵİ": 4874,
      "ä¸ºæĪĳ": 4875,
      "åĲĮæł·": 4876,
      "åĪłéĻ¤": 4877,
      "è·ĥ": 4878,
      "ä¼łè¾¾": 4879,
      "åĪĽéĢłåĬĽ": 4880,
      "æĮĩåįĹ": 4881,
      "ory": 4882,
      "çļĦä»»åĬ¡": 4883,
      "çĹħäºº": 4884,
      "åıĳéĢģ": 4885,
      "çŁ¥åĲį": 4886,
      "ãĢĤå¸ĮæľĽè¿ĻäºĽ": 4887,
      "äº¡": 4888,
      "ç®ĢçŁŃ": 4889,
      "æİĺ": 4890,
      "\\ndef": 4891,
      "å¼ķæĵİ": 4892,
      "çļĦåı¥åŃĲ": 4893,
      "æĹ§": 4894,
      "åĲ¸æĶ¶": 4895,
      "çŀ": 4896,
      "Ġsome": 4897,
      "à°": 4898,
      "çļĦæĸĩæľ¬": 4899,
      "angu": 4900,
      "Ð½": 4901,
      "ask": 4902,
      "ï¼ļä½ł": 4903,
      "å¹¿æ³ĽçļĦåºĶçĶ¨": 4904,
      "è¿Ĳè¾ĵ": 4905,
      "æŁĲç§į": 4906,
      "åĵģç§į": 4907,
      "æ²»çĲĨ": 4908,
      "å®īåħ¨åĴĮ": 4909,
      "âĢ¦": 4910,
      "ä¸Ģå¤©": 4911,
      "åŃ¦æľ¯": 4912,
      "èĢĮè¨Ģ": 4913,
      "æķ°æį®è¿Ľè¡Į": 4914,
      "ï¼Įä¸Ķ": 4915,
      "æ°ı": 4916,
      "èĬĤçĤ¹": 4917,
      "ãĢĤä½łèĥ½": 4918,
      "ãĢĤæĤ¨åı¯ä»¥": 4919,
      "æĦīå¿«": 4920,
      "æĪĳä»¬çļĦçĶŁæ´»": 4921,
      "æĹłéĻĲ": 4922,
      "ãĢģæķĻèĤ²": 4923,
      "å¾Ĺåĩº": 4924,
      "åĨįæ¬¡": 4925,
      "å®ĹæķĻ": 4926,
      "ç§Ĵ": 4927,
      "åı¯ä»¥å¸®åĬ©æĪĳä»¬": 4928,
      "ï¼ĮæľªæĿ¥": 4929,
      "è¯¢éĹ®": 4930,
      "ï¼ļAI": 4931,
      "æĺ¯éĢļè¿ĩ": 4932,
      "æ¼Ķåĳĺ": 4933,
      "ä¸ŃåĽ½çļĦ": 4934,
      "ute": 4935,
      "ï¼Įåı¯èĥ½ä¼ļ": 4936,
      "æİ¢éĻ©": 4937,
      "æĤ¨å¥½": 4938,
      "äº¿": 4939,
      "æĺİçĻ½": 4940,
      "æ²»çĸĹæĸ¹æ¡Ī": 4941,
      "åŀĥåľ¾åĪĨç±»": 4942,
      "åĮĻ": 4943,
      "è®¤çľŁ": 4944,
      "Ġthan": 4945,
      "æĪĺäºī": 4946,
      "ä¸ºä½ł": 4947,
      "Ġfirst": 4948,
      "ï¼ŁâĢĿ": 4949,
      "æĿĢ": 4950,
      "ä¿ĿæĬ¤çİ¯å¢ĥ": 4951,
      "ï¼ļæĺ¯çļĦ": 4952,
      "è¯·ä½ł": 4953,
      "ative": 4954,
      "ors": 4955,
      "ãģĻ": 4956,
      "orrect": 4957,
      "è°Ĭ": 4958,
      "oy": 4959,
      "åįģåĪĨ": 4960,
      "åıĹä¼Ĺ": 4961,
      "ç¼ºçĤ¹": 4962,
      "åĬŀåħ¬": 4963,
      "ï¼Įä¹Łåı¯ä»¥": 4964,
      "äººåı£": 4965,
      "æŃ£éĿ¢": 4966,
      "çĶ¨æĪ·ä½ĵéªĮ": 4967,
      "Ġyear": 4968,
      "åĲī": 4969,
      "çİ¯ä¿ĿçļĦ": 4970,
      "ello": 4971,
      "æ¬§æ´²": 4972,
      "çİ¯å¢ĥä¸Ń": 4973,
      "'t": 4974,
      "åĽ¾çīĩ": 4975,
      "æĮĩä»¤": 4976,
      "èĭ±åĽ½": 4977,
      "ï¼Įå¹¶æıĲä¾Ľ": 4978,
      "è¿Ļæĺ¯ä¸Ģä¸ª": 4979,
      "Ġup": 4980,
      "Ġpart": 4981,
      "ä¼¤å®³": 4982,
      "çļĦä»·æł¼": 4983,
      "çļĦçľŁ": 4984,
      "ä¼ĺåħĪçº§": 4985,
      "è½¬åĮĸä¸º": 4986,
      "éķ¿æĹ¶éĹ´": 4987,
      "æ¼Ķè®²": 4988,
      "è¡¨çİ°åĩº": 4989,
      "ä¹ŁéľĢè¦ģ": 4990,
      "éĢĲæŃ¥": 4991,
      "å¹´æĿ¥": 4992,
      "æŀģç«¯": 4993,
      "ä»¿ä½Ľ": 4994,
      "çŃīæĬĢæľ¯": 4995,
      "æľĢå°ı": 4996,
      "ç®¡çĲĨåĴĮ": 4997,
      "åľ¨ä¸Ģä¸ª": 4998,
      "åĨĮ": 4999,
      "Ġtime": 5000,
      "ä¸įä»ħä»ħ": 5001,
      "éĽĦ": 5002,
      "Ġassistant": 5003,
      "å±ıå¹ķ": 5004,
      "éĻ·": 5005,
      "è´¦æĪ·": 5006,
      "ï¼ĮçĶ±äºİ": 5007,
      "æĺ¨": 5008,
      "çļĦç´": 5009,
      "éĢĤåĲĪèĩªå·±çļĦ": 5010,
      "æĪ´": 5011,
      "ç´«": 5012,
      "è¿ª": 5013,
      "ï¼ļ\"": 5014,
      "åħĶ": 5015,
      "åĢĴåħ¥": 5016,
      "ä½Ĩä¸įéĻĲäºİ": 5017,
      "æĬķèµĦèĢħ": 5018,
      "alculate": 5019,
      "åħĪçĶŁ": 5020,
      "çĸ«èĭĹ": 5021,
      "ä½¿çĶ¨äºĨ": 5022,
      "ãĢĤä½łè®¤ä¸º": 5023,
      "æľĢå¥½çļĦ": 5024,
      "ven": 5025,
      "åŃ¦ç§ĳ": 5026,
      "æĭĽèģĺ": 5027,
      "ç§įæ¤į": 5028,
      "æķ°åŃĹåĮĸ": 5029,
      "æĬĳ": 5030,
      "ãĢĤç»¼ä¸ĬæīĢè¿°": 5031,
      "é«ĺçº§": 5032,
      "å¤§çº¦": 5033,
      "çļĦæĸ°": 5034,
      "åĪ©æ¶¦": 5035,
      "æī©å¤§": 5036,
      "éĺ´": 5037,
      "å¥³åŃ©": 5038,
      "åŁĥ": 5039,
      "åľĪ": 5040,
      "çĶ°": 5041,
      "ä¸ªç³ĸæŀľ": 5042,
      "åł¡": 5043,
      "åıĳæĺİ": 5044,
      "æ²¿": 5045,
      "Ġmy": 5046,
      "å¼ķå¯¼": 5047,
      "å¤ĸéĥ¨": 5048,
      "ä¸įæĸŃåľ°": 5049,
      "ãĢĤä½¿çĶ¨": 5050,
      "\\nä½łæĺ¯ä¸Ģä¸ª": 5051,
      "åı¤èĢģ": 5052,
      "éĺĶ": 5053,
      "Ġind": 5054,
      "Ġmod": 5055,
      "æĤ¨éľĢè¦ģ": 5056,
      "åĴĮåŃ¦ä¹ł": 5057,
      "own": 5058,
      "ä¼¸": 5059,
      "åºĶè¯¥æĺ¯": 5060,
      "ä¸ĢäºĽåħ³äºİ": 5061,
      "åľ°åĿĢ": 5062,
      "é¢ĦæĬ¥": 5063,
      "ĠIt": 5064,
      "ä½łèĥ½": 5065,
      "åĴĮå¯¹": 5066,
      "çļĦè®¾è®¡": 5067,
      "ä½ľä¸ºä¸Ģä¸ª": 5068,
      "ï¼Įå°¤åħ¶æĺ¯": 5069,
      "ï¼ĮæĤ¨éľĢè¦ģ": 5070,
      "åĨħåŃĺ": 5071,
      "èģª": 5072,
      "æĤī": 5073,
      "ï¼Įä»¥æıĲé«ĺ": 5074,
      "ç»ĻäºĪ": 5075,
      "ä¸¦": 5076,
      "æ´Ľ": 5077,
      "æ¸¸å®¢": 5078,
      "ä¸įçŁ¥éģĵ": 5079,
      "ogle": 5080,
      "éĩĳå±ŀ": 5081,
      "åŃ¦èĢħ": 5082,
      "ä¼Ļä¼´": 5083,
      "è®°ä½ı": 5084,
      "éĻ¤ä»¥": 5085,
      "çļĦæľºä¼ļ": 5086,
      "Ġtrans": 5087,
      "åĿĩè¡¡": 5088,
      "èıľåįķ": 5089,
      "çº¤ç»´": 5090,
      "åıĭè°Ĭ": 5091,
      "æ·ĭ": 5092,
      "å¸Ŀ": 5093,
      "å®ĮåĸĦ": 5094,
      "åī²": 5095,
      "Ġcost": 5096,
      "å±Ĥæ¬¡": 5097,
      "æĺŁæľŁ": 5098,
      "è®¡ç®Ĺæľºç§ĳåŃ¦": 5099,
      "åľ°ä½į": 5100,
      "èµĦæºĲçļĦ": 5101,
      "æĮĳæĪĺåĴĮ": 5102,
      "ï¼ļå¦Ĥæŀľ": 5103,
      "è£¤": 5104,
      "ï¼ĮæĹ¨åľ¨": 5105,
      "æĽ¾ç»ı": 5106,
      "çĲ´": 5107,
      "åı¯èĥ½åĮħæĭ¬": 5108,
      "ä½łåľ¨": 5109,
      "è½¨": 5110,
      "press": 5111,
      "åķĨåĬ¡": 5112,
      "Ġterm": 5113,
      "åĪĨæĪĲ": 5114,
      "åıªèĥ½": 5115,
      "çº¯": 5116,
      "è·¯çº¿": 5117,
      "Ġpe": 5118,
      "ï¼Įé¼ĵåĬ±": 5119,
      "å°½éĩı": 5120,
      "é¸¡èĤī": 5121,
      "å°¿": 5122,
      "oogle": 5123,
      "str": 5124,
      "åĵº": 5125,
      "åıĺéĿ©": 5126,
      "åĮºåĪ«": 5127,
      "ĠÃ·": 5128,
      "lement": 5129,
      "ä¹Łæľī": 5130,
      "è®¤ä¸ºæĺ¯": 5131,
      "éĢĥ": 5132,
      "ãĢĤå°Ĩ": 5133,
      "å¤±è´¥": 5134,
      "ç«ĭåį³": 5135,
      "åĵģå°Ŀ": 5136,
      "ä¸»äºº": 5137,
      "æ¶Īæģ¯": 5138,
      "æĺ¯ä¸Ģç¯ĩ": 5139,
      "åŁİå¸ĤçļĦ": 5140,
      "ased": 5141,
      "éĥ½èĥ½": 5142,
      "åĴĮéľĢæ±Ĥ": 5143,
      "æĸĩæ¡Ī": 5144,
      "èĮĥåĽ´åĨħ": 5145,
      "é£İæĻ¯": 5146,
      "å·¨å¤§": 5147,
      "ï¼ĮæĪĸ": 5148,
      "ptions": 5149,
      "æĳĩ": 5150,
      "Ġabout": 5151,
      "èĲĿ": 5152,
      ":**": 5153,
      "duct": 5154,
      "ï¼ĮæıĲåįĩ": 5155,
      "å¦ĤæŃ¤": 5156,
      "æĻ®éĢļ": 5157,
      "çļĦç¨ĭ": 5158,
      "Ġboth": 5159,
      "ï¼Įåı¯ä»¥éĢļè¿ĩ": 5160,
      "\\nC": 5161,
      "æıĲåĪ°äºĨ": 5162,
      "çĸ«æĥħ": 5163,
      "ä¸ĥ": 5164,
      "è¿ĩäºİ": 5165,
      "çļĦçĶŁæ´»æĸ¹å¼ı": 5166,
      "?<|": 5167,
      "äººå·¥æĻºèĥ½åľ¨": 5168,
      "è¢«ç§°ä¸º": 5169,
      "æķ°åĢ¼": 5170,
      "çļĦçĸ": 5171,
      "Ġbet": 5172,
      "Ġhis": 5173,
      "ç¦ģ": 5174,
      "çļĦä¸ĢäºĽ": 5175,
      "å¤ļæķ°": 5176,
      "åĴĮä¼ĺåĮĸ": 5177,
      "æĤł": 5178,
      "çķĻä¸ĭ": 5179,
      "æĢķ": 5180,
      "?\\": 5181,
      "word": 5182,
      "æĽ´ä¸º": 5183,
      "æī£": 5184,
      "Bob": 5185,
      "éĶģ": 5186,
      "æľīä»»ä½ķ": 5187,
      "æĤ²": 5188,
      "åĮĸåĲĪ": 5189,
      "ç¼ĺ": 5190,
      "ãĢĤL": 5191,
      "è¡ĵ": 5192,
      "æµı": 5193,
      "ç¾Ĭ": 5194,
      "æĸĩåĮĸçļĦ": 5195,
      "Â°": 5196,
      "å¾Īå¥½çļĦ": 5197,
      "ä¼łæĦŁ": 5198,
      "Ġå¦Ĥæŀľ": 5199,
      "æµıè§Ī": 5200,
      "æıĲåīį": 5201,
      "å¹«": 5202,
      "æ¶Ĥ": 5203,
      "åıĹæ¬¢è¿İçļĦ": 5204,
      "æĿ¥è®¡ç®Ĺ": 5205,
      "ï¼Įåħ·ä½ĵ": 5206,
      "ãĢĤéĻ¤äºĨ": 5207,
      "ï¼ļæĪĳä»¬": 5208,
      "ä¼ļå¯¼èĩ´": 5209,
      "ä¿¡ä»°": 5210,
      "å¿ĥçģµ": 5211,
      "ãĢĤçİ°åľ¨": 5212,
      "ç½ļ": 5213,
      "ä¸įç¡®å®ļ": 5214,
      "æĿ¥çľĭ": 5215,
      "åĪ·": 5216,
      "æ¯ķ": 5217,
      "çĲĨå¿µ": 5218,
      "æ¶µçĽĸ": 5219,
      "\\nA": 5220,
      "æ®ĸ": 5221,
      "erson": 5222,
      "æĹ¥å¸¸çĶŁæ´»ä¸Ń": 5223,
      "åĲ¹": 5224,
      "å®ĮæĪĲä»»åĬ¡": 5225,
      "ä¼ļå¯¹": 5226,
      "$$": 5227,
      "åĲĳéĩı": 5228,
      "è²Į": 5229,
      "å¼ķåĬĽ": 5230,
      "^{": 5231,
      "å¿§": 5232,
      "ä¹±": 5233,
      "ER": 5234,
      "ħåĬĽ": 5235,
      "old": 5236,
      "Hello": 5237,
      "æĢİæł·": 5238,
      "æľįè£ħ": 5239,
      "èģªæĺİ": 5240,
      "åĽ¢éĺŁåĲĪä½ľ": 5241,
      "äººåľ¨": 5242,
      "è¯ĬæĸŃåĴĮæ²»çĸĹ": 5243,
      "key": 5244,
      "èĬĤèĥ½": 5245,
      "result": 5246,
      "åĴĮå·¥ä½ľ": 5247,
      "ï¼Įä¸ĢäºĽ": 5248,
      "æĦıè¯ĨåĪ°": 5249,
      "Ġcre": 5250,
      "ÑĢ": 5251,
      "éĶĢåĶ®é¢Ŀ": 5252,
      "å¼ºåº¦": 5253,
      "Ġdis": 5254,
      "çı¾": 5255,
      "äºĭæķħ": 5256,
      "Ġuse": 5257,
      "Script": 5258,
      "åĴĮè¡Įä¸º": 5259,
      "çļĦç¥ŀ": 5260,
      "åĩĿ": 5261,
      "å¤§åľ°": 5262,
      "ï¼ī**ï¼ļ": 5263,
      "æµģçķħ": 5264,
      "çĶŁæĹ¥": 5265,
      "å¹³éĿ¢": 5266,
      "åħĪè¿Ľ": 5267,
      "æģĭ": 5268,
      "ç½²": 5269,
      "ãĢĤæĸĩç«ł": 5270,
      "ãĢģæķ°æį®": 5271,
      "andom": 5272,
      "çĶ·æĢ§": 5273,
      "æĹ©ä¸Ĭ": 5274,
      "åĴĮæĹ¶éĹ´": 5275,
      "çļĦåĢ¼": 5276,
      "æııç»ĺ": 5277,
      "åĵºä¹³": 5278,
      "æ»¡æĦıåº¦": 5279,
      "é£ĺ": 5280,
      "ength": 5281,
      "Ġdif": 5282,
      "æ°´çļĦ": 5283,
      "ãĢĤç¡®ä¿Ŀ": 5284,
      "ĠãĢĬ": 5285,
      "ä¼łæĦŁåĻ¨": 5286,
      "è¯ķåĽ¾": 5287,
      "Ġà¤": 5288,
      "ä¸»è§Ĥ": 5289,
      "åŁºäºİä»¥ä¸ĭ": 5290,
      "å¹²æī°": 5291,
      "åĭĩæķ¢": 5292,
      "åĴĮä½¿çĶ¨": 5293,
      "æ°¸è¿ľ": 5294,
      "çģµæĦŁ": 5295,
      "å¤ıå¤©çļĦ": 5296,
      "æĭħå¿ĥ": 5297,
      "çģ°": 5298,
      "çº·": 5299,
      "æĺ¯éĿŀå¸¸éĩįè¦ģçļĦ": 5300,
      "æĢ§æł¼": 5301,
      "åĲĪæ³ķ": 5302,
      "Ġsm": 5303,
      "æĩī": 5304,
      "ah": 5305,
      "aus": 5306,
      "æĺİå¤©": 5307,
      "æľīä»·åĢ¼": 5308,
      "æŃī": 5309,
      "åį°è±¡": 5310,
      "è¿Ļä¸¤ä¸ª": 5311,
      "çĽ¸åĬł": 5312,
      "æ·±åĳ¼åĲ¸": 5313,
      "å¿łè¯ļ": 5314,
      "é¢ĦæľŁ": 5315,
      "Ġequation": 5316,
      "äºĴçĽ¸": 5317,
      "äºĭä¸ļ": 5318,
      "Ġnumbers": 5319,
      "æĲº": 5320,
      "å¿ĥçĲĨåŃ¦": 5321,
      "ma": 5322,
      "æĻ®éģį": 5323,
      "è¿ľç¨ĭ": 5324,
      "æĪĲåĬŁçļĦ": 5325,
      "Ġwhat": 5326,
      "å®ŀçĶ¨": 5327,
      "è´·": 5328,
      "ä¿¡çĶ¨": 5329,
      "æ¯«": 5330,
      "å®¶éĩĮ": 5331,
      "ï¼Įäº«åıĹ": 5332,
      "çļĦçĬ¶": 5333,
      "å¹¿æ³ĽçļĦ": 5334,
      "æĸ°åŀĭ": 5335,
      "ï¼ĮéĿŀå¸¸": 5336,
      "éģİ": 5337,
      "éĩİçĶŁ": 5338,
      "ä¸ĭåĪĹ": 5339,
      "ä»¥ä¸ĭæŃ¥éª¤": 5340,
      "åŃ¸ç¿Ĵ": 5341,
      "anguage": 5342,
      "çŃīå¤ļä¸ª": 5343,
      "åľ¨ä¸įåĲĮ": 5344,
      "èĤ¯": 5345,
      "æĿ¥æıĲé«ĺ": 5346,
      "å¹«åĬ©": 5347,
      "åĬ¨è¯į": 5348,
      "ç»ĦæĪĲéĥ¨åĪĨ": 5349,
      "èµ¢": 5350,
      "çŃĽ": 5351,
      ">\\": 5352,
      "`ï¼Į": 5353,
      "åĵ¦": 5354,
      "éĩĳé¢Ŀ": 5355,
      "è¡Ģåİĭ": 5356,
      "åŁºæľ¬çļĦ": 5357,
      "Ġph": 5358,
      "çĪ½": 5359,
      "ï¼Įè¿Ľè¡Į": 5360,
      "çī©æµģ": 5361,
      "æļĤ": 5362,
      "äººä½ĵ": 5363,
      "ful": 5364,
      "anc": 5365,
      "çļĦä¸Ģç§į": 5366,
      "å¹¶æ²¡æľī": 5367,
      "ç²¾åĬĽ": 5368,
      "äºĮæ°§åĮĸ": 5369,
      "è¢«å¹¿æ³Ľ": 5370,
      "çļĦè¿ĩç¨ĭä¸Ń": 5371,
      "åĻª": 5372,
      "cess": 5373,
      "ä¸ºæĤ¨æıĲä¾Ľ": 5374,
      "çĪ¬": 5375,
      "\"ï¼Į": 5376,
      "å¼ºè°ĥäºĨ": 5377,
      "Ġdoes": 5378,
      "_c": 5379,
      "æĩĤ": 5380,
      "è¡¨è¾¾äºĨ": 5381,
      "æħ¢æħ¢": 5382,
      "èĬĿ": 5383,
      "é£Łè°±": 5384,
      "åĽ¾åĥıè¯ĨåĪ«": 5385,
      "\\nF": 5386,
      "æİ¥æĶ¶": 5387,
      "æĮĩåĩº": 5388,
      "é«ĺæķĪçļĦ": 5389,
      "å§ľ": 5390,
      "éĢīæĭ©åĲĪéĢĤçļĦ": 5391,
      "é¡µéĿ¢": 5392,
      "ä¿¡æģ¯çļĦ": 5393,
      "æī¬": 5394,
      "é«Ķ": 5395,
      "SQL": 5396,
      "å¤ľæĻļ": 5397,
      "ï¼Įèĥ½": 5398,
      "ï¼īãĢĤ\\": 5399,
      "ML": 5400,
      "åŃ¦ä¹łæĸ°": 5401,
      "Ġfollowing": 5402,
      "å¯ĮåĲ«": 5403,
      "Ġ==": 5404,
      "çļĦä½įç½®": 5405,
      "ä»ĸäººçļĦ": 5406,
      "Ġprint": 5407,
      "åľºæīĢ": 5408,
      "cd": 5409,
      "å¸¸å¸¸": 5410,
      "å¹´ä»£": 5411,
      "çĬ¯ç½ª": 5412,
      "æ·±è¿ľçļĦå½±åĵį": 5413,
      "åŃ©åŃĲä»¬": 5414,
      "åħ¼": 5415,
      "åĴĮæĬĢèĥ½": 5416,
      "çļĦåĲĮæĹ¶": 5417,
      "ï¼Įåı¯èĥ½éľĢè¦ģ": 5418,
      "åı¯è¡Į": 5419,
      "æĥħå¢ĥ": 5420,
      "ä¿Ĺ": 5421,
      "éĢĤéĩıçļĦ": 5422,
      "åĬłä¸Ĭ": 5423,
      "ç©¿çĿĢ": 5424,
      "Ñģ": 5425,
      "å®¾": 5426,
      "ãĢģç¤¾ä¼ļ": 5427,
      "ï¼Įå»ºç«ĭ": 5428,
      "æĹ©é¤Ĳ": 5429,
      "çº¹": 5430,
      "Ġel": 5431,
      "ä¸ĢæĿ¡": 5432,
      "åĮ»éĻ¢": 5433,
      "éĩįå¤§": 5434,
      "æĵļ": 5435,
      "åĲĪçĲĨçļĦ": 5436,
      "otal": 5437,
      "æĺ¯æĪĳä»¬": 5438,
      "å¤ıæĹ¥": 5439,
      "åĩĨç¡®æĢ§åĴĮ": 5440,
      "èĢĥèĻĳåĪ°": 5441,
      "åľ°åĮºçļĦ": 5442,
      "urr": 5443,
      "æĿ¥è§£åĨ³": 5444,
      "æľīéĻĲ": 5445,
      "Ġsub": 5446,
      "èµĦæĸĻ": 5447,
      "çļĦç¾İé£Ł": 5448,
      "LE": 5449,
      "ours": 5450,
      "GP": 5451,
      "çļĦæł¸å¿ĥ": 5452,
      "ï¼Įæİ¨åĬ¨": 5453,
      "Ġstep": 5454,
      "çĭĹçĭĹ": 5455,
      "ï¼Įè®¸å¤ļ": 5456,
      "ility": 5457,
      "ough": 5458,
      "Ġword": 5459,
      "Ġshould": 5460,
      "åı£è¯Ń": 5461,
      "Ġset": 5462,
      "çļĦçģµ": 5463,
      "ï¼ĮåĪ¶å®ļ": 5464,
      "å¼ºåĮĸ": 5465,
      "Ġ{\\": 5466,
      "ç¨į": 5467,
      "éľĢè¦ģåľ¨": 5468,
      "æĤ¬": 5469,
      "ï¼Įå¾ĹåĪ°": 5470,
      "å¹¶ä¸Ķ": 5471,
      "Ġthey": 5472,
      "Ġrange": 5473,
      "Em": 5474,
      "å¿ĥèĦı": 5475,
      "ï¼ĮèĻ½çĦ¶": 5476,
      "åĽŀå¿Ĩ": 5477,
      "erv": 5478,
      "æĮĸ": 5479,
      "æ´ĭèĳ±": 5480,
      "ues": 5481,
      "çĶŁåĳ½çļĦ": 5482,
      "Ġdiv": 5483,
      "æµģåĬ¨": 5484,
      "çľŁæŃ£çļĦ": 5485,
      "æķħéļľ": 5486,
      "Ġworld": 5487,
      "æĹłäºº": 5488,
      "åĸ»": 5489,
      "ï¼ĮæĪĳä»¬å°Ĩ": 5490,
      "è¾ĵåĩºç»ĵæŀľ": 5491,
      "lect": 5492,
      "åİĭåĬĽåĴĮ": 5493,
      "ï¼ĮåıĪ": 5494,
      "æŁł": 5495,
      "äººå·¥æĻºèĥ½åľ¨åĮ»çĸĹ": 5496,
      "çļĦé¢ľèī²": 5497,
      "æ²Ļæ»©": 5498,
      "åŁºäºİä»¥ä¸ĭè§Ĵèī²ä¿¡æģ¯": 5499,
      "åĪĹè¡¨ä¸Ń": 5500,
      "éĤĢ": 5501,
      "åŁºäºİä»¥ä¸ĭè§Ĵèī²ä¿¡æģ¯å®ĮæĪĲ": 5502,
      "å°ıåŃ¦": 5503,
      "ç·": 5504,
      "åŁºäºİä»¥ä¸ĭè§Ĵèī²ä¿¡æģ¯å®ĮæĪĲä¸Ģæ®µå¯¹è¯Ŀ": 5505,
      "Ġrem": 5506,
      "æ©Ł": 5507,
      "ption": 5508,
      "çĽ¾": 5509,
      "çĤ¹åĩ»": 5510,
      "æīĢéľĢçļĦ": 5511,
      "åĮħå®¹": 5512,
      "}$": 5513,
      "èĬ±è´¹": 5514,
      "ï¼Įåı¯ä»¥èĢĥèĻĳ": 5515,
      "âĢĿæĪĸ": 5516,
      "æŃ£å¼ı": 5517,
      "æ²Ļæĭī": 5518,
      "ï¼ĮçĶ±": 5519,
      "æµ¸": 5520,
      "åŃĲåĴĮ": 5521,
      "æ³¢åĬ¨": 5522,
      "Ġsc": 5523,
      "ä½łåı¯ä»¥": 5524,
      "åħ³éĹŃ": 5525,
      "Ġspecific": 5526,
      "æª¬": 5527,
      "ï¼Įè®©äºº": 5528,
      "åĪ°çļĦ": 5529,
      "æ¬¡æķ°": 5530,
      "åĪĨç»Ļ": 5531,
      "åĶ¯ä¸Ģ": 5532,
      "åĽŀå½Ĵ": 5533,
      "éĻª": 5534,
      "ars": 5535,
      "å®¢æĪ·çļĦ": 5536,
      "è®¡ç®Ĺæľºè§Ĩè§ī": 5537,
      "å±ŀæĢ§": 5538,
      "èĥ¸": 5539,
      "æ°§æ°Ķ": 5540,
      "çĶŁæĪĲä¸Ģæ®µä»ĸä»¬çļĦå¯¹è¯ĿåĨħå®¹": 5541,
      "Ġdetermine": 5542,
      "ä»ĸä»¬ä¹ĭéĹ´çļĦ": 5543,
      "ä¹Ļ": 5544,
      "è¡¨è¾¾å¼ı": 5545,
      "å·²ç»ıæĪĲä¸º": 5546,
      "right": 5547,
      "è¿Ń": 5548,
      "åĴª": 5549,
      "ç¾İåĳ³çļĦ": 5550,
      "äººéĻħåħ³ç³»": 5551,
      "çĶµåĻ¨": 5552,
      "ï¼Įçī¹åĪ«æĺ¯": 5553,
      "å®ģéĿĻ": 5554,
      "çīĽèĤī": 5555,
      "ãĢĤTom": 5556,
      "æĳĨ": 5557,
      "éĻĦè¿ĳ": 5558,
      "Ġdec": 5559,
      "çģŃ": 5560,
      "æĹ¥å¸¸çĶŁæ´»": 5561,
      "ID": 5562,
      "ĠPro": 5563,
      "Ġarr": 5564,
      "ä¹Łå¾Ī": 5565,
      "ãĢģæĸĩåĮĸ": 5566,
      "è¯·éĹ®": 5567,
      "åģļå¥½": 5568,
      "Ġ\\(\\": 5569,
      "èīºæľ¯å®¶": 5570,
      "Ġrespon": 5571,
      "æľĢåĸľæ¬¢çļĦ": 5572,
      "Ġwould": 5573,
      "å¼Ģå¤´": 5574,
      "æ¸ħæ´Ĺ": 5575,
      "ãĢĤè¿ĻæľīåĬ©äºİ": 5576,
      "ç¦»å¼Ģ": 5577,
      "æµģéĩı": 5578,
      "éģĹäº§": 5579,
      "ç»ĵæŀĦåĴĮ": 5580,
      "çĥŃæĥħ": 5581,
      "ãĢĤå°½ç®¡": 5582,
      "å²©": 5583,
      "æ¨¡åĿĹ": 5584,
      "æ¬º": 5585,
      "çľ¼çĿĽ": 5586,
      "æŁłæª¬": 5587,
      "æ¢°": 5588,
      "ãĢĤè¿Ļå°Ĩ": 5589,
      "ç£¨": 5590,
      "ä¸Ģé¡¹": 5591,
      "å¤ĸè§Ĥ": 5592,
      "è´¸": 5593,
      "èĲ¥éĶĢçŃĸçķ¥": 5594,
      "äºĮæ°§åĮĸç¢³": 5595,
      "æ¦Ĥæĭ¬": 5596,
      "æĭ¼åĨĻ": 5597,
      "ç¬¬äºĮä¸ª": 5598,
      "æĸĩæľ¬ä¸ŃçļĦ": 5599,
      "_d": 5600,
      "ãĢĭï¼Ī": 5601,
      "(n": 5602,
      "æľīæīĢå¸®åĬ©": 5603,
      "å·¥ä½ľæķĪçİĩ": 5604,
      "æĺ¯ä¸Ģæ¬¾": 5605,
      "ï¼ĮæĪĳéľĢè¦ģ": 5606,
      "riend": 5607,
      "Ġany": 5608,
      "ï¼Įå¦Ĥæŀľä½ł": 5609,
      "è£ģ": 5610,
      "çļĦçĭ¬": 5611,
      "æ±¤å§Ĩ": 5612,
      "å¼ĢåıĳèĢħ": 5613,
      "çļĦå¤§": 5614,
      "ince": 5615,
      "çİ¯ä¿ĿæĦıè¯Ĩ": 5616,
      "ides": 5617,
      "éļĲç§ģä¿ĿæĬ¤": 5618,
      "çļĦç³ĸ": 5619,
      "çĮİ": 5620,
      "æ£ĭ": 5621,
      "ï¼Įå¤ļ": 5622,
      "æŀĿ": 5623,
      "åĴĮèµĦæºĲ": 5624,
      "èī¾ç±³": 5625,
      "çĶ¨æĪ·æıĲä¾Ľ": 5626,
      "èįīèİĵ": 5627,
      "å¾ĭå¸Ī": 5628,
      "ä¸Ģéģĵ": 5629,
      "Ġwork": 5630,
      "St": 5631,
      "ype": 5632,
      "æ©Ħ": 5633,
      "åķı": 5634,
      "æıŃ": 5635,
      "ãĢģèĩªçĦ¶è¯Ńè¨Ģå¤ĦçĲĨ": 5636,
      "å¸ĥå±Ģ": 5637,
      "ãĢĤåĮ»çĶŁ": 5638,
      "æ¬²": 5639,
      "çļĦæ´»åĬ¨": 5640,
      "æĬĢæľ¯çļĦåıĳå±ķ": 5641,
      "ìĿ": 5642,
      "æĹ¶éĹ´ç®¡çĲĨ": 5643,
      "æłĩè®°": 5644,
      "çļĦåħ³ç³»": 5645,
      "-b": 5646,
      "ç³Ĭ": 5647,
      "å¹½": 5648,
      "çļĦåĬŁèĥ½": 5649,
      "åºĨç¥Ŀ": 5650,
      "è¿ĳå¹´æĿ¥": 5651,
      "day": 5652,
      "ï¼ĮæĪĲä¸º": 5653,
      "ï¼ĮåıĬæĹ¶": 5654,
      "ç»Ļä½łä¸¤ä¸ª": 5655,
      "åĮĸåĲĪçī©": 5656,
      "æķ°åŃ¦é¢ĺ": 5657,
      "ãĢĤAI": 5658,
      "æĬµ": 5659,
      "æĽ´æľī": 5660,
      "è¾ĥä½İ": 5661,
      "åĽĽä¸ª": 5662,
      "æī«": 5663,
      "ãĢĤè¦ģ": 5664,
      "ãĢģäº¤éĢļ": 5665,
      "æ¼Ĥ": 5666,
      "ä¼ĺè´¨": 5667,
      "ä»Ķç»Ĩ": 5668,
      "æĦīæĤ¦": 5669,
      "æĪĸæľįåĬ¡": 5670,
      "çĽĪ": 5671,
      "å¢¨": 5672,
      "å£ģ": 5673,
      "è°ľ": 5674,
      "}\\)": 5675,
      "å°ºå¯¸": 5676,
      "io": 5677,
      "åħ¬åħ±äº¤éĢļ": 5678,
      "æĻ¨": 5679,
      "çļĦçľĭ": 5680,
      "å¹¶ä¸įæĺ¯": 5681,
      "ian": 5682,
      "åĬĽåŃ¦": 5683,
      "åĪĽæĸ°çļĦ": 5684,
      "éģĹä¼ł": 5685,
      "Ġcol": 5686,
      "ize": 5687,
      "èĬ±åĽŃ": 5688,
      "ï¼Įè°¢è°¢": 5689,
      "æĽ´é«ĺçļĦ": 5690,
      "æı´": 5691,
      "åıĤè§Ĥ": 5692,
      "çĽŁ": 5693,
      "éĸĵ": 5694,
      "åĪĢ": 5695,
      "ï¼ģæĪĳ": 5696,
      "çĸ²åĬ³": 5697,
      "èº«ä½ĵåĴĮ": 5698,
      "æĻ´": 5699,
      "æł·æľ¬": 5700,
      "ug": 5701,
      "ï¼Į`": 5702,
      "æĪĺçķ¥": 5703,
      "CT": 5704,
      "ãĢĤè°¢è°¢": 5705,
      "æ¡Īä»¶": 5706,
      "çĶ¨éĢĶ": 5707,
      "åĨĻä¸Ģä¸ª": 5708,
      "å§ĭç»Ī": 5709,
      "è£Ĥ": 5710,
      "ï¼Įä½łèĥ½": 5711,
      "ãĤĴ": 5712,
      "å¹´è½»äºº": 5713,
      "æ¦Ħ": 5714,
      "ï¼Įè¿ĺæľī": 5715,
      "åģ¥åº·åĴĮ": 5716,
      "âĦ": 5717,
      "sort": 5718,
      "æĹĭå¾ĭ": 5719,
      "ç¥ŀç§ĺçļĦ": 5720,
      "æ©Ħæ¦Ħ": 5721,
      "ä¸»è§Ĵ": 5722,
      "é¡Į": 5723,
      "ï¼Įç§ĳæĬĢ": 5724,
      "å¸¸çĶ¨çļĦ": 5725,
      "Ġthere": 5726,
      "çļĦè¯Ŀ": 5727,
      "Ġco": 5728,
      "åĪ¶åº¦": 5729,
      "éĻĪè¿°": 5730,
      "åĵºä¹³åĬ¨çī©": 5731,
      "å®ŀéĻħåºĶçĶ¨": 5732,
      "æľĢé«ĺ": 5733,
      "\\nå¦Ĥæŀľ": 5734,
      "Ġsec": 5735,
      "æľºéģĩ": 5736,
      "æ³ķå¾ĭæ³ķè§Ħ": 5737,
      "ä»ĭç»įäºĨ": 5738,
      "\\[\\": 5739,
      "lic": 5740,
      "çĶŁæĪĲä¸Ģç¯ĩ": 5741,
      "fore": 5742,
      "çĮª": 5743,
      "å¤Ħäºİ": 5744,
      "né¦ĸåħĪ": 5745,
      "åĴĮæ°´": 5746,
      "Ġshe": 5747,
      "è°¨": 5748,
      "ï¼Ľ\\": 5749,
      "nprint": 5750,
      "ä¼Ĭ": 5751,
      "çļĦçī¹çĤ¹": 5752,
      "æ»´": 5753,
      "åįıåĬ©": 5754,
      "Ġwhere": 5755,
      "æĤ¨åľ¨": 5756,
      "æĸľ": 5757,
      "è¯Ńå¢ĥ": 5758,
      "èĩªçĦ¶çģ¾å®³": 5759,
      "ution": 5760,
      "æ¯ıä¸Ģä¸ª": 5761,
      "ç¨®": 5762,
      "ç§ĳæĻ®": 5763,
      "çªģåĩº": 5764,
      "è¾£æ¤Ĵ": 5765,
      "å¥½å¤Ħ": 5766,
      "vel": 5767,
      "æĵħ": 5768,
      "è¿Ľç¨ĭ": 5769,
      "çĻ¼": 5770,
      "å¾Īå¤§çļĦ": 5771,
      "åľŁåľ°": 5772,
      "åĲĮåŃ¦": 5773,
      "ix": 5774,
      "ä¸ĸçķĮçļĦ": 5775,
      "åıĸå¾ĹäºĨ": 5776,
      "ä¹Łåľ¨": 5777,
      "åĬĽäºİ": 5778,
      "çļĦä»£çłģ": 5779,
      "èĪĴéĢĤçļĦ": 5780,
      "ä¹Ĳè¶£": 5781,
      "ï¼ĮéĻįä½İ": 5782,
      "ä¸ĭåįĪ": 5783,
      "ä¸įå¤ª": 5784,
      "éĿŀå¸¸å¥½": 5785,
      "ä¿ĿåŃĺ": 5786,
      "èº«ä½ĵçļĦ": 5787,
      "åį°åº¦": 5788,
      "è¿Ļé¦ĸ": 5789,
      "çļĦç¨³": 5790,
      "æľīæľº": 5791,
      "çķĮéĿ¢": 5792,
      "åº¦è¿ĩ": 5793,
      "å¯¿åĳ½": 5794,
      "åĴĮçĽ®æłĩ": 5795,
      "åħįè´¹": 5796,
      "åį§": 5797,
      "æĮĩå®ļ": 5798,
      "åĴĮå¹³": 5799,
      "ä¿ĿçķĻ": 5800,
      "orld": 5801,
      "ï¼Įæī¾åĪ°": 5802,
      "è¿ĩæ»¤": 5803,
      "èģĮåľº": 5804,
      "ç»Ļä½łä¸¤ä¸ªè§Ĵèī²ä¿¡æģ¯": 5805,
      "åĢ¾åĲĳ": 5806,
      "åĢ¾åĲ¬": 5807,
      "ç»Ļä½łä¸¤ä¸ªè§Ĵèī²ä¿¡æģ¯å¦Ĥä¸ĭ": 5808,
      "æ³Ħéľ²": 5809,
      "å²¸": 5810,
      "å¾Īå¤§": 5811,
      "æ®ĭ": 5812,
      "å¦Ĥä½ķå½±åĵį": 5813,
      "é£ŀæľº": 5814,
      "ç¢º": 5815,
      "ä¼Ł": 5816,
      "éĢļçŁ¥": 5817,
      "çŃīä¿¡æģ¯": 5818,
      "æĴĳ": 5819,
      "Ġæķ°æį®": 5820,
      "Ġusing": 5821,
      "åĪĻæĺ¯": 5822,
      "å§ĵåĲį": 5823,
      "ä¸įéľĢè¦ģ": 5824,
      "éĵº": 5825,
      "é©±åĬ¨": 5826,
      "æĦıå¤§åĪ©éĿ¢": 5827,
      "è¾ĥé«ĺ": 5828,
      "Ġher": 5829,
      "å¼¦": 5830,
      "èĥ¡æ¤Ĵ": 5831,
      "ãĢĤæĪĳä»¬éľĢè¦ģ": 5832,
      "ï¼ŁA": 5833,
      "æĿ¥çļĦ": 5834,
      "ä½łå¯¹": 5835,
      "ãĢģåĮ»çĸĹ": 5836,
      "ose": 5837,
      "è¿«": 5838,
      "ople": 5839,
      "ä»¥ä¸ĭåı¥åŃĲ": 5840,
      "åĮºåĿĹéĵ¾æĬĢæľ¯": 5841,
      "åĬ¨çĶ»": 5842,
      "åĪļåĪļ": 5843,
      "åı¯éĿłæĢ§": 5844,
      "çļĦæ°´": 5845,
      "ï¼Įç»Ļ": 5846,
      "åĽ¾ä¹¦": 5847,
      "å¦Ĩ": 5848,
      "åĪĿåŃ¦èĢħ": 5849,
      "éĤ£éĩĮ": 5850,
      "Ġdiffer": 5851,
      "é¸Ń": 5852,
      "æİ¨åĩº": 5853,
      "éĢĶå¾Ħ": 5854,
      "éģŃ": 5855,
      "Ġ$$\\": 5856,
      "ows": 5857,
      "åĪĨç±»ä¸º": 5858,
      "æİ¨èįĲä¸ĢäºĽ": 5859,
      "æł¹æį®èĩªå·±çļĦ": 5860,
      "ï¼ĮæĹłæ³ķ": 5861,
      "çļĦè¯Ńè¨Ģ": 5862,
      "ä½ĵç§¯": 5863,
      "Ġz": 5864,
      "Ġbec": 5865,
      "Ġä¸ª": 5866,
      "çĶŁæĪĲä»ĸä»¬ä¹ĭéĹ´çļĦ": 5867,
      "å¯¹è¯ĿåĨħå®¹è¯¦ç»Ĩ": 5868,
      "çĶŁæĪĲä»ĸä»¬ä¹ĭéĹ´çļĦä¸Ģæ®µå¯¹è¯Ŀ": 5869,
      "ä¿¡æģ¯åĴĮ": 5870,
      "çļĦåŃ¦ä¹ł": 5871,
      "ï¼Įè¦ģæ±Ĥå¯¹è¯ĿåĨħå®¹è¯¦ç»Ĩ": 5872,
      "ï¼Įè¦ģæ±Ĥå¯¹è¯ĿåĨħå®¹è¯¦ç»Ĩä¸°å¯Į": 5873,
      "èĢĲå¿ĥ": 5874,
      "åĽŀæĬ¥": 5875,
      "ï¼Įåį³ä½¿": 5876,
      "ï¼ļéĤ£": 5877,
      "cdot": 5878,
      "çļĦçľĭæ³ķ": 5879,
      "Ġsuch": 5880,
      "æħİ": 5881,
      "Ġstring": 5882,
      "çļĩ": 5883,
      "çĽ¸æ¯Ķ": 5884,
      "éħª": 5885,
      "åįľ": 5886,
      "éĥ½åľ¨": 5887,
      "ines": 5888,
      "åı¯ä»¥ä»İ": 5889,
      "è§Ĥçľĭ": 5890,
      "impl": 5891,
      "æľīçĤ¹": 5892,
      "Ġrel": 5893,
      "è¯ĦåĪĨ": 5894,
      "èĩ´åĬĽäºİ": 5895,
      "åĳ¨æľ«": 5896,
      "ä¼¯": 5897,
      "çī©èģĶç½ĳ": 5898,
      "ï¼Įä¸¦": 5899,
      "ç¢Ĺ": 5900,
      "é»ĳèī²": 5901,
      "åłµ": 5902,
      "æĴĴ": 5903,
      "ç»Ļåĩºä¸Ģä¸ª": 5904,
      "ä¼łæī¿": 5905,
      "é²ģ": 5906,
      "è±ĨèħĲ": 5907,
      "æĮĤ": 5908,
      "âĦĥ": 5909,
      "çº¿æĢ§": 5910,
      "ĠåĪ¶å®ļ": 5911,
      "éĢĬ": 5912,
      "åĩºåıĳ": 5913,
      "åĬłçĥŃ": 5914,
      "äººæķ°": 5915,
      "Ġchar": 5916,
      "ãĢĤæ¯ı": 5917,
      "æľīçĶ¨çļĦ": 5918,
      "ana": 5919,
      "çķ¶": 5920,
      "æĶ¯åĩº": 5921,
      "åĴĮåĪĽæĸ°": 5922,
      "èĬĴ": 5923,
      "ĽçĽ¾": 5924,
      "ery": 5925,
      "æ¸©å®¤æ°Ķä½ĵ": 5926,
      "çļĦå¸®åĬ©": 5927,
      "ä»ĭç»įä¸Ģä¸ĭ": 5928,
      "è´¸æĺĵ": 5929,
      "åĪĽéĢłåĩº": 5930,
      "éĤĢè¯·": 5931,
      "å®¿": 5932,
      "æĥħæĦŁåĴĮ": 5933,
      "è¿Ľè¡ĮäºĨ": 5934,
      "ï¼ļ<|": 5935,
      "å¿ĹæĦ¿": 5936,
      "çĸ¼": 5937,
      "ï¼Įåı¯ä»¥åľ¨": 5938,
      "ä¸Ģä»¶": 5939,
      "Ð¾Ð": 5940,
      "æĢª": 5941,
      "æĭĸ": 5942,
      "æī¿æĭħ": 5943,
      "æĻĴ": 5944,
      "åįĩçº§": 5945,
      "èĺ": 5946,
      "çļĦåŁİå¸Ĥ": 5947,
      "å¹¿æ³ĽåºĶçĶ¨": 5948,
      "ç¯®çĲĥ": 5949,
      "çļĦçĬ¶æĢģ": 5950,
      "çļĦç¨³å®ļ": 5951,
      "å¤§æķ°æį®": 5952,
      ")^": 5953,
      "\\boxed": 5954,
      "Ġlanguage": 5955,
      "ĠĠĠĠĠĠĠĠĠĠĠ": 5956,
      "Ġpar": 5957,
      "log": 5958,
      "ï¼Įå½±åĵį": 5959,
      "verage": 5960,
      "æĪª": 5961,
      "å¼ķåħ¥": 5962,
      "ä¹Łåı¯èĥ½": 5963,
      "çĩĥæĸĻ": 5964,
      "æķ´çĲĨ": 5965,
      "åı¯ä»¥åĩıå°ĳ": 5966,
      "çĳŀ": 5967,
      "çĩ¥": 5968,
      "Ġuser": 5969,
      "å®¢æĪ·æľįåĬ¡": 5970,
      "Ġother": 5971,
      "èĸª": 5972,
      "åı¯ä»¥å°Ĩ": 5973,
      "éģįåİĨ": 5974,
      "è§£éĩĬä¸Ģä¸ĭ": 5975,
      "æ°´ä¸Ń": 5976,
      "æĭĶ": 5977,
      "æĻ¯è§Ĥ": 5978,
      "è³ĩ": 5979,
      "Ġposs": 5980,
      "å¤§è§Ħæ¨¡": 5981,
      "ï¼ļA": 5982,
      "ãĢĤMOSS": 5983,
      "è®¾è®¡ä¸Ģä¸ª": 5984,
      "éĢīæĭ©ä¸Ģä¸ª": 5985,
      "å®¡æŁ¥": 5986,
      "æĿĥçĽĬ": 5987,
      "blem": 5988,
      "Ġ---": 5989,
      "\\nB": 5990,
      "æ°¢": 5991,
      "ï¼Įè®²è¿°": 5992,
      "çİ©åħ·": 5993,
      "ãĢĭï¼Į": 5994,
      "ä¹Ŀ": 5995,
      "æĮĸæİĺ": 5996,
      "ç¿»è¯ĳæĪĲä¸Ńæĸĩ": 5997,
      "ï¼Įå¹¶ä¸º": 5998,
      "ï¼ļæł¹æį®": 5999,
      "åĹ¯": 6000,
      "æĥľ": 6001,
      "æĽ´å¥½åľ°ç®¡çĲĨ": 6002,
      "è§Ĩè§Ĵ": 6003,
      "çĨŁæĤī": 6004,
      "ï¼ĮAIæĬĢæľ¯": 6005,
      "Ġpoint": 6006,
      "æ°ĳæĹı": 6007,
      "åľĭ": 6008,
      "éĶħä¸Ń": 6009,
      "çĻ½èī²": 6010,
      "çĥ¤ç®±": 6011,
      "çļĦçĻ": 6012,
      "input": 6013,
      "ç«ŀäºīå¯¹æīĭ": 6014,
      "è¡Įé©¶": 6015,
      "Ġë": 6016,
      "åŃĲéĩĮ": 6017,
      "åİŁåŃĲ": 6018,
      "è´«": 6019,
      "ä¸įåĨį": 6020,
      "Ġlet": 6021,
      "æĪĲçĨŁ": 6022,
      "ä¼ļåľ¨": 6023,
      "æĶ¾å¼ĥ": 6024,
      "èİ«": 6025,
      "Wh": 6026,
      "åĪ¶åĵģ": 6027,
      "åĨ·éĿĻ": 6028,
      "ï¼ĮæĪĳå¾Ī": 6029,
      "æĥħæĦŁåĪĨæŀĲ": 6030,
      "Ġdata": 6031,
      "çĮ«åĴª": 6032,
      "Ġtext": 6033,
      "æĺ¯ä¸Ģé¡¹": 6034,
      "'m": 6035,
      "èĥĥ": 6036,
      "å®¶åºŃæĪĲåĳĺ": 6037,
      "éĢļå¸¸æĺ¯": 6038,
      "pi": 6039,
      "åı¯ä»¥å¸®åĬ©åĮ»çĶŁ": 6040,
      "Ġä½łå¥½": 6041,
      "å½ĵä»Ĭ": 6042,
      ".g": 6043,
      "ood": 6044,
      "ï¼ļé¦ĸåħĪ": 6045,
      "åıĸåĩº": 6046,
      "çĶµåĬ¨": 6047,
      "éľľ": 6048,
      "ä¸įèī¯": 6049,
      "éĩįè¦ģçļĦæĺ¯": 6050,
      "ets": 6051,
      "ä¼ĳéĹ²": 6052,
      "ä¸Ńæľī": 6053,
      "æĦıå¤ĸ": 6054,
      "ä¸»åĬ¨": 6055,
      "ãĢģæıĲé«ĺ": 6056,
      "è¾ĥä¸º": 6057,
      "ãĢĤä»¥ä¸ĭæĺ¯ä¸Ģä¸ª": 6058,
      "\\nä½łæľĢè¿ĳ": 6059,
      "rit": 6060,
      "çİ¯å¢ĥåĴĮ": 6061,
      "åľ°çļĦ": 6062,
      "é¢Ī": 6063,
      "å¼Ģå¿ĥ": 6064,
      ":-": 6065,
      "ãĢĤâĢľ": 6066,
      "ï¼Įè¡¨ç¤º": 6067,
      "çļĦç¾İå¥½": 6068,
      "ï¼Įåıĳçİ°": 6069,
      "åľ°çĲĨ": 6070,
      "//": 6071,
      "ä¸Ģæľ¬": 6072,
      "Ġquestion": 6073,
      "ï¼Łå¦Ĥæŀľ": 6074,
      "å°ıåŀĭ": 6075,
      "äºīè®®": 6076,
      "é¦¨": 6077,
      "éī": 6078,
      "\\näººå·¥æĻºèĥ½": 6079,
      "æĮº": 6080,
      "AIåĬ©æīĭ": 6081,
      "å©´": 6082,
      "ä¼ĺç§ĢçļĦ": 6083,
      "åº¦åģĩ": 6084,
      "IT": 6085,
      "èĨľ": 6086,
      "åĴĮæľĭåıĭ": 6087,
      "ä¼ļå½±åĵį": 6088,
      "ä¸Ģåľº": 6089,
      "çļĦç¨ĭåºı": 6090,
      "çº¦ä¸º": 6091,
      "è¿Ľè¡Įè°ĥæķ´": 6092,
      "åİĤ": 6093,
      "æ¤ħ": 6094,
      "æ¡ĥ": 6095,
      "çĽ¸åĲĮçļĦ": 6096,
      "Ġå»ºç«ĭ": 6097,
      "å²Ĺ": 6098,
      "äººå·¥æĻºèĥ½æĬĢæľ¯çļĦ": 6099,
      "æ¥ļ": 6100,
      "æķĻèĤ²åĴĮ": 6101,
      "æ»ļ": 6102,
      "åĽŀå¤į": 6103,
      "Ġname": 6104,
      "æĤ¨åı¯ä»¥": 6105,
      "ï¼Įå®ĥçļĦ": 6106,
      "ild": 6107,
      "åı¹": 6108,
      "æĽ¼": 6109,
      "Google": 6110,
      "åıł": 6111,
      "å¤©çĦ¶": 6112,
      "åıī": 6113,
      "èĲĿåįľ": 6114,
      "ock": 6115,
      "dd": 6116,
      "å¦Īå¦Ī": 6117,
      "åĬłåī§": 6118,
      "Ġfact": 6119,
      "è®¯": 6120,
      "æ¢¯": 6121,
      "</": 6122,
      "æ´»åĬ¨çļĦ": 6123,
      "çļĦçĹħ": 6124,
      "ï¼ļä¸Ģä¸ª": 6125,
      "å±ķå¼Ģ": 6126,
      "æĸ°éĹ»æĬ¥éģĵ": 6127,
      "æŃ»äº¡": 6128,
      "åºĦ": 6129,
      "è®¢åįķ": 6130,
      "é¥®é£Łä¹łæĥ¯": 6131,
      "éĿ©åĳ½": 6132,
      "ç»ĺçĶ»": 6133,
      "èĬĤçľģ": 6134,
      "æĹ¦": 6135,
      "èŀįåħ¥": 6136,
      "æĺ¯ä¸ĢäºĽ": 6137,
      "è¼": 6138,
      "è¯Ī": 6139,
      "æĤ£èĢħçļĦ": 6140,
      "ĨĴ": 6141,
      "Ġinter": 6142,
      "è¡¥åħħ": 6143,
      "ç¡¬ä»¶": 6144,
      "çļĦç«ŀ": 6145,
      "éī´": 6146,
      "ç®Ģè¦ģ": 6147,
      "çļĦä¸ĸçķĮ": 6148,
      "äººåĲį": 6149,
      "éĴ¥": 6150,
      "çĽ¸åıį": 6151,
      "æĵįä½ľç³»ç»Ł": 6152,
      "ĠFinal": 6153,
      "åı¯éĿłçļĦ": 6154,
      "è±ª": 6155,
      "Ġdog": 6156,
      "ä¸Ńä½¿çĶ¨": 6157,
      "æĭĵå±ķ": 6158,
      "æĹħç¨ĭ": 6159,
      "åģ¶æķ°": 6160,
      "Ġday": 6161,
      ".ãĢĬ": 6162,
      "è®¾è®¡åĴĮ": 6163,
      "ãĢĤãĢĬ": 6164,
      "lex": 6165,
      "è¿Ł": 6166,
      "ï¼Įä»¥å¸®åĬ©": 6167,
      "ĠPlease": 6168,
      "DNA": 6169,
      "ä¸ĵéĹ¨": 6170,
      "Ġinclud": 6171,
      "å°ĺ": 6172,
      "æĦŁæĥħ": 6173,
      "åŃ¦çĶŁçļĦåŃ¦ä¹ł": 6174,
      "åĪĨæķ£": 6175,
      "ï¼Įè®¡ç®Ĺ": 6176,
      "ons": 6177,
      "Ġcode": 6178,
      "è¿ŀç»Ń": 6179,
      "Ġused": 6180,
      "ç§¯ç´¯": 6181,
      "ï¼ģä½ł": 6182,
      "äº¤æį¢": 6183,
      "çĲĨæĥ³": 6184,
      "åĽ¾å½¢": 6185,
      "åĮħè£ħ": 6186,
      "Ġmat": 6187,
      "ems": 6188,
      "å¾Ĵ": 6189,
      "ï¼Įè¿Ļå°Ĩ": 6190,
      "æľ¯è¯Ń": 6191,
      "ãĢģåĩıå°ĳ": 6192,
      "{\\": 6193,
      "å¤§å¤ļæķ°": 6194,
      "ï¼ĪC": 6195,
      "åı¯è§Ĩ": 6196,
      "æİ¥è¿ĳ": 6197,
      "æĥ§": 6198,
      "èĦĨ": 6199,
      "åĪĿå§ĭ": 6200,
      "éĽĨåĲĪ": 6201,
      "äºĳè®¡ç®Ĺ": 6202,
      "æĺ¯æľĢ": 6203,
      "éĹľ": 6204,
      "å®Įç¾İ": 6205,
      "æĹĭè½¬": 6206,
      "ï¼Įä»ĸçļĦ": 6207,
      "æģĴæĺŁ": 6208,
      "çĶŁåĬ¨": 6209,
      "çĽ®æłĩåĴĮ": 6210,
      ")```": 6211,
      "iginal": 6212,
      "æĽ´æ·±åħ¥": 6213,
      "çħİ": 6214,
      "éĵ¾æİ¥": 6215,
      "è¯ķè¯ķ": 6216,
      "ãĢĤè¯·æıĲä¾Ľ": 6217,
      "æĽ´æį¢": 6218,
      "è¿Ńä»£": 6219,
      "ÙĦ": 6220,
      "æ¢ħ": 6221,
      "çĸ¾çĹħçļĦ": 6222,
      "ç®ĢåĮĸ": 6223,
      "ç¨³å®ļæĢ§": 6224,
      "ä¸Ģå¼ł": 6225,
      "æĸ¹æ³ķæĿ¥": 6226,
      "æĽ´æĶ¹": 6227,
      "æĮĩç¤º": 6228,
      "çĽĹ": 6229,
      "å®īåħ¨çļĦ": 6230,
      "å§¿åĬ¿": 6231,
      "æĵħéķ¿": 6232,
      "çļĦéķ¿åº¦": 6233,
      "éĩıåŃĲè®¡ç®Ĺ": 6234,
      "fter": 6235,
      "Ġstart": 6236,
      "ãĢĤçĶŁæĪĲä¸Ģæ®µä»ĸä»¬çļĦå¯¹è¯ĿåĨħå®¹": 6237,
      "ãģĹ": 6238,
      "éĩĩåıĸè¡ĮåĬ¨": 6239,
      "Ġcontain": 6240,
      "âĢĻs": 6241,
      "å·¥ä½ľåĴĮ": 6242,
      "ä¸ĢçĽ´åľ¨": 6243,
      "Ġ\\]\\": 6244,
      "ãĢĤè¿Ļç¯ĩæĸĩç«ł": 6245,
      "æī¾åĪ°äºĨ": 6246,
      "æĿİæĺİ": 6247,
      "è«": 6248,
      "ï¼Įå¹¶ç¡®ä¿Ŀ": 6249,
      "ä¼ļæľī": 6250,
      "åį«æĺŁ": 6251,
      "ures": 6252,
      "åģļæ³ķ": 6253,
      "èı²": 6254,
      "çĶŁæĪĲçļĦ": 6255,
      "æ©Ħæ¦Ħæ²¹": 6256,
      "åĭĴ": 6257,
      "éĢĨ": 6258,
      "åĲĪéĢĤ": 6259,
      "ï¼Įæ¯ıä¸ªäºº": 6260,
      "Ġvari": 6261,
      "èĩªçĦ¶çļĦ": 6262,
      "Ġwhen": 6263,
      "Ġfriend": 6264,
      "æĭĤ": 6265,
      "èĬ³": 6266,
      "æķ°åŃĹçļĦ": 6267,
      "ç»Ļå®ļä¸Ģä¸ª": 6268,
      "åĽºå®ļ": 6269,
      "å®ļå¾ĭ": 6270,
      "Ġdef": 6271,
      "åłĨ": 6272,
      "çĶ¨åĵģ": 6273,
      "èİ·å¾ĹäºĨ": 6274,
      "çļĦçľ¼": 6275,
      "æº¶": 6276,
      "å¯Ĩåº¦": 6277,
      "å¼ºå¤§": 6278,
      "æıĲä¾ĽæĽ´å¥½çļĦ": 6279,
      "æĹ¥çĽĬ": 6280,
      "return": 6281,
      "çĮľ": 6282,
      "ular": 6283,
      "åı¤åħ¸": 6284,
      "å¥ĳ": 6285,
      "é»ĳæļĹ": 6286,
      "å±ķçİ°äºĨ": 6287,
      "æĺ¯äººç±»": 6288,
      "çľĭå¾ħ": 6289,
      "ç®Ĺæ³ķçļĦ": 6290,
      "ãĢĤæľĢç»Ī": 6291,
      "æĪĸç¼º": 6292,
      "çļĦæĸĩåĮĸ": 6293,
      "çİ»": 6294,
      "é¸Łç±»": 6295,
      "ash": 6296,
      "å°±åı¯ä»¥": 6297,
      "éŃħåĬĽ": 6298,
      "ics": 6299,
      "èıĩ": 6300,
      "ï¼Įåıªæľī": 6301,
      "åħ´å¥ĭ": 6302,
      "æĻ¶": 6303,
      "åĩºçĶŁ": 6304,
      "æĪ¿å±ĭ": 6305,
      "æĬĵ": 6306,
      "å®īéĿĻ": 6307,
      "åı«åģļ": 6308,
      "æĶ¾ç½®": 6309,
      "ä¸Ģå¹´": 6310,
      "æľĪçĲĥ": 6311,
      "åĴĮå¤ĦçĲĨ": 6312,
      "ï¼Įè¿ĺåı¯ä»¥": 6313,
      "ä¼łç»ŁæĸĩåĮĸ": 6314,
      "å¤ĩä»½": 6315,
      "æľºåĻ¨ç¿»è¯ĳ": 6316,
      "çļĦæľįåĬ¡": 6317,
      "çĽ¸äºĴä½ľçĶ¨": 6318,
      "å©ļç¤¼": 6319,
      "åĪĽæĸ°åĴĮ": 6320,
      "Ġä½ł": 6321,
      "éĩİçĶŁåĬ¨çī©": 6322,
      "rite": 6323,
      "ĠX": 6324,
      "çŃĽéĢī": 6325,
      "mat": 6326,
      "olog": 6327,
      "æİ¨è¿Ľ": 6328,
      "ever": 6329,
      "æ°Ķæģ¯": 6330,
      "æĬĢæľ¯æĿ¥": 6331,
      "æĿĲè´¨": 6332,
      "ï¼ļãĢĬ": 6333,
      "ï¼ĮæĪĳæĺ¯": 6334,
      "èµ·æºĲ": 6335,
      "é¢Ĺç³ĸæŀľ": 6336,
      "å¯Įæľī": 6337,
      "åİ»äºĨ": 6338,
      "åı¯èĥ½åľ¨": 6339,
      "ãĢĮ": 6340,
      "æ¸©é¦¨": 6341,
      "åĪĽéĢłä¸Ģä¸ª": 6342,
      "å·¥ä½ľä¸Ń": 6343,
      "ä¼ģä¸ļçļĦ": 6344,
      "åĴĮé«ĺ": 6345,
      "çļĦç½ĳç«Ļ": 6346,
      "éĥ¨ç½²": 6347,
      "low": 6348,
      "èĴĻ": 6349,
      "å°±ä¼ļ": 6350,
      "æľīå®³": 6351,
      "ause": 6352,
      "ï¼Įä¸ºäºĨ": 6353,
      "åŃĶ": 6354,
      "åħ±åĲĮåĬªåĬĽ": 6355,
      "\\nä½łæĺ¯": 6356,
      "HT": 6357,
      "å»ºè®®åĲĹ": 6358,
      "å±ķç¤ºäºĨ": 6359,
      "ï¼Į\"": 6360,
      "åī§æĥħ": 6361,
      "Ġcount": 6362,
      "ĠFor": 6363,
      "ãĢį": 6364,
      "æĺ¨å¤©": 6365,
      "åŃ©åŃĲçļĦ": 6366,
      "Ġthen": 6367,
      "Ġthese": 6368,
      "åī©ä½Ļ": 6369,
      "ä¸ĢåĢĭ": 6370,
      "ween": 6371,
      "å¹´äºº": 6372,
      "éĩĮæľī": 6373,
      "ä¸ĢæĿ¯": 6374,
      "Ġtask": 6375,
      "æĪĸä¸į": 6376,
      "è®°å¾Ĺ": 6377,
      "æĬĢè¡ĵ": 6378,
      "åħ³èģĶ": 6379,
      "Ġä¸Ń": 6380,
      "ãĢĤäººä»¬": 6381,
      "åĴĮç»´æĬ¤": 6382,
      "èħ»": 6383,
      "Tr": 6384,
      "ĠWh": 6385,
      "çĶ·åŃ©": 6386,
      "ç¬Ķè®°": 6387,
      "çİ¯ä¿ĿçļĦæĸĩç«ł": 6388,
      "ä¸Ģéĥ¨": 6389,
      "ãĢĤéľĢè¦ģæ³¨æĦıçļĦæĺ¯": 6390,
      "è¿ģ": 6391,
      "çŃīå¤ļç§į": 6392,
      "çļĦé«ĺ": 6393,
      "Ġwant": 6394,
      "å¹¿éĺĶ": 6395,
      "æ¶ĪéĻ¤": 6396,
      "è¿Ľåº¦": 6397,
      "åĸ·": 6398,
      "åħĥç´łçļĦ": 6399,
      "ç´§å¯Ĩ": 6400,
      "ãĢĤS": 6401,
      "åĴĮå°ı": 6402,
      "ï¼ļè¿Ļä¸ª": 6403,
      "åĬ¨æľº": 6404,
      "é¢Ħè®¢": 6405,
      "åĴĮåģ¥åº·": 6406,
      "èĭ±éĽĦ": 6407,
      "çļĦæķĪæŀľ": 6408,
      "æ²³æµģ": 6409,
      "ï¼ĮæľĢåĲİ": 6410,
      "åľ°åĽ¾": 6411,
      "Ġå¥½çļĦ": 6412,
      "ä½ĵçİ°äºĨ": 6413,
      "å¯¹æ¯Ķ": 6414,
      "åĪĨåĪ°": 6415,
      "åĿĽ": 6416,
      "åľ°éĿ¢": 6417,
      "æ¸ħçĲĨ": 6418,
      "çļĦç¡": 6419,
      "èĤīç±»": 6420,
      "à¹": 6421,
      "å®¶éķ¿": 6422,
      "ï¼ĮèĢĮéĿŀ": 6423,
      "éĤ£ä¸ª": 6424,
      "AR": 6425,
      "å¦ĩ": 6426,
      "What": 6427,
      "æĽ´é«ĺ": 6428,
      "ãģ¾": 6429,
      "åĲİæŀľ": 6430,
      "åĭ¤": 6431,
      "å°Ĩåľ¨": 6432,
      "ator": 6433,
      "èĢģæĿ¿": 6434,
      "ä»»åĬ¡çļĦ": 6435,
      "ings": 6436,
      "çļĦæľªæĿ¥": 6437,
      "éĽķ": 6438,
      "çĶ»éĿ¢": 6439,
      "çĴĥ": 6440,
      "ä¸ĵä¸ļäººå£«": 6441,
      "ç«ŀäºīåĬĽ": 6442,
      "éĥ½åı¯ä»¥": 6443,
      "næĢ»ä¹ĭ": 6444,
      "ĠEx": 6445,
      "ï¼ĮåĲ¸å¼ķ": 6446,
      "éļ¾åº¦": 6447,
      "ç¼ĸçłģ": 6448,
      "åĲĮæĦı": 6449,
      "Ġpeople": 6450,
      "Ġmult": 6451,
      "ber": 6452,
      "è´Łæĭħ": 6453,
      "æĲľç´¢å¼ķæĵİ": 6454,
      "çĪ¸": 6455,
      "ï¼ĮåĮħæĭ¬ä½Ĩä¸įéĻĲäºİ": 6456,
      "\\nå¥½çļĦ": 6457,
      "æİ¢è®¨äºĨ": 6458,
      "ï¼ĮæĶ¿åºľ": 6459,
      "ãĢĤä½ľä¸º": 6460,
      "çļĦæĦŁè§ī": 6461,
      "å½¢æĢģ": 6462,
      "æ´»åĬĽ": 6463,
      "å¥½å¥ĩ": 6464,
      "çļĦåŃĺåľ¨": 6465,
      "çļĦçķ": 6466,
      "ãĢĤåıªæľī": 6467,
      "æ¥Ń": 6468,
      "Ġè®¡ç®Ĺ": 6469,
      "Ġour": 6470,
      "è¯¸": 6471,
      "ï¼Įä¸ĭéĿ¢": 6472,
      "çļĦæķ°åŃĹ": 6473,
      "API": 6474,
      "ãĢĤä¸ĢäºĽ": 6475,
      "æĺ¯ä¸ºäºĨ": 6476,
      "ä¹Ķ": 6477,
      "æķ°æĺ¯": 6478,
      "ï¼ĮåĲĳ": 6479,
      "æĸĩæľ¬åĨħå®¹": 6480,
      "ï¼ĮæľĢè¿ĳ": 6481,
      "åĩ¡": 6482,
      "é³": 6483,
      "ãĢĤåĽłä¸º": 6484,
      "æĴŀ": 6485,
      "pro": 6486,
      "JavaScript": 6487,
      "æľĢéĢĤåĲĪ": 6488,
      "å°½å¿«": 6489,
      "éĺĲ": 6490,
      "ically": 6491,
      "è¿ĻäºĽéĹ®é¢ĺ": 6492,
      ".com": 6493,
      "çļĦåħī": 6494,
      "Ġwho": 6495,
      "ences": 6496,
      "åħħçĶµ": 6497,
      ".,": 6498,
      "èŃ¦å¯Ł": 6499,
      "åıįæĺłäºĨ": 6500,
      "Ph": 6501,
      "åĪ¶æĪĲ": 6502,
      "ucy": 6503,
      "è´·æ¬¾": 6504,
      "æ¸ħæĸ°": 6505,
      "åı¥åŃĲä¸Ń": 6506,
      "æĹ©æľŁ": 6507,
      "Ġalso": 6508,
      "ew": 6509,
      "very": 6510,
      "ï¼Įä»¥éģ¿åħį": 6511,
      "åįģå¹´": 6512,
      "æľĢå¥½": 6513,
      "æķĮ": 6514,
      "ä»£è°¢": 6515,
      "ï¼ĮæľºåĻ¨åŃ¦ä¹ł": 6516,
      "è®¤åı¯": 6517,
      "å¼Ģå±ķ": 6518,
      "ï¼ĮæĦŁè§ī": 6519,
      "çľĭåĪ°äºĨ": 6520,
      "ç¢ĳ": 6521,
      "åĽŀåĪ°": 6522,
      "çĲĥåĳĺ": 6523,
      "ãģ«": 6524,
      "æī¿åıĹ": 6525,
      "æĽ´åĩĨç¡®åľ°": 6526,
      "è§£æŀĲ": 6527,
      "ï¼Įä½Ĩå®ĥ": 6528,
      "ï¼ĮåĪ©çĶ¨": 6529,
      "è¨Ī": 6530,
      "ãĢĤè¿ĻåĮħæĭ¬": 6531,
      "ï¼ĮæĪĳè®¤ä¸º": 6532,
      "ä¸įåı¯æĪĸç¼º": 6533,
      "ï¼Įä¸ŃåĽ½": 6534,
      "æĽ´å¤§çļĦ": 6535,
      "ï¼ĮæĹ¢": 6536,
      "\\nD": 6537,
      "äºĨå¾Īå¤ļ": 6538,
      "ï¼Įä»¥ä¸ĭæĺ¯æĪĳ": 6539,
      "ï¼Łå°ı": 6540,
      "å®ŀéĻħæĥħåĨµ": 6541,
      "çļĦç³»": 6542,
      "ãĢĤæľī": 6543,
      "çļĦç«ŀäºī": 6544,
      "éŁ§": 6545,
      "æ³Ĭ": 6546,
      "é¢Ŀå¤ĸçļĦ": 6547,
      "ãĢģä½¿çĶ¨": 6548,
      "çªģçł´": 6549,
      "æİ¥ç§į": 6550,
      "éĿ¢ä¸´çĿĢ": 6551,
      "çİ¯å¢ĥéĹ®é¢ĺ": 6552,
      "elf": 6553,
      "ä¸İäººç±»": 6554,
      "åħ¶ä»ĸçļĦ": 6555,
      "ï¼ĮåĬłå¼º": 6556,
      "çĶŁæ´»ä¸ŃçļĦ": 6557,
      "Ġrequ": 6558,
      "å¥½äºĨ": 6559,
      "æĹ¶éĹ´åĨħ": 6560,
      "èªŀ": 6561,
      "æİĪæĿĥ": 6562,
      "ä¹Łå°Ĩ": 6563,
      "Ġstud": 6564,
      "é½Ĳ": 6565,
      "å¹²çĩ¥": 6566,
      "è¢«è®¤ä¸ºæĺ¯": 6567,
      "Ġç¡®å®ļ": 6568,
      "ä¹ĲæĦı": 6569,
      "æµħ": 6570,
      "Ġæĺ¯çļĦ": 6571,
      "æº¯": 6572,
      "éĢ²è¡Į": 6573,
      "åģľæŃ¢": 6574,
      "ç§ĳæĻ®æĸĩç«ł": 6575,
      "ï¼ĮçĶ¨æĪ·": 6576,
      "æĵ¦": 6577,
      "åı¯ä»¥çĶ¨": 6578,
      "åĻ¨çļĦ": 6579,
      "ully": 6580,
      "minilm": 6581,
      "\\nä½łæĺ¯minilm": 6582,
      "çĩķ": 6583,
      "Ġgener": 6584,
      "irect": 6585,
      "son": 6586,
      "akes": 6587,
      "éĨĭ": 6588,
      "ä¸ĢçĤ¹": 6589,
      "æĴŃæĶ¾": 6590,
      "æıĲåĪ°çļĦ": 6591,
      "æĻºèĥ½æīĭæľº": 6592,
      "æĭįæĳĦ": 6593,
      "ãĢĤM": 6594,
      "çļĦåĲĹ": 6595,
      "é¡ºåĪ©": 6596,
      "å®Ŀå®Ŀ": 6597,
      "è®¾å¤ĩçļĦ": 6598,
      "çİ°æľī": 6599,
      "æ°´åĴĮ": 6600,
      "çĽ®çļĦæĺ¯": 6601,
      "çİ»çĴĥ": 6602,
      "('": 6603,
      "æĪĲç«ĭ": 6604,
      "ade": 6605,
      "è¢«è§Ĩä¸º": 6606,
      "èģļä¼ļ": 6607,
      "çİ°åľº": 6608,
      "çĪ¶æ¯į": 6609,
      "Ġbl": 6610,
      "åĩºèī²": 6611,
      "ural": 6612,
      "èģĮä¸ļåıĳå±ķ": 6613,
      "å¦Ĥä½ķä½¿çĶ¨": 6614,
      "Ġbetween": 6615,
      "çĶ¢": 6616,
      "ices": 6617,
      "ä¸įå¿ħè¦ģçļĦ": 6618,
      "æĺ¯åŁºäºİ": 6619,
      "çļĦçĤ": 6620,
      "ãĢĭãĢĤ": 6621,
      "ä¾ĽåºĶéĵ¾": 6622,
      "ï¼ĮæĪĳæĹłæ³ķ": 6623,
      "åĲĪæĪĲ": 6624,
      "åİ»éĻ¤": 6625,
      "æĬ±æŃī": 6626,
      "æĿĥéĻĲ": 6627,
      "æĬ½è±¡": 6628,
      "æ²ŁéĢļåĴĮ": 6629,
      "èİİ": 6630,
      "èĢĢ": 6631,
      "å²Ĺä½į": 6632,
      "nS": 6633,
      "åħµ": 6634,
      "åĬłå·¥": 6635,
      "å¼ºçļĦ": 6636,
      "èį¡": 6637,
      "çŁ©éĺµ": 6638,
      "éĽ¾": 6639,
      "let": 6640,
      "å¤®": 6641,
      "eg": 6642,
      "æ¸´": 6643,
      "Ġcomple": 6644,
      "ek": 6645,
      "äººæĢ§": 6646,
      "çĭĲ": 6647,
      "**,": 6648,
      "èĲ¥éĢł": 6649,
      "å¹²åĩĢ": 6650,
      "éļ¾é¢ĺ": 6651,
      "Ġproblem": 6652,
      "åĽ¾æ¡Ī": 6653,
      "ç»ıéªĮåĴĮ": 6654,
      "ï¼ĮæĢ»": 6655,
      "ities": 6656,
      "ï¼Įå¹¶æł¹æį®": 6657,
      "ãĢĤçĶŁæĪĲä»ĸä»¬ä¹ĭéĹ´çļĦä¸Ģæ®µå¯¹è¯Ŀ": 6658,
      "éĿ¢ç²ī": 6659,
      "iqu": 6660,
      "çİ°ä»£ç¤¾ä¼ļ": 6661,
      "åĨ¬åŃ£": 6662,
      "èĪĩ": 6663,
      "Ġgre": 6664,
      "çļĦç½ĳç»ľ": 6665,
      "æŁĶè½¯": 6666,
      "ï¼īæĿ¥": 6667,
      "Ġminilm": 6668,
      "åİ¨æĪ¿": 6669,
      "çĶŁæ´»è´¨éĩı": 6670,
      "æ³¥": 6671,
      "æħĪ": 6672,
      "ĠTo": 6673,
      "ï¼Įä»¿ä½Ľ": 6674,
      "æľºæ¢°": 6675,
      "å®¶ä¸Ń": 6676,
      "å¸¦æľī": 6677,
      "æıĲäº¤": 6678,
      "vent": 6679,
      "æ¡¶": 6680,
      "èĿ¶": 6681,
      "å¤¹": 6682,
      "èĥİ": 6683,
      "quare": 6684,
      "(s": 6685,
      "Ex": 6686,
      "çļĦåħĥç´ł": 6687,
      "Ġrec": 6688,
      "ä¸ºä¸»": 6689,
      "irc": 6690,
      "âĢĿï¼Ī": 6691,
      "åħ±é¸£": 6692,
      "å¯¹æĤ¨": 6693,
      "ï¼ĮåĽłä¸ºå®ĥä»¬": 6694,
      "ï¼Īä¾ĭå¦Ĥ": 6695,
      "è¥¿çıŃ": 6696,
      "ï¼ĮæŃ£åľ¨": 6697,
      "ä»ģ": 6698,
      "Ġresponse": 6699,
      "è¥¿çıŃçīĻ": 6700,
      "ork": 6701,
      "als": 6702,
      "Ġmake": 6703,
      "çĶŁçĲĨ": 6704,
      "cm": 6705,
      "ãĢģåı¯": 6706,
      "å®ĩå®ĻçļĦ": 6707,
      "èĴĤ": 6708,
      "æĥĳ": 6709,
      "æľ¬åľ°": 6710,
      "ä½ĵçİ°åľ¨": 6711,
      "Ġact": 6712,
      "åĲĦèĩª": 6713,
      "çĥŃéĹ¨": 6714,
      "ï¼ĮA": 6715,
      "ĠæıĲä¾Ľ": 6716,
      "æ³ķè¯Ń": 6717,
      "åľ°éľĩ": 6718,
      "ç§ĭå¤©": 6719,
      "åĴĮäººç±»": 6720,
      "è®ĵ": 6721,
      "Ġcorrect": 6722,
      "æİ¥çĿĢ": 6723,
      "å¯¹ç¤¾ä¼ļ": 6724,
      "åŃĺåľ¨ä¸ĢäºĽ": 6725,
      "æ´ª": 6726,
      "ä¸īç§į": 6727,
      "Ġexpl": 6728,
      "à¨": 6729,
      "çĭ®": 6730,
      "éļĲèĹı": 6731,
      "çļĦçĪ±æĥħ": 6732,
      "æķĻæİĪ": 6733,
      "å±ħä½ı": 6734,
      "æĽ´å¥½åľ°çĲĨè§£åĴĮ": 6735,
      "NL": 6736,
      "åºŁå¼ĥ": 6737,
      "Ġinput": 6738,
      "å°ĩ": 6739,
      "çĭ¸": 6740,
      "ãĢĤä»ĸçļĦ": 6741,
      "ä»¥ä¸ĭæĺ¯ä¸Ģéģĵ": 6742,
      "ä»Ļ": 6743,
      "å®¶åĽŃ": 6744,
      "è§£åĨ³éĹ®é¢ĺçļĦ": 6745,
      "llig": 6746,
      "ss": 6747,
      "èħ¹": 6748,
      "é¢ĳç¹ģ": 6749,
      "æĺ¯ä¸Ģä¸ªéĿŀå¸¸": 6750,
      "çīĩæ®µ": 6751,
      "ï¼Įä½Ĩæĺ¯æĪĳ": 6752,
      "æłĸ": 6753,
      "åıĳåĩº": 6754,
      "lish": 6755,
      "å¾Īéļ¾": 6756,
      "tool": 6757,
      "éģ¥": 6758,
      ");\\": 6759,
      "ĠØ": 6760,
      "èĥ¡èĲĿåįľ": 6761,
      "åħĶåŃĲ": 6762,
      "çıįæĥľ": 6763,
      "ä¸ĢåĪĩ": 6764,
      "åĿļæŀľ": 6765,
      "æĦŁæ¿Ģ": 6766,
      "íķ": 6767,
      "Answer": 6768,
      "è¡Ģç®¡": 6769,
      "æķ¦": 6770,
      "ä¸ĭä¸Ģä¸ª": 6771,
      "Ġbest": 6772,
      "éĤ»": 6773,
      "Ġåĩ½æķ°": 6774,
      "è£Ļ": 6775,
      "æīĭè¡¨": 6776,
      "äº§çĶŁçļĦ": 6777,
      "çĥŃéĩı": 6778,
      "åĴĮç»ıæµİ": 6779,
      "_s": 6780,
      "æĺ¯ä¸Ģå®¶": 6781,
      "ä¸ªäººä¿¡æģ¯": 6782,
      "éĻ¤æŃ¤": 6783,
      "ç½©": 6784,
      "ãģ¯": 6785,
      "Ġthem": 6786,
      "æľįåĬ¡çļĦ": 6787,
      "ient": 6788,
      "èĬ¬": 6789,
      "æ³¨åĨĮ": 6790,
      "åĲ¯åĬ¨": 6791,
      "çĨĬçĮ«": 6792,
      "Ġcons": 6793,
      "ck": 6794,
      "ãĢĤæĪĳä»¬çļĦ": 6795,
      "àª": 6796,
      "åĲĮä¹īè¯į": 6797,
      "è¾¾æĪĲ": 6798,
      "ãĢģä»¥åıĬ": 6799,
      "çļĦçĭĹ": 6800,
      "åįĬå¾Ħ": 6801,
      "æĺİç¡®çļĦ": 6802,
      "æĹģ": 6803,
      "RO": 6804,
      "ç»¼åĲĪèĢĥèĻĳ": 6805,
      "è¿Ļéĥ¨çĶµå½±": 6806,
      "åĩºçİ°çļĦ": 6807,
      "Ġmodel": 6808,
      "åĳĺå·¥çļĦ": 6809,
      "æµ´": 6810,
      "åħ´è¶£åĴĮ": 6811,
      "ï¼Įä»¥åĩıå°ĳ": 6812,
      "ï¼Įåı¯ä»¥å°Ĩ": 6813,
      "ä½Ĩæĺ¯": 6814,
      "\\nprint": 6815,
      "çĽ¸çŃī": 6816,
      "åķıé¡Į": 6817,
      "Ġbu": 6818,
      "ä¸Ģåı¥": 6819,
      "Ġcontext": 6820,
      "æ¯ĶèµĽä¸Ń": 6821,
      "æĦĪ": 6822,
      "ĠâĨĴ": 6823,
      "èĥ½å¤Łåľ¨": 6824,
      "è¯ĨåĪ«åĴĮ": 6825,
      "çļĦçĮ": 6826,
      "ç»ıèĲ¥": 6827,
      "è°ĵ": 6828,
      "èģĬå¤©æľºåĻ¨äºº": 6829,
      "åľĨçļĦ": 6830,
      "éĻ¤æŃ¤ä¹ĭå¤ĸ": 6831,
      "å¤įæĿĤæĢ§": 6832,
      "è·¨æĸĩåĮĸ": 6833,
      "çļĦä½ľçĶ¨": 6834,
      "èµ¢å¾Ĺ": 6835,
      "å¯¼èĩ´çļĦ": 6836,
      "Ġbook": 6837,
      "åĲ¦åĪĻ": 6838,
      "ä¸Ģçīĩ": 6839,
      "åı¯è§ĨåĮĸ": 6840,
      "æľĢå¤§åĢ¼": 6841,
      "åı¯èĥ½æľī": 6842,
      "Ġar": 6843,
      "æµĵéĥģ": 6844,
      "å£³": 6845,
      "ç©Ĩ": 6846,
      "éĿŀæ³ķ": 6847,
      "çģ«æĺŁ": 6848,
      "è¶ħè¶Ĭ": 6849,
      "ï¼Įæııè¿°": 6850,
      "ãĤĭ": 6851,
      "aking": 6852,
      "åķĨåºĹ": 6853,
      "å©´åĦ¿": 6854,
      "æĿ°åħĭ": 6855,
      "åĨĻä¸Ģç¯ĩåħ³äºİäººå·¥æĻºèĥ½": 6856,
      "åį³ä½¿": 6857,
      "å¤©æ°Ķé¢ĦæĬ¥": 6858,
      "Ġexpress": 6859,
      "br": 6860,
      "ied": 6861,
      "ï¼Įå¦ĤæŀľæĤ¨": 6862,
      "âĢĿçŃī": 6863,
      "ãĢĤå°ıçº¢": 6864,
      "ten": 6865,
      "ives": 6866,
      "æŃ¥è¡Į": 6867,
      "æĽ´æľīæķĪåľ°": 6868,
      "air": 6869,
      "è½´": 6870,
      "ï¼Įå°¤åħ¶æĺ¯åľ¨": 6871,
      "å¯¼èĪª": 6872,
      "áŀ": 6873,
      "å®¶æĹı": 6874,
      "ï¼ĪA": 6875,
      "...": 6876,
      "å°Ĭæķ¬": 6877,
      "ä¸¾åĬŀ": 6878,
      "_string": 6879,
      "ãĢĤä¸Ģä¸ª": 6880,
      "çļĦæŃ¥éª¤": 6881,
      "åħ´è¶£çĪ±å¥½": 6882,
      "ãĢĤéĢļå¸¸": 6883,
      "èĩªåĬ¨é©¾é©¶æ±½è½¦": 6884,
      "\\nä½łä»Ĭå¤©": 6885,
      "\\nåĽłæŃ¤": 6886,
      "ä»¥ä¸ĭæĺ¯ä¸Ģéģĵå°ıåŃ¦": 6887,
      "Ġimp": 6888,
      "æģĲæĥ§": 6889,
      "åĽ¢éĺŁçļĦ": 6890,
      "--------": 6891,
      "æĺİçĻ½äºĨ": 6892,
      "è¦ģæ³¨æĦı": 6893,
      "ä¸įå¤Ł": 6894,
      "\\næĢ»ä¹ĭ": 6895,
      "ç©¿è¶Ĭ": 6896,
      "\\(": 6897,
      "åģ¿": 6898,
      "åģļèµ·": 6899,
      "æįī": 6900,
      "åıĭå¥½": 6901,
      "å½Ĵç±»": 6902,
      "ä¸įéĢĤ": 6903,
      "è¢ĸ": 6904,
      "ï¼ī-": 6905,
      "ãĢĤæĹłè®º": 6906,
      "çļĦåīį": 6907,
      "æĪĺæĸĹ": 6908,
      "Ġdist": 6909,
      "å¯¹æĸ¹çļĦ": 6910,
      "Ġexample": 6911,
      "ä¸īè§Ĵå½¢": 6912,
      "å¿ĥä¸Ń": 6913,
      "å¤§äºİ": 6914,
      "çİĩåĴĮ": 6915,
      "ï¼Įä½łä¼ļ": 6916,
      "Ġä¿ĿæĮģ": 6917,
      "å¯ĵ": 6918,
      "æµ·é²ľ": 6919,
      "åĮĸçŁ³": 6920,
      "ä¾ĭåŃĲä¸Ń": 6921,
      "tr": 6922,
      "Ġpossible": 6923,
      "åĲ¬èµ·æĿ¥å¾Ī": 6924,
      "}}": 6925,
      "æĬĳéĥģ": 6926,
      "åĲ¬åĪ°": 6927,
      "ails": 6928,
      "åŃĹåħ¸": 6929,
      "æ·±åĪ»çļĦ": 6930,
      "éĸĭ": 6931,
      "ãģĦ": 6932,
      "ç³»ç»Łä¸Ń": 6933,
      "åħ³éĶ®ä¿¡æģ¯": 6934,
      "èĦļæľ¬": 6935,
      "åı¯èĥ½å¯¹": 6936,
      "éĩĩåıĸæİªæĸ½": 6937,
      "ãĢĤæĪĳä»¬åºĶè¯¥": 6938,
      "ä»¥ä¸ĭæĺ¯ä¸Ģéģĵå°ıåŃ¦æķ°åŃ¦é¢ĺ": 6939,
      "çĶŁæĪĲä¸Ģä¸ªåħ³äºİ": 6940,
      "itive": 6941,
      "Ġim": 6942,
      "rough": 6943,
      "ãĢģC": 6944,
      "æĿ¥å¸®åĬ©": 6945,
      "ï¼Įå¹¶å°Ĩåħ¶": 6946,
      "æıŃç¤º": 6947,
      "ï¼Įä½Ĩåľ¨": 6948,
      "é«ĺæķĪåľ°": 6949,
      "çħ§çīĩ": 6950,
      "åĴĮä¸Ģä¸ª": 6951,
      "Ġè¾ĵåĩº": 6952,
      "éŁ³é¢ĳ": 6953,
      "Ġent": 6954,
      "å¸¦æĿ¥æĽ´å¤ļçļĦ": 6955,
      "urrent": 6956,
      "çļĦåı¯": 6957,
      "çļĦéĢŁåº¦": 6958,
      "æĻ¯èī²": 6959,
      "å¹´ä»½": 6960,
      "æĮ¯": 6961,
      "ĠAnswer": 6962,
      "ik": 6963,
      "light": 6964,
      "ãĢģå®īåħ¨": 6965,
      "çļĦæĳĦåħ¥": 6966,
      "è§ĤçļĦ": 6967,
      "Ġperson": 6968,
      "æ¯ıæ¬¡": 6969,
      "åĪĹä¸¾": 6970,
      "åĳ½åĲį": 6971,
      "æ½ľåľ¨çļĦ": 6972,
      "ï¼ĮçĶŁæĪĲ": 6973,
      "ç»Łä¸Ģ": 6974,
      "æµ·å¹³éĿ¢": 6975,
      "ä½ľä¸ļ": 6976,
      "æĴ°åĨĻ": 6977,
      "è¾Ĳ": 6978,
      "æĶ¹åıĺäºĨ": 6979,
      "ä¹ĺä»¥": 6980,
      "éŁµ": 6981,
      "ï¼Įå°Ŀè¯ķ": 6982,
      "çĶĺ": 6983,
      "_numbers": 6984,
      "å¤©ä½ĵ": 6985,
      "åĵĪåĪ©": 6986,
      "Ġmark": 6987,
      "å§Ķ": 6988,
      "ç¨¿": 6989,
      "ï¼Įçİ¯ä¿Ŀ": 6990,
      "æ¼ł": 6991,
      "èĬĿå£«": 6992,
      "Ġsmall": 6993,
      "èİ±": 6994,
      "åŃķ": 6995,
      "ï¼Įè¯·éļıæĹ¶": 6996,
      "å¿½è§Ĩ": 6997,
      "çĽĨ": 6998,
      "äººåĬĽ": 6999,
      "è½¨éģĵ": 7000,
      "éĴ®": 7001,
      "ä½ľå®¶": 7002,
      "æĿ¡æ¬¾": 7003,
      "å°ıç»Ħ": 7004,
      "ï¼Įè¯·æıĲä¾Ľ": 7005,
      "çļĦæ¦Ĥå¿µ": 7006,
      "ally": 7007,
      "åĪĨæķ°": 7008,
      "nåħ¶æ¬¡": 7009,
      "åŀĤ": 7010,
      "å¯¼æ¼Ķ": 7011,
      "å¾®é£İ": 7012,
      "è¯Ńä¹ī": 7013,
      "åĬ³åĬ¨": 7014,
      "æľīçĽĬ": 7015,
      "llo": 7016,
      "éħįæĸĻ": 7017,
      "æĻļé¤Ĳ": 7018,
      "ä¸įæĸŃè¿ĽæŃ¥": 7019,
      "çļĦåĨ³çŃĸ": 7020,
      "é¼»": 7021,
      "è¶ĬæĿ¥è¶Ĭå¤ļ": 7022,
      "åı¯æĮģç»ŃæĢ§": 7023,
      "èĢį": 7024,
      "ç¤¼çī©": 7025,
      "sh": 7026,
      "åĴĮå¸Ĥåľº": 7027,
      "æ¨¡ä»¿": 7028,
      "néļıçĿĢ": 7029,
      "\\nH": 7030,
      "çļĦç±»åŀĭ": 7031,
      "ç»³": 7032,
      "ĠUn": 7033,
      "çļĦåŃ£èĬĤ": 7034,
      "æĺ¥å¤©": 7035,
      "çļĦé¢ĨåŁŁ": 7036,
      "åĲĮä¸Ģ": 7037,
      "ï¼Įè¿ĺæĺ¯": 7038,
      "æľīæ°§": 7039,
      "è´¢å¯Į": 7040,
      "èĤł": 7041,
      "èĬĤçĽ®": 7042,
      "åĲĪè§Ħ": 7043,
      "å¡ĳéĢł": 7044,
      "\\nWe": 7045,
      "èĤ¿": 7046,
      "çļĦè´¨éĩı": 7047,
      "éŁ©": 7048,
      "æĸĳ": 7049,
      "åı¯ä»¥çĶ¨æĿ¥": 7050,
      "åĪĨæĶ¯": 7051,
      "çļĦæĮĳæĪĺ": 7052,
      "ĠåĬłåħ¥": 7053,
      "çİ¯èĬĤ": 7054,
      "Ġlight": 7055,
      "ï¼Įå°Ĩåħ¶": 7056,
      "è¨Ń": 7057,
      "äºĨè§£ä¸Ģä¸ĭ": 7058,
      "è£ħä¿®": 7059,
      "çĸĳéĹ®": 7060,
      "ï¼ĮæĹłè®º": 7061,
      "è®¤è¯ģ": 7062,
      "æĸ°æĬĢæľ¯": 7063,
      "è¾Ĳå°Ħ": 7064,
      "æĺİäº®": 7065,
      "åĽ¾ä¹¦é¦Ĩ": 7066,
      "ï¼ĮæĻºèĥ½": 7067,
      "è¿ĩç¨ĭä¸ŃçļĦ": 7068,
      "å¼ķçĶ¨": 7069,
      "æĶ¾æĿ¾èº«å¿ĥ": 7070,
      "ãģ§": 7071,
      "Ġunder": 7072,
      "çļĦç©ºéĹ´": 7073,
      "á»": 7074,
      "åĲİç»Ń": 7075,
      "æ·ĩ": 7076,
      "(num": 7077,
      "æ´Ĵ": 7078,
      "è¿Ŀåıį": 7079,
      "æķĪçĽĬ": 7080,
      "å¥³çĶŁ": 7081,
      "ï½": 7082,
      "å«Į": 7083,
      "å¤įåĪ¶": 7084,
      "åħ¨éĿ¢çļĦ": 7085,
      "åĪ¶éĢłä¸ļ": 7086,
      "ï¼Įä½Ĩå®ĥä»¬": 7087,
      "ãĢĤæŃ¤": 7088,
      "åĮħåĲ«äºĨ": 7089,
      "èº«è¾¹": 7090,
      "ï¼ĮæĪĳä»¬åı¯ä»¥ä½¿çĶ¨": 7091,
      "è°¨æħİ": 7092,
      "ç¨³å®ļçļĦ": 7093,
      "æĢĿè·¯": 7094,
      "ST": 7095,
      "æĺ¯ä¸į": 7096,
      "äººç¾¤": 7097,
      "åĪ«äºº": 7098,
      "éĢĤåºĶæĢ§": 7099,
      "çļĦå¸Ĥåľº": 7100,
      "éĩįè¦ģçļĦä½ľçĶ¨": 7101,
      "ãĢĤè¿ĻæĦıåĳ³çĿĢ": 7102,
      "ĠQ": 7103,
      "æ¸¯": 7104,
      "ï¼Įåı£æĦŁ": 7105,
      "çĥ¦": 7106,
      "æıĴåħ¥": 7107,
      "uring": 7108,
      "ages": 7109,
      "å½¢å®¹è¯į": 7110,
      "æĭĴ": 7111,
      "åĨ°æ·ĩ": 7112,
      "çĭĤ": 7113,
      "çĽĲåĴĮ": 7114,
      "çĶµå½±çļĦ": 7115,
      "èīºæľ¯åĵģ": 7116,
      "Ġaccur": 7117,
      "æĬ¹": 7118,
      "åľ°ä¸Ĭ": 7119,
      "ï¼ĮæľīäºĽ": 7120,
      "çĵ£": 7121,
      "the": 7122,
      "èĻ¾": 7123,
      "ided": 7124,
      "ä¹Į": 7125,
      "å¤ªç©ºæİ¢ç´¢": 7126,
      "çļĦæĦıæĢĿ": 7127,
      "æĮīéĴ®": 7128,
      "âĢľæĪĳ": 7129,
      "uct": 7130,
      "å¥¶éħª": 7131,
      "å¿«éĢŁåıĳå±ķ": 7132,
      "èĥľåĪ©": 7133,
      "èģĮè´£": 7134,
      "çŁ¿çī©è´¨": 7135,
      "æ°ıåº¦": 7136,
      "ä¼łè¯´": 7137,
      "Ð»": 7138,
      "çŁĽçĽ¾": 7139,
      "é¡¾éĹ®": 7140,
      "++": 7141,
      "stit": 7142,
      "çļĦç¾İä¸½": 7143,
      "åĨ°æ·ĩæ·ĭ": 7144,
      "èĩªçĦ¶çİ¯å¢ĥ": 7145,
      "Ġincre": 7146,
      "äººå¿ĥ": 7147,
      "ä»£æĽ¿": 7148,
      "åĲĥäºĨ": 7149,
      "fully": 7150,
      "éĽĩ": 7151,
      "å¯¦": 7152,
      "åĢ¡": 7153,
      "ä¸įåĲĮç±»åŀĭçļĦ": 7154,
      "å±ĤéĿ¢": 7155,
      "åĴĮåĨ³çŃĸ": 7156,
      "æıĲéĹ®": 7157,
      "å®¹åĻ¨": 7158,
      "æİĴåĲį": 7159,
      "åĨĽäºĭ": 7160,
      "ä¸Ģæ¬¡æĢ§": 7161,
      "è®¤è¯ĨåĪ°": 7162,
      "èĥ¶": 7163,
      "åĲĪå¹¶": 7164,
      "æķ¸æĵļ": 7165,
      "åĴĮä¸ªäºº": 7166,
      "ç»ĻæĤ¨": 7167,
      "éĢļå¸¸éľĢè¦ģ": 7168,
      "ä¸ĭè½½": 7169,
      "ï¼ŁB": 7170,
      "Ġplay": 7171,
      "æĭ¥åłµ": 7172,
      "Ġstat": 7173,
      "åĲ¯åıĳ": 7174,
      "æķĪåºĶ": 7175,
      "ãĢĤBob": 7176,
      "ting": 7177,
      "NN": 7178,
      "Ġ\\,": 7179,
      "ä¿ĿæĬ¤æĪĳä»¬çļĦ": 7180,
      "Ġproduct": 7181,
      "æĪ·å¤ĸæ´»åĬ¨": 7182,
      "\\nä½łæľĢè¿ĳæľīæ²¡æľī": 7183,
      "æıĲåĩºäºĨ": 7184,
      "\\nThis": 7185,
      "åĽŀçŃĶè¿Ļä¸ªéĹ®é¢ĺ": 7186,
      "æıĲåıĸåĩº": 7187,
      "åĩłç§į": 7188,
      "ãģĮ": 7189,
      "æīĵéĢł": 7190,
      "å°ĸ": 7191,
      "äº«çĶ¨": 7192,
      "nThe": 7193,
      "å¸®ä½ł": 7194,
      "çİ©èĢį": 7195,
      "åĨħç½®": 7196,
      "ï¼Įä»¥åħį": 7197,
      "è¯´è¯Ŀ": 7198,
      "aly": 7199,
      "å¤ĩçĶ¨": 7200,
      "çĸ¼çĹĽ": 7201,
      "çħ§é¡¾": 7202,
      "è¾ĵåħ¥çļĦ": 7203,
      "èĪªç©º": 7204,
      "äººå·¥æĻºèĥ½çļĦåıĳå±ķ": 7205,
      "ç¿»çĤĴ": 7206,
      "Ġkey": 7207,
      "è¯¯è§£": 7208,
      "å²ģçļĦ": 7209,
      "ä»¥ä¸ĭéĹ®é¢ĺ": 7210,
      "æ¸ħæ¥ļ": 7211,
      "ĠHe": 7212,
      "å¾¡": 7213,
      "Web": 7214,
      "å¹³éĿĻ": 7215,
      "çº¿ä¸Ĭ": 7216,
      "ï¼Įä½łè®¤ä¸º": 7217,
      "ç´łé£Ł": 7218,
      "æĺ¯éĿŀå¸¸": 7219,
      "ç®ĢåİĨ": 7220,
      "\\nN": 7221,
      "èī³": 7222,
      "æ¶Īå¤±": 7223,
      "æĽ´å¿«åľ°": 7224,
      "Ġassist": 7225,
      "é¬": 7226,
      "é¡¹çĽ®çļĦ": 7227,
      "ä¿ĿæĮģåģ¥åº·": 7228,
      "å¼Ł": 7229,
      "ãĢģç³ĸ": 7230,
      "éĢĴå½Ĵ": 7231,
      "ç§ĺå¯Ĩ": 7232,
      "åı¯ä»¥éĢīæĭ©": 7233,
      "æ£ķ": 7234,
      "æ¯ıä¸ªäººçļĦ": 7235,
      "ï¼Įæ¯ıå¤©": 7236,
      "ä¸İäºº": 7237,
      "Ġquestions": 7238,
      "\\text": 7239,
      "é±¼ç±»": 7240,
      "ĠéĢīæĭ©": 7241,
      "Ġelement": 7242,
      "åĴĮçİ¯å¢ĥ": 7243,
      "ä¿ĥéĶĢ": 7244,
      "ãĢĤçĽ®åīį": 7245,
      "Ġsystem": 7246,
      "ï¼Įè¯·åĳĬè¯īæĪĳ": 7247,
      "è¡Įä¸ļçļĦ": 7248,
      "ä½łéľĢè¦ģ": 7249,
      "à®": 7250,
      "èŃ°": 7251,
      "æĺ¯ä¸Ģç¯ĩåħ³äºİ": 7252,
      "ç¢³æİĴæĶ¾": 7253,
      "æİ¨æĸŃ": 7254,
      "æ¯Ķåĸ»": 7255,
      "å±±èĦī": 7256,
      "lst": 7257,
      "å¸Ĥåľºä¸Ĭ": 7258,
      "é¥±": 7259,
      "gram": 7260,
      "éĨī": 7261,
      "çļĦè¯ĹæŃĮ": 7262,
      "ï¼ĮæĹł": 7263,
      "åıĻ": 7264,
      "æķĻç¨ĭ": 7265,
      "äºļæ´²": 7266,
      "æłĳæľ¨": 7267,
      "æ²īæµ¸": 7268,
      "ï¼Įä¼ģä¸ļ": 7269,
      "ï¼Įè¿ĻéĩĮ": 7270,
      "ä¹°äºĨ": 7271,
      "iss": 7272,
      "æ¯ıä¸Ģ": 7273,
      "çļĦåĬĽéĩı": 7274,
      "è¿Ļç§įæĥħåĨµä¸ĭ": 7275,
      "éĹ®é¢ĺæĪĸ": 7276,
      "è¿ĽåĪ¶": 7277,
      "çĭĲçĭ¸": 7278,
      "çļĦéĩįè¦ģç»ĦæĪĲéĥ¨åĪĨ": 7279,
      "æ¤įçī©çļĦ": 7280,
      "æ³ķå¾ĭåĴĮ": 7281,
      "å¢ŀæ·»": 7282,
      "ãĢģéŁ³ä¹Ĳ": 7283,
      "Ġche": 7284,
      "æĬĢå·§åĴĮ": 7285,
      "æ¼ıæ´ŀ": 7286,
      "ä»¥æĿ¥": 7287,
      "çĶŁçī©åŃ¦": 7288,
      "ha": 7289,
      "èħº": 7290,
      "æ¯ıåĳ¨": 7291,
      "ï¼ĮåŃ¦ä¹ł": 7292,
      "æıĲä¾ĽæĽ´åĬł": 7293,
      "èħĬ": 7294,
      "ases": 7295,
      "ming": 7296,
      "åĴĮæĶ¹è¿Ľ": 7297,
      "éĻªä¼´": 7298,
      "èĢĮå¼Ĥ": 7299,
      "ï¼Įä½Ĩä¹Ł": 7300,
      "å»ºéĢł": 7301,
      "åĩºçīĪ": 7302,
      "å¼¯": 7303,
      "ĠTr": 7304,
      "næľĢåĲİ": 7305,
      "ï¼ĪS": 7306,
      "å·¥åħ·åĴĮ": 7307,
      "çĻĮçĹĩ": 7308,
      "éĢĻäºĽ": 7309,
      "Ġhigh": 7310,
      "ãĢĭçŃī": 7311,
      "ï¼Įåı¯ä»¥è®©": 7312,
      "ï¼Įè¿ĻæľīåĬ©äºİ": 7313,
      "ï¼ģ<|": 7314,
      "è¿Ļæ¬¡": 7315,
      "ï¼Įä¸¤": 7316,
      "åħ½": 7317,
      "éĿŀæ´²": 7318,
      "ä¹ĭæĹħ": 7319,
      "ä¸§": 7320,
      "è·¯ä¸Ĭ": 7321,
      "åł´": 7322,
      "è»": 7323,
      "èį¯çī©çłĶåıĳ": 7324,
      "åĩºèī²çļĦ": 7325,
      "\\næł¹æį®": 7326,
      "\\nä½łå¦Ĥä½ķ": 7327,
      "vol": 7328,
      "ĠæĻºèĥ½": 7329,
      "æŃ£æĸ¹": 7330,
      "æ¯ķä¸ļ": 7331,
      "åĩıåİ»": 7332,
      "è¿½æº¯": 7333,
      "åįĵ": 7334,
      "å¾·åĽ½": 7335,
      "ï¼ļå½ĵçĦ¶": 7336,
      "èĩªçĦ¶è¯Ńè¨Ģå¤ĦçĲĨæĬĢæľ¯": 7337,
      "ãĢĤæĪĳä¼ļ": 7338,
      "æĸĩçĮ®": 7339,
      "çĽĳçĿ£åŃ¦ä¹ł": 7340,
      "æĮ«": 7341,
      "çĩĥçĥ§": 7342,
      "Ġwhile": 7343,
      "éĹ®çŃĶ": 7344,
      "è¾¨": 7345,
      "åħ¥æīĭ": 7346,
      "èģĶåĲĪ": 7347,
      "åħ³éĶ®åľ¨äºİ": 7348,
      "å¤±ä¸ļ": 7349,
      "ï¼Įåĸľæ¬¢": 7350,
      "ä¸įä»ħä»ħæĺ¯": 7351,
      "è¿Ľè¡ĮæİĴåºı": 7352,
      "ï¼ĮæĪĳæ²¡æľī": 7353,
      "çļĦè¯Ŀé¢ĺ": 7354,
      "\\\\": 7355,
      "And": 7356,
      "æ¹¿åº¦": 7357,
      "ãĢĲ": 7358,
      "åĴĮæľºåĻ¨åŃ¦ä¹ł": 7359,
      "éĹ»åĲį": 7360,
      "ï¼ĮæĬĬ": 7361,
      "æ¼Ķå¥ı": 7362,
      "çļĦä¸įåĲĮ": 7363,
      "äººæīį": 7364,
      "ãĢĳ": 7365,
      "ãĢĤæİ¥ä¸ĭæĿ¥": 7366,
      "éĩıåĴĮ": 7367,
      "æįŁå®³": 7368,
      "erg": 7369,
      "æ³¨æĦıäºĭé¡¹": 7370,
      "éĺ¿éĩĮ": 7371,
      "å¹½é»ĺ": 7372,
      "ç¦ıåĪ©": 7373,
      "ä»¥ä¸ĭåĩłçĤ¹": 7374,
      "ãĢĤè¿Ļä¸įä»ħ": 7375,
      "ä»¥ä¸ĭæĺ¯ä¸ĢäºĽ": 7376,
      "ä»¥åħ¶": 7377,
      "è®¾è®¡å¸Ī": 7378,
      "å¨ľ": 7379,
      "å¤ļæ¬¡": 7380,
      "çļĦåĲįåŃĹ": 7381,
      "çļĦçº¿": 7382,
      "ress": 7383,
      "èĥĢ": 7384,
      "ä¸¢": 7385,
      "ä¸´åºĬ": 7386,
      "èĺĳ": 7387,
      "çļĦå½¢å¼ı": 7388,
      "ä½©": 7389,
      "å°¿çĹħ": 7390,
      "æķĻç»ĥ": 7391,
      "åĴĮä½ł": 7392,
      "åĲįåı«": 7393,
      "Ġimport": 7394,
      "çļĦç¿": 7395,
      "å¸®æĪĳæĥ³": 7396,
      "æĶ¯æĴĳ": 7397,
      "èĻİ": 7398,
      "éĩįè¦ģä½ľçĶ¨": 7399,
      "ĠEng": 7400,
      "é²¸": 7401,
      "èĺĳèıĩ": 7402,
      "book": 7403,
      "ä¸ŃåĽ½åı¤ä»£": 7404,
      "æĥ³è¿ĩ": 7405,
      "è¾¹ç¼ĺ": 7406,
      "åĩıèĤ¥": 7407,
      "çļĦç¼ĸç¨ĭè¯Ńè¨Ģ": 7408,
      "ä»¥ä¸ĭåĩłç§į": 7409,
      "è´¢äº§": 7410,
      "åĪĨåī²": 7411,
      "æĢ»çļĦæĿ¥è¯´": 7412,
      "æŀ¶æŀĦ": 7413,
      "åį±å®³": 7414,
      "ï¼ĮMOSS": 7415,
      "ç´łè´¨": 7416,
      "ãĢĤæĶ¿åºľ": 7417,
      "ãĢĤåħ¶": 7418,
      "å¼Ĺ": 7419,
      "arn": 7420,
      "èĨĢ": 7421,
      "åĲĦä¸ªé¢ĨåŁŁ": 7422,
      "¬éĹ´": 7423,
      "Ġmax": 7424,
      "å¯Ĥ": 7425,
      "ãĢĤAlice": 7426,
      "çļĦå¤§å°ı": 7427,
      "ï¼Įåı¯ä»¥å¸®åĬ©ä½ł": 7428,
      "å·¥ä½ľçļĦ": 7429,
      "åĬ£": 7430,
      "çĶ¨æĢ§": 7431,
      "å¤§å¤§": 7432,
      "Ġob": 7433,
      "Ġhours": 7434,
      "ula": 7435,
      "æıĲä¾Ľå¸®åĬ©": 7436,
      "åıĹä¼¤": 7437,
      "ãĢĤä¸İ": 7438,
      "èĩĤ": 7439,
      "ï¼ĮæĪĳä»¬çļĦ": 7440,
      "çĶµåŃĲåķĨåĬ¡": 7441,
      "ä»£åħ¥": 7442,
      "çĶ·çĶŁ": 7443,
      "æĪĳåı¯ä»¥": 7444,
      "ãĢģå¸Ĥåľº": 7445,
      "éŃĤ": 7446,
      "æĢİä¹ĪåĬŀ": 7447,
      "æ³ī": 7448,
      "æĢĿèĢĥåĴĮ": 7449,
      "\"ãĢĤ": 7450,
      "çļĦçł´": 7451,
      "aph": 7452,
      "èµĦæºĲåĴĮ": 7453,
      "æĺ¯è°ģ": 7454,
      "å¯»æ±Ĥå¸®åĬ©": 7455,
      "æ¶ĪåĮĸ": 7456,
      "åıĤä¸İèĢħ": 7457,
      "ï¼Įè¿Ľ": 7458,
      "ãĢĤæĸĩæľ¬": 7459,
      "æĿ¥è¿Ľè¡Į": 7460,
      "æ¶¯": 7461,
      "ä¾Ŀæį®": 7462,
      "å¯¹æľªæĿ¥": 7463,
      "æķ°æį®ä¸Ń": 7464,
      "Ġcould": 7465,
      "EO": 7466,
      "æĸ°äº§åĵģ": 7467,
      "æłĸæģ¯": 7468,
      "çļĦç³»ç»Ł": 7469,
      "æĿ¥ç¡®å®ļ": 7470,
      "è´µçļĦ": 7471,
      "è°·æŃĮ": 7472,
      "æ¿ĢçĥĪ": 7473,
      "orus": 7474,
      "åįĩé«ĺ": 7475,
      "å¯ĨåĪĩ": 7476,
      "ç»ĻæĪĳä¸ĢäºĽ": 7477,
      "ç©·": 7478,
      "ãĢģæľī": 7479,
      "é½¿": 7480,
      "æĸ°é²ľçļĦ": 7481,
      "æĭľ": 7482,
      "éĶĻè¯¯çļĦ": 7483,
      "ãĢĤæľºåĻ¨åŃ¦ä¹ł": 7484,
      "Ġsides": 7485,
      "åħ³å¿ĥ": 7486,
      "isa": 7487,
      "é£İæł¼åĴĮ": 7488,
      "ï¼ĮæĹłè®ºæĺ¯": 7489,
      "NLP": 7490,
      "ä¸Ģåı¥è¯Ŀ": 7491,
      "ä¼ģä¸ļå®¶": 7492,
      "è¯Ĺäºº": 7493,
      "æĬ¤çĲĨ": 7494,
      "Ġthrough": 7495,
      "å«©": 7496,
      "ee": 7497,
      "æ¯Ķçī¹": 7498,
      "Ã¡": 7499,
      "çĥĤ": 7500,
      "äº¤æµģåĴĮ": 7501,
      "æĪĲåĬŁåľ°": 7502,
      "esent": 7503,
      "èº«é«ĺ": 7504,
      "ta": 7505,
      "èĬ±æľµ": 7506,
      "ä¸ŃéĹ´": 7507,
      "èĤĿ": 7508,
      "åįļå®¢": 7509,
      "éĩĮéĿ¢": 7510,
      "æĺ¾å¾Ĺ": 7511,
      "æīİ": 7512,
      "æĶ¯éĵħç¬Ķ": 7513,
      "éľĢè¦ģè¿Ľè¡Į": 7514,
      "Ġoriginal": 7515,
      "æľºåĻ¨äººçļĦ": 7516,
      "Â°C": 7517,
      "éªĳèĩªè¡Įè½¦": 7518,
      "é¦Ļæ°Ķ": 7519,
      "åĮ»åŃ¦å½±åĥı": 7520,
      "alse": 7521,
      "å·²ç»ıåľ¨": 7522,
      "ï¼Łè¯·": 7523,
      "æĳĦå½±": 7524,
      "ä¸¾è¡Į": 7525,
      "uch": 7526,
      "ä¸ªæľĪ": 7527,
      "çĶľçĤ¹": 7528,
      "æĪĲè¯Ń": 7529,
      "å¤įæĿĤåº¦": 7530,
      "add": 7531,
      "å¯º": 7532,
      "å¯¹å¾ħ": 7533,
      "éľĢè¦ģå¸®åĬ©": 7534,
      "ç»ĦæĪĲçļĦ": 7535,
      "Ġcalculate": 7536,
      "é¢Ħè®¡": 7537,
      "ĠWorld": 7538,
      "par": 7539,
      "çļĦè¿ĲåĬ¨": 7540,
      "any": 7541,
      "ä¸Ńå¤®": 7542,
      "é¥¼å¹²": 7543,
      "ĠæĪĳä»¬": 7544,
      "çŁ¥è¯ĨåĴĮ": 7545,
      "åĽ½åĨħ": 7546,
      "çĥŃçĪ±": 7547,
      "åĪĹè¡¨ä¸ŃçļĦ": 7548,
      "å»ºç«ĭä¸Ģä¸ª": 7549,
      "åĳĪçİ°åĩº": 7550,
      "ï¼Įéĺ²æŃ¢": 7551,
      "ï¼Įå®ļæľŁ": 7552,
      "æ§": 7553,
      "\\nç»¼ä¸ĬæīĢè¿°": 7554,
      "è¶ĬæĿ¥è¶Ĭå¤ļçļĦ": 7555,
      "èĩªçĦ¶çķĮ": 7556,
      "'ll": 7557,
      "è¿ĺåī©ä¸ĭ": 7558,
      "ger": 7559,
      "verse": 7560,
      "çļĦçħ": 7561,
      "çĥĺ": 7562,
      "ä»ĸä»¬åľ¨": 7563,
      "éĹ®é¢ĺåĴĮ": 7564,
      "éªĹ": 7565,
      "å½±çīĩ": 7566,
      "èĮ¨": 7567,
      "Ġyears": 7568,
      "éĩįåĨĻ": 7569,
      "å¿ĥçĲĨåĴ¨è¯¢": 7570,
      "æĺ¯ä¸ª": 7571,
      "åĽ°å¢ĥ": 7572,
      "ï¼ĮæĦŁåıĹ": 7573,
      "æİ¥åı£": 7574,
      "æĸĩåŃ¦ä½ľåĵģ": 7575,
      "ëĭ": 7576,
      "æĺĨ": 7577,
      "çĶ¨æ°´": 7578,
      "åı·çłģ": 7579,
      "åı¤èĢģçļĦ": 7580,
      "åħ³éĶ®åŃĹ": 7581,
      "ane": 7582,
      "Ġmust": 7583,
      "è½¬åŀĭ": 7584,
      "çļĦç³ĸæŀľ": 7585,
      "åı¯ä»¥ä½¿": 7586,
      "çµ±": 7587,
      "ern": 7588,
      "],": 7589,
      "ãĢĤè¯·åĳĬè¯īæĪĳ": 7590,
      "GPT": 7591,
      "Ġend": 7592,
      "å·¥èµĦ": 7593,
      "æĸĩæľ¬çļĦ": 7594,
      "æ¶Īæŀģ": 7595,
      "åĪĺ": 7596,
      "ç«¹": 7597,
      "è§Ĥå¿µ": 7598,
      "å¦»": 7599,
      "ç§¯æŀģåıĤä¸İ": 7600,
      "æ¢ģ": 7601,
      "Ġè¿Ļä¸ª": 7602,
      "éĢłæĪĲäºĨ": 7603,
      "ç©ºä¸Ń": 7604,
      "ãĢĤæĪĳä»¬åı¯ä»¥": 7605,
      "pen": 7606,
      "ç»Īäºİ": 7607,
      "ä¾£": 7608,
      "è¯¦ç»Ĩä¿¡æģ¯": 7609,
      "è¡Ģæ¶²": 7610,
      "ä¸»äººåħ¬": 7611,
      "pect": 7612,
      "å°±ä¸ļæľºä¼ļ": 7613,
      "å§»": 7614,
      "æµ·è¾¹": 7615,
      "ï¼ģ\\": 7616,
      "ï¼Įé¦ĸåħĪ": 7617,
      "ĠCon": 7618,
      "æĺİäºĨ": 7619,
      "è£ħå¤ĩ": 7620,
      "æĭħå¿§": 7621,
      "æłĩæ³¨": 7622,
      "è¿ĺæľīåħ¶ä»ĸ": 7623,
      "ãĢģç»ıæµİ": 7624,
      "ank": 7625,
      "âĢĿæĺ¯": 7626,
      "stand": 7627,
      "é¢¨": 7628,
      "å½±åĵįåĬĽ": 7629,
      "SO": 7630,
      "ä¸Ģä¸ªéĹ®é¢ĺ": 7631,
      "çĭĹçļĦ": 7632,
      "fl": 7633,
      "åĩĨå¤ĩå¥½": 7634,
      "çĶµåķĨ": 7635,
      "çļĦæ°ĽåĽ´": 7636,
      "ãģ¨": 7637,
      "çīĪæĿĥ": 7638,
      "å¯¹åħ¶": 7639,
      "åı¯ä»¥éĢļè¿ĩåĪĨæŀĲ": 7640,
      "åĩºçİ°äºĨ": 7641,
      "ï¼Įå¹¶ä½¿çĶ¨": 7642,
      "å±±å³°": 7643,
      "åĢ¼å¾Ĺä¸Ģ": 7644,
      "':": 7645,
      "åıĳéŁ³": 7646,
      "åºĶçĶ¨çļĦ": 7647,
      "Ġaccurate": 7648,
      "ä¹ŁéĿŀå¸¸": 7649,
      "äºİæĺ¯": 7650,
      "èħ°": 7651,
      "éĻ¶": 7652,
      "æľªæĿ¥åıĳå±ķ": 7653,
      "åĳ½è¿Ĳ": 7654,
      "éļ¾å¿ĺ": 7655,
      "å¾ĹåĪĨ": 7656,
      "ï¼Įå°½éĩı": 7657,
      "yn": 7658,
      "æīĭå·¥": 7659,
      "rown": 7660,
      "ä¼¦æķ¦": 7661,
      "ï¼Įåı¯ä»¥éĢīæĭ©": 7662,
      "å¸®åĬ©çĶ¨æĪ·": 7663,
      "Ġtyp": 7664,
      "æĲħæĭĮåĿĩåĮĢ": 7665,
      "åģ·": 7666,
      "éĩıåŃĲåĬĽåŃ¦": 7667,
      "cent": 7668,
      "ames": 7669,
      "çŁŃæĸĩ": 7670,
      "ä¸ºä¸Ģä¸ª": 7671,
      "æııè¿°äºĨ": 7672,
      "æĢ»ç»Ł": 7673,
      "ency": 7674,
      "æĺ¯åħ³äºİ": 7675,
      "æĪĳåľ¨": 7676,
      "éĢıæĺİåº¦": 7677,
      "çİ°éĩĳ": 7678,
      "è°ĥæĸĻ": 7679,
      "è¿ĻäºĽä¿¡æģ¯": 7680,
      "Ġjust": 7681,
      "æĸ°åħ´": 7682,
      "åıĺå¾Ĺè¶ĬæĿ¥è¶Ĭ": 7683,
      "eters": 7684,
      "åļ": 7685,
      "èĶ¬èıľåĴĮ": 7686,
      "å±ķè§Ī": 7687,
      "èĤ¯å®ļ": 7688,
      "åĴĮæıĲé«ĺ": 7689,
      "å¯¹ä½ł": 7690,
      "åĴĮæķĻèĤ²": 7691,
      "ç»ıåħ¸çļĦ": 7692,
      "æĪ¶": 7693,
      "å¸½": 7694,
      "çĬ¹": 7695,
      "é«ĺè´¨éĩıçļĦ": 7696,
      "\\nTo": 7697,
      "åĸľçĪ±": 7698,
      "Ġget": 7699,
      "åľĨå½¢": 7700,
      "Ġsecond": 7701,
      "ãĢģå¤§": 7702,
      "åĳ¨éķ¿": 7703,
      "åģ¥åº·çĬ¶åĨµ": 7704,
      "çī¹æ®ĬçļĦ": 7705,
      "èĿ´": 7706,
      "iel": 7707,
      "éº¼": 7708,
      "æĲºå¸¦": 7709,
      "ä¾Ŀèµĸäºİ": 7710,
      "èĿ´èĿ¶": 7711,
      "ï¼Įä½łçļĦ": 7712,
      "ç®Ģçº¦": 7713,
      "ãĢģæĬĢæľ¯": 7714,
      "åĩ¯": 7715,
      "ãĢĤæľ¬æĸĩ": 7716,
      "åİĨç¨ĭ": 7717,
      "é£İæļ´": 7718,
      "éĺĲè¿°": 7719,
      "Ġsolve": 7720,
      "ä¸Ģåħ±æľī": 7721,
      "æ¯įäº²": 7722,
      "åħ¬å¼Ģ": 7723,
      "åĴĮè°ĥæķ´": 7724,
      "Ġbre": 7725,
      "IP": 7726,
      "çĳ°": 7727,
      "åıĳçĶµ": 7728,
      "ife": 7729,
      "æĸ¹çļĦ": 7730,
      "éĿ¢åĽ¢": 7731,
      "è¶ħå¸Ĥ": 7732,
      "å°ĳå¹´": 7733,
      "æ»ĭ": 7734,
      "ï¼Įæľīä»Ģä¹Ī": 7735,
      "aining": 7736,
      "AT": 7737,
      "åİĨåı²ä¸Ĭ": 7738,
      "ä¸İä»ĸäºº": 7739,
      "å¿ĹæĦ¿èĢħ": 7740,
      "ç¿ħ": 7741,
      "åĭĻ": 7742,
      "æľīå¤ļå°ĳ": 7743,
      "è¿ĽåĮĸ": 7744,
      "è¾ŀ": 7745,
      "æľīä»·åĢ¼çļĦ": 7746,
      "bot": 7747,
      "ä¼Ĺå¤ļ": 7748,
      "nB": 7749,
      "æµģè¡ĮçļĦ": 7750,
      "è¿½è¸ª": 7751,
      "å©ļå§»": 7752,
      "vers": 7753,
      "âĢĿãĢĤ\\": 7754,
      "æ·±å¤Ħ": 7755,
      "æĮĩæķ°": 7756,
      "çĤī": 7757,
      "ature": 7758,
      "é£İåħī": 7759,
      "åĭĥ": 7760,
      "æ¬ºè¯Ī": 7761,
      "ement": 7762,
      "é¤Ĳé¦Ĩ": 7763,
      "APP": 7764,
      "äºļé©¬": 7765,
      "åħ³æ³¨åĴĮ": 7766,
      "å®³æĢķ": 7767,
      "æķĪçİĩåĴĮè´¨éĩı": 7768,
      "çļĦçĭ¬çī¹": 7769,
      "çļĦéľĢæ±ĤåĴĮ": 7770,
      "Ġ//": 7771,
      "åºĵåŃĺ": 7772,
      "ï¼Įä»¥ä¾¿æĽ´å¥½åľ°": 7773,
      "Ġplease": 7774,
      "åĩłä½ķ": 7775,
      "æĢĸ": 7776,
      "å°ıåĿĹ": 7777,
      "åĲĦåĽ½": 7778,
      "Re": 7779,
      "ç§ĭå¤©çļĦ": 7780,
      "åľ¨å¤ĦçĲĨ": 7781,
      "åĪ©çİĩ": 7782,
      "Â²": 7783,
      "æĿİåĽĽ": 7784,
      "na": 7785,
      "åĨħåľ¨": 7786,
      "ãģª": 7787,
      "eter": 7788,
      "éħįåĲĪ": 7789,
      "åĲ«éĩı": 7790,
      "ï¼Įåį´": 7791,
      "åĩĨç¡®çļĦä¿¡æģ¯": 7792,
      "æľĢè¿ĳçļĦ": 7793,
      "æĬĺæī£": 7794,
      "èĤĸ": 7795,
      "æ°Ķè±¡": 7796,
      "co": 7797,
      "ä¸ºçĶ¨æĪ·æıĲä¾Ľ": 7798,
      "æĦıåĽ¾": 7799,
      "ä¸Ńåįİ": 7800,
      "ä½įæķ°": 7801,
      "æķ´éĻ¤": 7802,
      "çģ«è½¦": 7803,
      "ç§¯åĪĨ": 7804,
      "ãĥ¼": 7805,
      "è®¨è®ºäºĨ": 7806,
      "éľĢè¦ģçļĦ": 7807,
      "æµĨ": 7808,
      "æįŁåĿı": 7809,
      "æĨ": 7810,
      "ç½ĳä¸Ĭ": 7811,
      "æģĲæĢĸ": 7812,
      "duc": 7813,
      "ï¼Įå¯»æī¾": 7814,
      "ç²ĺ": 7815,
      "è®¾è®¡çļĦ": 7816,
      "Ġ\\).": 7817,
      "åŀ«": 7818,
      "Chorus": 7819,
      "å¹¼": 7820,
      "å¿ĺè®°": 7821,
      "è¿Ī": 7822,
      "æĸĩç«łä¸ŃæıĲåıĸ": 7823,
      "æī¿è¯º": 7824,
      "åľŁè±Ĩ": 7825,
      "å¼ķäºº": 7826,
      "bin": 7827,
      "ĠÙ": 7828,
      "ï¼Įæĺ¯åĲ¦": 7829,
      "çľĭçĶµå½±": 7830,
      "äºļé©¬éĢĬ": 7831,
      "åºĶè¯¥å¦Ĥä½ķ": 7832,
      "ç»´ä¿®": 7833,
      "è¿ĲåĬ¨åĳĺ": 7834,
      "æķ´åĲĪ": 7835,
      "æŁ±": 7836,
      "å¤ĦçĲĨåĴĮ": 7837,
      "port": 7838,
      "Ġtell": 7839,
      "æĸ¹å¼ıåĴĮ": 7840,
      "åħ¼å®¹": 7841,
      "Ġdirect": 7842,
      "ç±»ä¼¼äºİ": 7843,
      "å±ĢéĻĲ": 7844,
      "æ¸©æŁĶ": 7845,
      "Ġamount": 7846,
      "ï¼Įä¸»é¢ĺ": 7847,
      "rib": 7848,
      "max": 7849,
      "è´¾": 7850,
      "æ·Ģ": 7851,
      "é£İåĳ³": 7852,
      "ï¼īçŃī": 7853,
      "æ²¸": 7854,
      "$$Ċ": 7855,
      "å°Ĩå®ĥä»¬": 7856,
      "ä¹ŁåºĶè¯¥": 7857,
      "éģ¸": 7858,
      "åį±æľº": 7859,
      "ç§ĳæĬĢåıĳå±ķ": 7860,
      "Ġleast": 7861,
      "ï¼ĮæĶ¯æĮģ": 7862,
      "æ¸¸æĪıçļĦ": 7863,
      "èĥ½å¤Łå¸®åĬ©": 7864,
      "æľīæ°§è¿ĲåĬ¨": 7865,
      "Ġsign": 7866,
      "left": 7867,
      "æĭŁåĲĪ": 7868,
      "å¥½çľĭ": 7869,
      "ident": 7870,
      "çļĦçĲĨè§£": 7871,
      "åŃĹä½ĵ": 7872,
      "æľĪäº®": 7873,
      "çļĦç©ºæ°Ķ": 7874,
      "çļĦæīĢæľī": 7875,
      "çŁŃæľŁ": 7876,
      "ï¼Įæĥ³": 7877,
      "åľ¨è¿ĻéĩĮ": 7878,
      "Ġå¯¹": 7879,
      "åĮĹæŀģ": 7880,
      "å®ŀä¾ĭ": 7881,
      "ym": 7882,
      "çī©ä½ĵçļĦ": 7883,
      "è¡«": 7884,
      "åı¯èĥ½ä¼ļå¯¹": 7885,
      "æĢ§èĥ½åĴĮ": 7886,
      "ï¼Įçī¹åĪ«æĺ¯åľ¨": 7887,
      "ç»ĻäºĨ": 7888,
      "çļĦèĩªçĦ¶": 7889,
      "åĪĳ": 7890,
      "è¯Ńæ°Ķ": 7891,
      "å¥ĩæķ°": 7892,
      "ç»ĨèıĮ": 7893,
      "ï¼Įæ°´": 7894,
      "éħµ": 7895,
      "å°Ĭæķ¬çļĦ": 7896,
      "ç»Ŀå¯¹": 7897,
      "Jack": 7898,
      "ä¼Ĳ": 7899,
      "mer": 7900,
      "æŁľ": 7901,
      "å¸ĮèħĬ": 7902,
      "çļĦçł´åĿı": 7903,
      "ï¼Įä»ĸä»¬çļĦ": 7904,
      "è¾ĥé«ĺçļĦ": 7905,
      "åŁºç¡Ģè®¾æĸ½": 7906,
      "è½»æĿ¾åľ°": 7907,
      "Phone": 7908,
      "ä¸»è¯Ń": 7909,
      "æ±Ĥè§£": 7910,
      "èµĭäºĪ": 7911,
      "echn": 7912,
      "æĶ¿çŃĸåĴĮ": 7913,
      "æģ¶æĦı": 7914,
      "Pythonä¸Ń": 7915,
      "çļĦç¬ĳ": 7916,
      "oup": 7917,
      "Ġeff": 7918,
      "ĠWe": 7919,
      "ãĢĤéĻ¤æŃ¤ä¹ĭå¤ĸ": 7920,
      "Ġmon": 7921,
      "çĶŁçī©å¤ļæł·æĢ§": 7922,
      "ï¼Įå°ıçº¢": 7923,
      "äººåĴĮ": 7924,
      "å·¾": 7925,
      "Ġreg": 7926,
      "è¸ı": 7927,
      "Ġcare": 7928,
      "äº§åĵģæĪĸæľįåĬ¡": 7929,
      "ä¹ĲåĻ¨": 7930,
      "Pythonä»£çłģ": 7931,
      "åħļ": 7932,
      "ä¸¥æł¼çļĦ": 7933,
      "Ġ\\),": 7934,
      "æī«æıı": 7935,
      "ï¼Įåı¯ä»¥å°Ŀè¯ķ": 7936,
      "ability": 7937,
      "Ġprice": 7938,
      "çļĦçī¹å¾ģ": 7939,
      "åĲ¸å¼ķåĬĽ": 7940,
      "æµ·å¹³éĿ¢ä¸Ĭåįĩ": 7941,
      "æī®æ¼ĶçĿĢ": 7942,
      "çļĦçĹĩ": 7943,
      "å¥Ķ": 7944,
      "è¿ĺèĥ½": 7945,
      "####": 7946,
      "ãĢĤâĢĿ\\": 7947,
      "ï¼Įè¿ĽèĢĮ": 7948,
      "ä»Ģä¹Īæł·çļĦ": 7949,
      "Ġevery": 7950,
      "å®ļçĲĨ": 7951,
      "ç¶ĵ": 7952,
      "çļĦä¸į": 7953,
      "Ġclass": 7954,
      "ä½łçļĦå»ºè®®": 7955,
      "Options": 7956,
      "ï¼ĮæľĢå¥½": 7957,
      "æ¸©å®¤æ°Ķä½ĵæİĴæĶ¾": 7958,
      "Ġonly": 7959,
      "æĭħä»»": 7960,
      "string": 7961,
      "åıįå°Ħ": 7962,
      "åºĻ": 7963,
      "_{": 7964,
      "æ¸´æľĽ": 7965,
      "åĪĨåĪ«æĺ¯": 7966,
      "éĩįè¦ģæĢ§": 7967,
      "ãĢĤéĹ®é¢ĺ": 7968,
      "è¡¨è¾¾èĩªå·±çļĦ": 7969,
      "ä¿®æŃ£": 7970,
      "å¦Ĥä½ķåĪ¶ä½ľ": 7971,
      "ç§ĳåŃ¦çłĶç©¶": 7972,
      "Ġtransl": 7973,
      "é¡ŀ": 7974,
      "æ¶¨": 7975,
      "å®¢è§Ĥ": 7976,
      "Ġsquare": 7977,
      "äº§çĶŁå½±åĵį": 7978,
      "red": 7979,
      "ational": 7980,
      "å¤ĸæĺŁ": 7981,
      "Ġac": 7982,
      "è¿ĩåİ»çļĦ": 7983,
      "è¿ĩå¤ļ": 7984,
      "èµĶ": 7985,
      "çī¹åĪ«çļĦ": 7986,
      "ier": 7987,
      "åı£åı·": 7988,
      "ç¾½": 7989,
      "åı¯èĥ½å½±åĵį": 7990,
      "åľ¨ä½¿çĶ¨": 7991,
      "çĽ¸åºĶ": 7992,
      "è´¯": 7993,
      "CP": 7994,
      "æ»¥": 7995,
      "éĩįåĬĽ": 7996,
      "ams": 7997,
      "å¾Į": 7998,
      "æıĲé«ĺäºĨ": 7999,
      "çļĦæĬķèµĦ": 8000,
      "é»ĳèĥ¡æ¤Ĵ": 8001,
      "å¥¶æ²¹": 8002,
      "ä¸¥éĩįçļĦ": 8003,
      "çļĦæ®µèĲ½": 8004,
      "æĸ¯åĿ¦": 8005,
      "è¿ĩå¾Ĺ": 8006,
      "æĭĴç»Ŀ": 8007,
      "âĢĿè¿Ļä¸ª": 8008,
      "é¹ħ": 8009,
      "ux": 8010,
      "Ġå®ļæľŁ": 8011,
      "äº¤åıī": 8012,
      "æľīä¸Ģå¤©": 8013,
      "èĸ¯": 8014,
      "ï¼ļ[": 8015,
      "ä»İä»¥ä¸ĭ": 8016,
      "ä¹Łèĥ½": 8017,
      "ï¼īæĺ¯": 8018,
      "DP": 8019,
      "åľ°äº§": 8020,
      "Ġmight": 8021,
      "åĪ¶å®ļä¸Ģä¸ª": 8022,
      "éĢĿ": 8023,
      "åıĹåĪ°äºĨ": 8024,
      "Ġdifferent": 8025,
      "Ġspe": 8026,
      "çļĦæĻºèĥ½": 8027,
      "ä¼ı": 8028,
      "è¾Ľ": 8029,
      "éģ©": 8030,
      "ploy": 8031,
      "æµıè§ĪåĻ¨": 8032,
      "aint": 8033,
      "çļĦçĹĩçĬ¶": 8034,
      "ï¼ĪM": 8035,
      "ï¼Įå®ĥåı¯ä»¥": 8036,
      ")ï¼Į": 8037,
      "è¯Ńæ³ķéĶĻè¯¯": 8038,
      "å¼ķèµ·çļĦ": 8039,
      "éĨĩ": 8040,
      "åĬŀåħ¬å®¤": 8041,
      "åľ°äºĨè§£": 8042,
      "æĥħæĦŁçļĦ": 8043,
      "æ¦Ĥè¿°": 8044,
      "èĥĨ": 8045,
      "ä¸įåĲĮæĸĩåĮĸ": 8046,
      "è°ĥçłĶ": 8047,
      "åįıåĲĮ": 8048,
      "è¿Ļæ®µä»£çłģ": 8049,
      "Ñĥ": 8050,
      "ï¼Įåħ¨çĲĥ": 8051,
      "æ¸ħæĻ°çļĦ": 8052,
      "AB": 8053,
      "åıįè½¬": 8054,
      "éľĢè¦ģæł¹æį®": 8055,
      "äº§åĵģåĴĮæľįåĬ¡": 8056,
      "quence": 8057,
      "åºĶçĶ¨åľºæĻ¯": 8058,
      "ww": 8059,
      "èĥ½æºĲæ¶ĪèĢĹ": 8060,
      "å¤ļå½©": 8061,
      "å¯¼èĩ´äºĨ": 8062,
      "ï¼ļ**": 8063,
      "ãĢĤï¼Ī": 8064,
      "ï¼ļéĢīæĭ©": 8065,
      "ï¼Įä½łåı¯ä»¥ä½¿çĶ¨": 8066,
      ">>": 8067,
      "ãĢĭçļĦ": 8068,
      "Ġ×": 8069,
      "Ġag": 8070,
      "ä¼ĺéĽħ": 8071,
      "èħ¾": 8072,
      "èĤ©": 8073,
      "åĮºåĪĨ": 8074,
      "çĶŁæĢģçİ¯å¢ĥ": 8075,
      "çļĦç¤º": 8076,
      "ï¼Įä»İèĢĮå®ŀçİ°": 8077,
      "ĠHowever": 8078,
      "æĿ¥åĪ°": 8079,
      "ĠCom": 8080,
      "Ġarea": 8081,
      "ç°": 8082,
      "æ¶µçĽĸäºĨ": 8083,
      "åŃĻ": 8084,
      "ä¿Ħ": 8085,
      "ren": 8086,
      "æıĲä¾ĽæĽ´å¤ļçļĦ": 8087,
      "ä½ľä¸ºAI": 8088,
      "åı¥åŃĲçļĦ": 8089,
      "ãĢģä¸į": 8090,
      "tern": 8091,
      "wh": 8092,
      "æĸ¤": 8093,
      "çī©åĴĮ": 8094,
      "å¤§æ°Ķå±Ĥ": 8095,
      "tract": 8096,
      "ä¸Ĭæľī": 8097,
      "ãĢģåŃ¦ä¹ł": 8098,
      "ä½łæĥ³è¦ģ": 8099,
      "è¡¡éĩı": 8100,
      "éĴ¢çĲ´": 8101,
      "ï¼Įå¼ºè°ĥ": 8102,
      "çħ®çĨŁ": 8103,
      "å½»": 8104,
      "æĭĸå»¶": 8105,
      "æįķæįī": 8106,
      "ä¸ĬéĿ¢çļĦéĹ®é¢ĺ": 8107,
      "å¡ĳæĸĻè¢ĭ": 8108,
      "èģļç±»": 8109,
      "åİĭåĬĽåĴĮçĦ¦èĻĳ": 8110,
      "åĽŀçŃĶä¸ĬéĿ¢çļĦéĹ®é¢ĺ": 8111,
      "ãĢĤè®©æĪĳä»¬": 8112,
      "æ³¢çī¹": 8113,
      "åŃĹçļĦ": 8114,
      "çĤ¹çļĦ": 8115,
      "ãĢĤåŁºäºİ": 8116,
      "æĥĬåĸľ": 8117,
      "Ġsame": 8118,
      "æºĲäºİ": 8119,
      "è¿Ļä¸ªåĩ½æķ°": 8120,
      "æĽ´åħ·": 8121,
      "çļĦç²¾ç¥ŀ": 8122,
      "çĽ¸å½ĵ": 8123,
      "èĵĦ": 8124,
      "ï¼Įé¢Ħæµĭ": 8125,
      "ï¼ĮçĽ®åīį": 8126,
      "åĩºä¸Ģä¸ª": 8127,
      "ä¸ŃçļĦä¸Ģä¸ª": 8128,
      "aw": 8129,
      "è¯Ńè¨ĢçļĦ": 8130,
      "ä¸¹": 8131,
      "çĵ¦": 8132,
      "cel": 8133,
      "åĸľæ¬¢åĲĥ": 8134,
      "py": 8135,
      "åĮ»çĸĹé¢ĨåŁŁ": 8136,
      "Ġlength": 8137,
      "ç½ĳç»ľå®īåħ¨": 8138,
      "ç½Ĺé©¬": 8139,
      "Ġmost": 8140,
      "åĹ¨": 8141,
      "ï¼Īåį³": 8142,
      "ï¼Įè¿Ļæĺ¯ä¸Ģä¸ª": 8143,
      "ç®ĢçŁŃçļĦ": 8144,
      "Ġrepr": 8145,
      "æĸĩç«łçļĦ": 8146,
      "åĨ·åį´": 8147,
      "ãĢģåİĨåı²": 8148,
      "åĽŀåºĶ": 8149,
      "ĠYour": 8150,
      "å¡«åĨĻ": 8151,
      "æ·±åİļ": 8152,
      "èµł": 8153,
      "ç»Ĩèħ»": 8154,
      "ital": 8155,
      "åĽŀå®¶": 8156,
      "ments": 8157,
      "oud": 8158,
      "æĹ¥ç¨ĭ": 8159,
      "çĲĥéĺŁ": 8160,
      "ï¼Įåı¯ä»¥å¸®åĬ©æĤ¨": 8161,
      "æľīæĦıä¹ī": 8162,
      "çļĦé¦ĸ": 8163,
      "atch": 8164,
      "åĩłå¹´": 8165,
      "é¢Ħå¤ĦçĲĨ": 8166,
      "æĸ¹æ³ķåĴĮ": 8167,
      "æĳĦæ°ıåº¦": 8168,
      "Ġ%": 8169,
      "\\nä»İ": 8170,
      "åģļä»Ģä¹Ī": 8171,
      "æĺ¯ä¸Ģç§įéĿŀå¸¸": 8172,
      "OS": 8173,
      "åı¯èĥ½æĽ´": 8174,
      "çļĦçħ§": 8175,
      "çļĦåıĳçĶŁ": 8176,
      "è¿ĩçļĦ": 8177,
      "æĺİæĻº": 8178,
      "ï¼Įä¸įè¿ĩ": 8179,
      "è¿Ļæľ¬ä¹¦": 8180,
      "çŃīæĸ¹éĿ¢çļĦ": 8181,
      "æĸĲ": 8182,
      "æŃ£åĪĻ": 8183,
      "ãĢĤæ¯ıä¸ª": 8184,
      "å°ĨæĪĲä¸º": 8185,
      "è¿ĩæķı": 8186,
      "æııåĨĻ": 8187,
      "è¡Įä¸ºåĴĮ": 8188,
      "åıĳçĶŁäºĨ": 8189,
      "åŃĹæ®µ": 8190,
      "ä¸Ńæī¾åĪ°": 8191,
      "æ¶Į": 8192,
      "åı¯ä»¥å¢ŀåĬł": 8193,
      "åĨ°ç®±": 8194,
      "\\nG": 8195,
      "æ°´åĮĸåĲĪçī©": 8196,
      "Ġart": 8197,
      "éĻĮ": 8198,
      "æģ°": 8199,
      "Ġquick": 8200,
      "å¸ĤåľºèĲ¥éĶĢ": 8201,
      "Ġcommon": 8202,
      "ï¼Įéĺ³åħī": 8203,
      "vert": 8204,
      "è¡¨æĥħ": 8205,
      "(f": 8206,
      "ãĢĤè¿Ļä¸Ģ": 8207,
      "è¡¨è¾¾æĸ¹å¼ı": 8208,
      "indows": 8209,
      "éĢĤå®ľ": 8210,
      "å¼ĢæºĲ": 8211,
      "umn": 8212,
      "æľĪä»½": 8213,
      "è§Ĥæµĭ": 8214,
      "éģĵå¾·åĴĮ": 8215,
      "Ġafter": 8216,
      "å¹¶éĿŀ": 8217,
      "åģ¥åº·éĹ®é¢ĺ": 8218,
      "åĲ¬è¯´ä½ł": 8219,
      "æ£ī": 8220,
      "è¯»ä¹¦": 8221,
      "æĶ¹éĿ©": 8222,
      "çĵ·": 8223,
      "çĶµæºĲ": 8224,
      "å¦¹": 8225,
      "åħĭçļĦ": 8226,
      "ä¹Łä¸į": 8227,
      "æ¨Ļ": 8228,
      "ä¸ľäº¬": 8229,
      "è¿Ļç¯ĩæĸĩç«łä¸Ń": 8230,
      "çļĦçĤ¹": 8231,
      "mise": 8232,
      "ï¼Įé«ĺ": 8233,
      "å¸¦çĿĢ": 8234,
      "Ġdetails": 8235,
      "Ġhere": 8236,
      "nx": 8237,
      "ãĢĤå¦Ĥä½ķ": 8238,
      "åĢ¾åĲĳäºİ": 8239,
      "éĻ¤æ³ķ": 8240,
      "\\nä¸ºäºĨ": 8241,
      "è§Ĩéĩİ": 8242,
      "å±ķçİ°åĩº": 8243,
      "ale": 8244,
      "è½¬ç§»": 8245,
      "alyz": 8246,
      "é£İéĻ©ç®¡çĲĨ": 8247,
      "çļĦåĬ¨çī©": 8248,
      "Ġfr": 8249,
      "åĪ°ä½ł": 8250,
      "æŁ¿": 8251,
      "ç»ŃåĨĻ": 8252,
      "éĿ¢æĿ¡": 8253,
      "æ²Ļåıĳ": 8254,
      "çļĦæĦıä¹ī": 8255,
      "ric": 8256,
      "æ³ª": 8257,
      "å®ĿèĹı": 8258,
      "äº¤å¾Ģ": 8259,
      "(-": 8260,
      "æ±º": 8261,
      "åĽ´ç»ķ": 8262,
      "[i": 8263,
      "ç©ºè°ĥ": 8264,
      "utes": 8265,
      "Ġelse": 8266,
      "ï¼ļå½ĵ": 8267,
      "åĬŁèĥ½åĴĮ": 8268,
      "åīµ": 8269,
      "ï¼Įè¿ĻæĦıåĳ³çĿĢ": 8270,
      "éĢļå¸¸åľ¨": 8271,
      "ique": 8272,
      "å¾®ç¬ĳ": 8273,
      "erefore": 8274,
      "Ġé¦ĸåħĪ": 8275,
      "éĩĩçĶ¨äºĨ": 8276,
      "å®ŀéĻħåºĶçĶ¨ä¸Ń": 8277,
      "æĥ©": 8278,
      "æŁĶåĴĮ": 8279,
      "zy": 8280,
      "Ġprocess": 8281,
      "çļĦåľºæĻ¯": 8282,
      "çªĥ": 8283,
      "ï¼Įåİ»": 8284,
      "ĠEnglish": 8285,
      "åĴĮå°Ĭéĩį": 8286,
      "ï¼ĮæĪĳçļĦ": 8287,
      "è®¾å¤ĩåĴĮ": 8288,
      "åı¯èĥ½ä¸İ": 8289,
      "alth": 8290,
      "ins": 8291,
      "éľĢè¦ģæĽ´å¤ļçļĦ": 8292,
      "æ·±æ·±": 8293,
      "ãģŁ": 8294,
      "æķħäºĭæĥħèĬĤ": 8295,
      "éļĲç§ģåĴĮå®īåħ¨": 8296,
      "åķĨå®¶": 8297,
      "æĢ§éĹ®é¢ĺ": 8298,
      "ç®Ĺæ³ķåĴĮ": 8299,
      "åĲĪä½ľä¼Ļä¼´": 8300,
      "æĹ±": 8301,
      "åħ¬æ°ĳ": 8302,
      "è¶ħçº§": 8303,
      "ãĢĭä¸Ń": 8304,
      "å°±åĥı": 8305,
      "çļĦç¤ºä¾ĭ": 8306,
      "æĿ¡ä»¶ä¸ĭ": 8307,
      "apple": 8308,
      "å«Įçĸĳ": 8309,
      "ç¢Į": 8310,
      "ĠHere": 8311,
      "ãĢĤæıĲåıĸ": 8312,
      "ãĢĤè¿Ļæĺ¯ä¸Ģä¸ª": 8313,
      "ç¼Ŀ": 8314,
      "é¥®åĵģ": 8315,
      "çĶŁäº§åĬĽ": 8316,
      "ç¨Ģ": 8317,
      "\\néĢļè¿ĩä¸Ĭè¿°": 8318,
      "å¯»æ±Ĥä¸ĵä¸ļ": 8319,
      "å®¢äºº": 8320,
      "ï¼ļAIæĬĢæľ¯": 8321,
      "æĹ¶éĹ´è¡¨": 8322,
      "å½Ĵç±»ä¸º": 8323,
      "åĴĮé¢Ħæµĭ": 8324,
      "åĽ¾è¡¨": 8325,
      "è¤": 8326,
      "çİ«": 8327,
      "Ġmean": 8328,
      "ï¼ļæĤ¨å¥½": 8329,
      "ãĢĤçİĽä¸½": 8330,
      "çŃīå¼ı": 8331,
      "ï¼ĪAI": 8332,
      "æĺŁç³»": 8333,
      "ather": 8334,
      "çļĦä¾ĭåŃĲ": 8335,
      "å¹¶æıĲä¾Ľ": 8336,
      "åħ¨éĥ¨": 8337,
      "æľĢä½³çļĦ": 8338,
      "ï¼ĮåĬł": 8339,
      "åħ¨æĸ°çļĦ": 8340,
      "æĤŁ": 8341,
      "çļĦåĲįç§°": 8342,
      "è®¤åĲĮ": 8343,
      "ç§įåŃĲ": 8344,
      "ï¼Įä»¥éĢĤåºĶ": 8345,
      "åĩĨåĪĻ": 8346,
      "è¡¨è¿°": 8347,
      "åĨ³çŃĸæłĳ": 8348,
      "ï¼Įä½ľä¸º": 8349,
      "\\nL": 8350,
      "ï¼Įç¡®å®ļ": 8351,
      "æĿĲæĸĻåĴĮ": 8352,
      "åĩıç¼ĵ": 8353,
      "æĻ¯è±¡": 8354,
      "Ġlong": 8355,
      "ized": 8356,
      "ypot": 8357,
      "èľĤèľľ": 8358,
      "ãĢĤäººç±»": 8359,
      "ç½ĳé¡µ": 8360,
      "ç¾İè§Ĥ": 8361,
      "Ġleft": 8362,
      "æ³ķéĻ¢": 8363,
      "ä¿¡å¿ĥ": 8364,
      "æ³¨éĩĬ": 8365,
      "Ġest": 8366,
      "æ¬¾å¼ı": 8367,
      "èħĶ": 8368,
      "))\\": 8369,
      "è¡°": 8370,
      "éĥ½æľīåħ¶": 8371,
      "âĢ¦âĢ¦": 8372,
      "ãģ¾ãģĻ": 8373,
      "\\næľĢè¿ĳæľīæ²¡æľī": 8374,
      "åĢºåĪ¸": 8375,
      "åı¦ä¸Ģæĸ¹éĿ¢": 8376,
      "ï¼Įå¹¶éĢļè¿ĩ": 8377,
      "éĵĥ": 8378,
      "æĦŁåĪ°éĿŀå¸¸": 8379,
      "éĽ¶åĶ®": 8380,
      "åŃ¦ä¹łç¼ĸç¨ĭ": 8381,
      "Ġoff": 8382,
      "ãĢĤåħ·ä½ĵæĿ¥è¯´": 8383,
      "è¡Įç¨ĭ": 8384,
      "è§£è¯»": 8385,
      "åħ¶å®ŀ": 8386,
      "çº¢æ¥¼": 8387,
      "ats": 8388,
      "ï¼Įåĥı": 8389,
      "Ġintellig": 8390,
      "åı¯èĥ½ä¼ļå½±åĵį": 8391,
      "æľĢå¤ļ": 8392,
      "éĹ´çļĦ": 8393,
      "ĠAl": 8394,
      "Ġbecause": 8395,
      "è§ģè§£": 8396,
      "ç»ĻæĪĳä¸Ģä¸ª": 8397,
      "æĪ¿åľ°äº§": 8398,
      "ï¼ĮæĪĳä¼ļå°½åĬĽ": 8399,
      "Ġ,": 8400,
      "å¸ĤåľºçļĦ": 8401,
      "ï¼Įè®©äººä»¬": 8402,
      "Ġå°ı": 8403,
      "ï¼ĮåĪĨäº«": 8404,
      "æĺ¯å¯¹": 8405,
      "æĺ¯åĲ¦ä¸º": 8406,
      "%ï¼Į": 8407,
      "ä¸ĸçķĮåĲĦ": 8408,
      "ä¸»é¢ĺçļĦ": 8409,
      "çİ«çĳ°": 8410,
      "ĠRe": 8411,
      "æĮ«æĬĺ": 8412,
      "åıĳçİ°äºĨ": 8413,
      "çļĦç´§": 8414,
      "ä»ĵ": 8415,
      "æłĳåı¶": 8416,
      "ä¸ºæĪĳä»¬": 8417,
      "ä¸Ģéĥ¨åĪĨ": 8418,
      "è¯ŃéŁ³åĬ©æīĭ": 8419,
      "å¿½çķ¥": 8420,
      "å»ºèŃ°": 8421,
      "ï¼Įä»İèĢĮåĩıå°ĳ": 8422,
      "åİĭç¼©": 8423,
      "-by": 8424,
      "ãĢĤçŃĶæ¡Ī": 8425,
      "å½¢å¼ıçļĦ": 8426,
      "å¿Ļç¢Į": 8427,
      "ç¢°": 8428,
      "read": 8429,
      "çĶŁäº§æķĪçİĩ": 8430,
      "åĨħå¿ĥçļĦ": 8431,
      "ä½¿åħ¶": 8432,
      "è¡Įä¸ļä¸Ń": 8433,
      "ä¼į": 8434,
      "ÃĹ": 8435,
      "æĸĩåĮĸéģĹäº§": 8436,
      "ï¼Įè®©ä»ĸä»¬": 8437,
      "çį": 8438,
      "æµĩ": 8439,
      "å¹³åı°ä¸Ĭ": 8440,
      "random": 8441,
      "æĤłä¹ħ": 8442,
      "ï¼Łè¦ģ": 8443,
      "çļĦç¤¼": 8444,
      "éģ®": 8445,
      "ï¼Įåı¯ä»¥æıĲé«ĺ": 8446,
      "åªļ": 8447,
      "çĽ®æłĩåıĹä¼Ĺ": 8448,
      "åģļåĩºè´¡çĮ®": 8449,
      "div": 8450,
      "ï¼Įæ³¨æĦı": 8451,
      "TP": 8452,
      "Ġsupp": 8453,
      "æ¯ģ": 8454,
      "çļĦè§Ĵèī²": 8455,
      "èķ´": 8456,
      "è¯·è¾ĵåħ¥": 8457,
      "ä¸¤äººçļĦ": 8458,
      "æ°´æŀľåĴĮ": 8459,
      "åĮĸåŃ¦åıįåºĶ": 8460,
      "hesis": 8461,
      "åı¯çĪ±": 8462,
      "Ġä¸į": 8463,
      "çĶŁæĢģå¹³è¡¡": 8464,
      "åŀĭåı·": 8465,
      "æ³½": 8466,
      "å®¹éĩı": 8467,
      "Ġconf": 8468,
      "æ¼Ĥäº®": 8469,
      "æīĭæ³ķ": 8470,
      "ç¨ĭåº¦ä¸Ĭ": 8471,
      "ï¼Įè¯´æĺİ": 8472,
      "**.": 8473,
      "å¾Īå¿«": 8474,
      "èįĴ": 8475,
      "ĠWhat": 8476,
      "Ġmuch": 8477,
      "éĥ½éľĢè¦ģ": 8478,
      "Ġvalues": 8479,
      "ä¾ĽåºĶåķĨ": 8480,
      "éĻĮçĶŁ": 8481,
      "ĠåĪ©çĶ¨": 8482,
      "åĵģçīĮçļĦ": 8483,
      "åĽ½å®¶çļĦ": 8484,
      "ï¼Įçľĭ": 8485,
      "ãĢģè¯ŃéŁ³è¯ĨåĪ«": 8486,
      "å¯¹æĤ¨æľīæīĢå¸®åĬ©": 8487,
      "ç»ıæµİåıĳå±ķ": 8488,
      "è®²è§£": 8489,
      "ï¼ĮçĶŁæĪĲä¸Ģä¸ª": 8490,
      "Ġline": 8491,
      "åŃ¦ä¹łçļĦ": 8492,
      "æĸĩæľ¬è¿Ľè¡Į": 8493,
      "Ġaverage": 8494,
      "ç¼ºå¤±": 8495,
      "å°ĬéĩįåĴĮ": 8496,
      "\\nimport": 8497,
      "èĢĲå¿ĥåĴĮ": 8498,
      "ãĢĤä¸º": 8499,
      "è¢Ń": 8500,
      "ç¤¾äº¤åªĴä½ĵä¸Ĭ": 8501,
      "çºłæŃ£": 8502,
      "Ġstand": 8503,
      "\"\"": 8504,
      "ĠYou": 8505,
      "ç±³é¥Ń": 8506,
      "å¾ħéģĩ": 8507,
      "éĥ½åºĶè¯¥": 8508,
      "çģµæ´»æĢ§": 8509,
      "çº¢æ¥¼æ¢¦": 8510,
      "ç¥ŀå¥ĩ": 8511,
      "æ²Ļæ¼ł": 8512,
      "æĽ´åĬłæ³¨éĩį": 8513,
      "ç¿Ķ": 8514,
      "èŀº": 8515,
      "ç»´åº¦": 8516,
      "æĩĴ": 8517,
      "çĽ¸å¯¹è®º": 8518,
      "æĸĩç«łä¸ŃæıĲåıĸåĩº": 8519,
      "gest": 8520,
      "åĮĸå¦Ĩ": 8521,
      "æ¨¡æĿ¿": 8522,
      "ç¨ĭåºıåĳĺ": 8523,
      "ãģ¦": 8524,
      "è¡¬": 8525,
      "èĥ½åĬĽçļĦ": 8526,
      "åĽ¢éĺŁåįıä½ľ": 8527,
      "æľºåĻ¨åŃ¦ä¹łåĴĮ": 8528,
      "çĶµåĬĽ": 8529,
      "ĠCl": 8530,
      "æĪĴ": 8531,
      "å°±èĥ½": 8532,
      "ãĢģå¤ļ": 8533,
      "ï¼Įä»¥æ»¡è¶³": 8534,
      "ãĢĤæĹłè®ºæĺ¯": 8535,
      "Ġseems": 8536,
      "Ġhelpful": 8537,
      "ãĢģæĹł": 8538,
      "èį¯åĵģ": 8539,
      "AN": 8540,
      "ï¼ĮæĪĳå»ºè®®": 8541,
      "åĸĦèī¯": 8542,
      "èĪį": 8543,
      "éģĩåĪ°è¿ĩ": 8544,
      "ä¸įå°ĳ": 8545,
      "çĶ·åŃĲ": 8546,
      "éĿ¢åĲĳ": 8547,
      "å¾ŀ": 8548,
      "æ¾³": 8549,
      "åĺ´": 8550,
      "ç²¾åº¦": 8551,
      "çĶµè§Ĩåī§": 8552,
      "çĲĨçĶ±": 8553,
      "çļĦç¢": 8554,
      "å®Įæķ´çļĦ": 8555,
      "èĭ±å°º": 8556,
      "åĿĲæłĩ": 8557,
      "Ġåħĥ": 8558,
      "æ¨¡ç³Ĭ": 8559,
      "ä»Ĭå¹´": 8560,
      "Ġread": 8561,
      "æ©ĺ": 8562,
      "ustom": 8563,
      "åĨłåĨĽ": 8564,
      "ç²®": 8565,
      "ãĢģå·¥ä½ľ": 8566,
      "ãĢģä¸Ń": 8567,
      "åľ¨è¿Ļ": 8568,
      "ä¸įåĪ°": 8569,
      "Cl": 8570,
      "ï¼Įæµ·": 8571,
      "ãĢĤå¼łä¸ī": 8572,
      "$,": 8573,
      "åįĹæŀģ": 8574,
      "åĨĻä¸Ģç¯ĩåħ³äºİçİ¯ä¿ĿçļĦæĸĩç«ł": 8575,
      "ledge": 8576,
      "ãĢĤè¿Ļæĺ¯åĽłä¸º": 8577,
      "æĸĩåĮĸä¸Ń": 8578,
      "çĽ¸åħ³ä¿¡æģ¯": 8579,
      "åĲ¬ä¼Ĺ": 8580,
      "åįĵè¶Ĭ": 8581,
      "ä½ıå®¿": 8582,
      "çļĦçģ«": 8583,
      "cho": 8584,
      "App": 8585,
      "å®´": 8586,
      "åħ·ä½ĵæĥħåĨµ": 8587,
      "ï¼Įåħ¶ä¸ŃåĮħæĭ¬": 8588,
      "ï¼Įéĥ½æĺ¯": 8589,
      "é«ĺæ¸©": 8590,
      "ãĢĤçİ¯ä¿Ŀ": 8591,
      "ä¸ĬäºĨ": 8592,
      "èīºæľ¯åĪĽä½ľ": 8593,
      "åĮĸçŁ³çĩĥæĸĻ": 8594,
      "æĪĳä»¬å¯¹": 8595,
      "éħ±æ²¹": 8596,
      "æĹħæ¸¸æĻ¯çĤ¹": 8597,
      "(input": 8598,
      "åħĪè¿ĽçļĦ": 8599,
      "åĴĮçłĶç©¶": 8600,
      "thing": 8601,
      "anana": 8602,
      "ç®Ń": 8603,
      "æİ¨èįĲçļĦ": 8604,
      "å¯ĴåĨ·": 8605,
      "åĸĦäºİ": 8606,
      "Ġcurrent": 8607,
      "Ġens": 8608,
      "ãĢĤæľĢè¿ĳ": 8609,
      "å²ģæľĪ": 8610,
      "åĴĮéģĵå¾·": 8611,
      "åıªå°ı": 8612,
      "çĸı": 8613,
      "çĻ»å½ķ": 8614,
      "åĤ¨åŃĺ": 8615,
      "æĥ³æ³ķåĴĮ": 8616,
      "\\næľĢè¿ĳåľ¨": 8617,
      "éĢŁåº¦åĴĮ": 8618,
      "ĠæĬĢæľ¯": 8619,
      "æ£µ": 8620,
      "åĴĮæĪĳ": 8621,
      "æľīäºĨ": 8622,
      "åµ": 8623,
      "çļĦæµ·": 8624,
      "ertain": 8625,
      "Âł": 8626,
      "ï¼Įä»·æł¼": 8627,
      "ider": 8628,
      "çĪ±å¥½èĢħ": 8629,
      "çļĦçķĮ": 8630,
      "ï¼ĮåĮ»çĶŁ": 8631,
      "å¯¹çİ¯å¢ĥçļĦå½±åĵį": 8632,
      "ï¼ĮèĬ±": 8633,
      "èīºæľ¯ä½ľåĵģ": 8634,
      "://": 8635,
      "ms": 8636,
      "åīĬ": 8637,
      "è¿Ľè¡ĮåĪĨæŀĲ": 8638,
      "éĢĤçĶ¨": 8639,
      "æĬķèµĦç»ĦåĲĪ": 8640,
      "æĴĴä¸Ĭ": 8641,
      "ote": 8642,
      "æĶĢ": 8643,
      "åĩºçİ°åľ¨": 8644,
      "ç§ĳæĬĢåĪĽæĸ°": 8645,
      "é¦Ļèįī": 8646,
      "çļĦä»£è¡¨": 8647,
      "æ¢¨": 8648,
      "ç»Ħä»¶": 8649,
      "çļĦçĥ¤": 8650,
      "æĻĤéĸĵ": 8651,
      "Ġå½ĵçĦ¶": 8652,
      "æĸĩèīº": 8653,
      "èĢĮéĹ»åĲį": 8654,
      "\\nSo": 8655,
      "é¢ĦçĥŃ": 8656,
      "æīĭå·¥èīº": 8657,
      "çļĦåı¯èĥ½æĢ§": 8658,
      "æİ¨ç§»": 8659,
      "Ġå¤§": 8660,
      "æīĵç®Ĺ": 8661,
      "This": 8662,
      "èĭ±å¯¸": 8663,
      "åī¯ä½ľçĶ¨": 8664,
      "åĴĮæĶ¾æĿ¾": 8665,
      "å¯¹åºĶ": 8666,
      "Ġformula": 8667,
      "çĹħæĥħ": 8668,
      "ï¼Įå°½ç®¡": 8669,
      "äººä»¬å¯¹": 8670,
      "ï¼ĮéľĢ": 8671,
      "ä»Ģéº¼": 8672,
      "ç©ºæ°Ķæ±¡æŁĵ": 8673,
      "æīĩ": 8674,
      "ï¼Įä½łæľīä»Ģä¹Ī": 8675,
      "ä¸ĸçķĮä¸Ń": 8676,
      "ner": 8677,
      "ĠæľĢåĲİ": 8678,
      "Ġäººå·¥æĻºèĥ½": 8679,
      "åį¢": 8680,
      "èĢģå¹´äºº": 8681,
      "èĲ¥åħ»ç´ł": 8682,
      "æĹ¥å¿Ĺ": 8683,
      "ç¾İæĻ¯": 8684,
      "çļĦè¡¨çİ°": 8685,
      "AIåľ¨": 8686,
      "æĺŁæĺŁ": 8687,
      "ÙĬ": 8688,
      "èĳ¡èĲĦéħĴ": 8689,
      "è®¡ç®Ĺåĩº": 8690,
      "åĩ½æķ°çļĦ": 8691,
      "åħ¶ä»ĸäºº": 8692,
      "çĤİçĥŃ": 8693,
      "çļĦå®īåħ¨æĢ§": 8694,
      "down": 8695,
      "Ġwater": 8696,
      "ä¸ĸçķĮä¸Ĭ": 8697,
      "sorted": 8698,
      "é»ĳå®¢": 8699,
      "å¯Ħ": 8700,
      "äº§æĿĥ": 8701,
      "ä¹ĺå®¢": 8702,
      "Ðº": 8703,
      "ä»»æĦı": 8704,
      "åĪĨå¸ĥå¼ı": 8705,
      "æ¸¸æĪıä¸Ń": 8706,
      "å®ŀéªĮå®¤": 8707,
      "ï½ŀ": 8708,
      "æłĸæģ¯åľ°": 8709,
      "çĶŁæ¶¯": 8710,
      "ç¼ł": 8711,
      "iles": 8712,
      "iply": 8713,
      "ãĢģäººå·¥æĻºèĥ½": 8714,
      "ç§ĳæĬĢåħ¬åı¸": 8715,
      "ãĢĤäººå·¥æĻºèĥ½æĬĢæľ¯": 8716,
      "æĺ¥èĬĤ": 8717,
      "ï¼Įä¼ĺåĮĸ": 8718,
      "ï¼ļå°ı": 8719,
      "ãĢĤå¸ĮæľĽè¿ĻäºĽå»ºè®®": 8720,
      "åĳĢ": 8721,
      "æļĹç¤º": 8722,
      "ä¸įä»ħèĥ½å¤Ł": 8723,
      "å¤ķ": 8724,
      "è·³è·ĥ": 8725,
      "é«ĺéĢŁ": 8726,
      "æİ¢æµĭ": 8727,
      "ï¼Įä»¥åıĬå¦Ĥä½ķ": 8728,
      "Ġsk": 8729,
      "éģĭ": 8730,
      "åī©ä¸ĭçļĦ": 8731,
      "è®ºåĿĽ": 8732,
      "```Ċ": 8733,
      "è¡£çī©": 8734,
      "éĩĳèŀįæľºæŀĦ": 8735,
      "agr": 8736,
      "äºĨä¸Ģç³»åĪĹ": 8737,
      "Ġhad": 8738,
      "é¹¿": 8739,
      "æ£ķèī²": 8740,
      "æ¨¡æĭŁäººç±»": 8741,
      "æ¯ıä¸ªæľĭåıĭ": 8742,
      "ï¼Łæł¹æį®": 8743,
      "ä¸Ģç¯ĩæĸĩç«ł": 8744,
      "å¾®ä¿¡": 8745,
      "ä¸ĩçī©": 8746,
      "Ġtrue": 8747,
      "ï¼Įå®ĥå°Ĩ": 8748,
      "ï¼Įåħ¬åı¸": 8749,
      "æľīåħ¶ä»ĸ": 8750,
      "els": 8751,
      "åĲ¯ç¤º": 8752,
      "Ġéģ¿åħį": 8753,
      "æ·»åĬłåĪ°": 8754,
      "æĺĤ": 8755,
      "é£İèĥ½": 8756,
      "ãĢģå°ı": 8757,
      "åĬłè½½": 8758,
      "æĻĭ": 8759,
      "_t": 8760,
      "not": 8761,
      "æĻºèĥ½åĮĸçļĦ": 8762,
      "è¿ĺä¼ļ": 8763,
      "çģ¯åħī": 8764,
      "ä¹ĭä¸Ń": 8765,
      "çĽ®å½ķ": 8766,
      "me": 8767,
      "ç§ĳåŃ¦å®¶ä»¬": 8768,
      "åįķåħĥ": 8769,
      "éħ¸å¥¶": 8770,
      "åĪ©äºİ": 8771,
      "åı¯ä»¥å¸®åĬ©äººä»¬": 8772,
      "ï¼Įä¹Łå°±æĺ¯": 8773,
      "åĴĮä¼ģä¸ļ": 8774,
      "æľīä¸įåĲĮçļĦ": 8775,
      "åīįè¿Ľ": 8776,
      "Ġrefer": 8777,
      "ç¬¬ä¸Ģæ¬¡": 8778,
      "ãĢĤæį®": 8779,
      "ĠéĤ£": 8780,
      "çļĦåĴĮ": 8781,
      "ï¼Įä»İèĢĮæĽ´å¥½åľ°": 8782,
      "å¸®å¿Ļ": 8783,
      "çŁ¥è¯ĨçļĦ": 8784,
      "é»Ħéĩĳ": 8785,
      "ï¼Įæ¯ıæ¬¡": 8786,
      "ius": 8787,
      "åħ¶åľ¨": 8788,
      "é¥®é£ŁåĴĮ": 8789,
      "%ãĢĤ": 8790,
      "ï¼Įä¿Ŀè¯ģ": 8791,
      "åĤ¬": 8792,
      "count": 8793,
      "ï¼Įåıªè¦ģ": 8794,
      "è¿Ļæ¬¾": 8795,
      "ï¼ģâĢĿ": 8796,
      "ech": 8797,
      "æľīçĶ¨": 8798,
      "å¸Ń": 8799,
      "éĺ²æĻĴ": 8800,
      "ä»¥ä¸ĭæĺ¯ä¸Ģæ®µ": 8801,
      "ï¼Įä»¥ä¿ĿæĮģ": 8802,
      "ï¼Įæİ¢ç´¢": 8803,
      "åĨĻä¸Ģé¦ĸ": 8804,
      "æĺ¯çĶ±äºİ": 8805,
      "hip": 8806,
      "åģľè½¦": 8807,
      "å®ı": 8808,
      "çĲ³": 8809,
      "ï¼ĮæĪĳä»¬ä¼ļ": 8810,
      "è®¡åĪĴåĴĮ": 8811,
      "æ³¢éĤ£": 8812,
      "åĬłæ³ķ": 8813,
      "ç¥ĸ": 8814,
      "å¤ĩåıĹ": 8815,
      "æĳĦåĥı": 8816,
      "Ġjum": 8817,
      "ctions": 8818,
      "ï¼ĮåĲ¦åĪĻ": 8819,
      "çĽ´å¾Ħ": 8820,
      "ä»½é¢Ŀ": 8821,
      "ãĢĤä»¥ä¸ĭæĺ¯ä¸ĢäºĽå»ºè®®": 8822,
      "Ġprogram": 8823,
      "é£İæł¼çļĦ": 8824,
      "æķıæį·": 8825,
      "Ġwere": 8826,
      "éľį": 8827,
      "åħ¨çĲĥèĮĥåĽ´åĨħ": 8828,
      "æĺİåªļ": 8829,
      "get": 8830,
      "æŀģå¤§åľ°": 8831,
      "Ġtimes": 8832,
      "æĢİä¹Īåģļ": 8833,
      "ÃŃ": 8834,
      "éĿŀå¸¸å¹¿æ³Ľ": 8835,
      "çķªèĮĦéħ±": 8836,
      "è°ĥåĳ³æĸĻ": 8837,
      "ĠåŃ¦ä¹ł": 8838,
      "ird": 8839,
      "ä½¿çĶ¨Python": 8840,
      "ç»µ": 8841,
      "å°ĳæķ°": 8842,
      "ĠĠĠĠĠ": 8843,
      "ield": 8844,
      "Ġcar": 8845,
      "è¯´æ³ķ": 8846,
      "ä»·åĢ¼åĴĮ": 8847,
      "è§Ĩè§īæķĪæŀľ": 8848,
      "æħ°": 8849,
      "ä¸Ģåħ±": 8850,
      "äºĭåĬ¡": 8851,
      "é¤Ĳé¥®": 8852,
      "å¿łè¯ļåº¦": 8853,
      "æ³¢éĤ£å¥ĳ": 8854,
      "æ¼ĶåĮĸ": 8855,
      "æĬĢæľ¯çļĦä¸įæĸŃåıĳå±ķ": 8856,
      "åĩıè½»åİĭåĬĽ": 8857,
      "å§Ĳ": 8858,
      "å»ºçŃĳçī©": 8859,
      "ï¼ļè¯¥": 8860,
      "ç¿»è¯ĳæĪĲèĭ±æĸĩ": 8861,
      "æĭĨ": 8862,
      "Ġperform": 8863,
      "åľ¨æŁĲäºĽæĥħåĨµä¸ĭ": 8864,
      "Ġfl": 8865,
      "è¿Ļä¹Ī": 8866,
      "éĤ¦": 8867,
      "æĸĲæ³¢éĤ£å¥ĳ": 8868,
      "ãĢĤåı¯ä»¥ä½¿çĶ¨": 8869,
      "å¤º": 8870,
      "å¸®æĤ¨": 8871,
      "åİŁæĿ¥": 8872,
      "ç§ĳå¹»å°ıè¯´": 8873,
      "æŀļ": 8874,
      "é¦ĻæĸĻ": 8875,
      "çĭ¼": 8876,
      "æ¶Īè´¹èĢħçļĦ": 8877,
      "GB": 8878,
      "PI": 8879,
      "éĩįè¦ģçļĦè§Ĵèī²": 8880,
      "ç»©æķĪ": 8881,
      "éĿ¢ä¸Ĭ": 8882,
      "åĩºåİ»": 8883,
      "æľīäºº": 8884,
      "çĶµåŃĲè®¾å¤ĩ": 8885,
      "çļĦçª": 8886,
      "çļĦçı": 8887,
      "æĹ¶ä¼ļ": 8888,
      "ä¼ŀ": 8889,
      "ä¸įéĶĻçļĦéĢīæĭ©": 8890,
      "æıĲé«ĺèĩªå·±çļĦ": 8891,
      "Ġright": 8892,
      "å¼ºçĥĪçļĦ": 8893,
      "çļĦè·Ŀç¦»": 8894,
      "çļĦçľŁå®ŀ": 8895,
      "Ġrandom": 8896,
      "åĩłä¹İ": 8897,
      "ä¹ĺåĿĲ": 8898,
      "ç»ĻæĪĳä»¬": 8899,
      "ï¼Įéģ¿åħįè¿ĩåº¦": 8900,
      "è´¢åĬ¡çĬ¶åĨµ": 8901,
      "appy": 8902,
      "\\nè¦ģ": 8903,
      "åı£ç½©": 8904,
      "ãĢĤâĢĿĊ": 8905,
      "è¥¿æĸ¹": 8906,
      "ï¼Łä½ł": 8907,
      "Ġloc": 8908,
      "ä½İç¢³": 8909,
      "ift": 8910,
      "èĽĩ": 8911,
      "åľ¨ä¸įåĲĮçļĦ": 8912,
      "é¢ĺæĿĲ": 8913,
      "åĴĮåİĭåĬĽ": 8914,
      "æĵĩ": 8915,
      "ä¸Ģä¸ªæĸ°çļĦ": 8916,
      "å°ıéķĩ": 8917,
      "ç§ĳæĬĢçļĦåıĳå±ķ": 8918,
      "Ġwords": 8919,
      "åĿĲåľ¨": 8920,
      "ãĢģåģ¥åº·": 8921,
      "cept": 8922,
      "åĮ»çĸĹæľįåĬ¡": 8923,
      "ç§įæĹıæŃ§è§Ĩ": 8924,
      "ä¸ĭéĽ¨": 8925,
      "æħ¢æĢ§": 8926,
      "Ġ)": 8927,
      "å¼¥": 8928,
      "èĥ½å¤ŁæĽ´å¥½åľ°": 8929,
      "çļĦæľīæķĪ": 8930,
      "å¦¥": 8931,
      "è¡ĮæĶ¿": 8932,
      "Ã³": 8933,
      "(a": 8934,
      "Ġä¸İ": 8935,
      "çĶ¨æĪ·è¾ĵåħ¥": 8936,
      "`ãĢĤ": 8937,
      "Ġå¤ļ": 8938,
      "å¤´èĦĳ": 8939,
      "åĻªéŁ³": 8940,
      "å®ŀä¹ł": 8941,
      "çļĦæ¸©åº¦": 8942,
      "å°¼äºļ": 8943,
      "å¥½åĥı": 8944,
      "åįĥåħĭ": 8945,
      "éģ¸æĵĩ": 8946,
      "å·²ç»ıå¼Ģå§ĭ": 8947,
      "çĩķéº¦": 8948,
      "çļĦåĳ³éģĵ": 8949,
      "ãĢģæĥħæĦŁ": 8950,
      "æŃ¦åĻ¨": 8951,
      "å¤©æĸĩåŃ¦": 8952,
      "èµ°äºĨ": 8953,
      "é»ŀ": 8954,
      "\\nè¿ĻäºĽ": 8955,
      "ä¸ŃéĢīæĭ©": 8956,
      "å·²æĪĲä¸º": 8957,
      "Ġknowledge": 8958,
      "Ġthree": 8959,
      "çĽ¸éģĩ": 8960,
      "è§ĴèĲ½": 8961,
      "æĹ¶éĹ´çļĦæİ¨ç§»": 8962,
      "åģļä¸ĢäºĽ": 8963,
      "\")\\": 8964,
      "Ø±": 8965,
      "æĪĸæĺ¯": 8966,
      "ï¼ļéļıçĿĢ": 8967,
      "ny": 8968,
      "éŀĭåŃĲ": 8969,
      "æĶ¶èİ·": 8970,
      "å°ıå·§": 8971,
      "èĤ¢": 8972,
      "è¾ĥå¤§": 8973,
      "åį·ç§¯": 8974,
      "hed": 8975,
      "ãĢĤè¯·æ³¨æĦı": 8976,
      "ï¼Įå¸®åĬ©ä½ł": 8977,
      "ä¹ĺç§¯": 8978,
      "è¿Ļå®¶": 8979,
      "çĸĹæ³ķ": 8980,
      "æ¯«åįĩ": 8981,
      "ï¼ĮC": 8982,
      "è®²è¿°äºĨ": 8983,
      "è¯ŀ": 8984,
      "å®ĥä»¬åľ¨": 8985,
      "è¯¯å·®": 8986,
      "ï¼ļï¼Ī": 8987,
      "ï¼Įè¿Ļä½¿å¾Ĺ": 8988,
      "çĭ®åŃĲ": 8989,
      "Ġcap": 8990,
      "ision": 8991,
      "ä¾ĿçĦ¶": 8992,
      "çļĦå£°éŁ³": 8993,
      "Ġsent": 8994,
      "è¿Ļä»½": 8995,
      "ä¿¡å¿µ": 8996,
      "ason": 8997,
      "ï¼Įä»¥å®ŀçİ°": 8998,
      "æ¨Ĥ": 8999,
      "HTML": 9000,
      "htt": 9001,
      "æķ£æĸĩ": 9002,
      "Ġåĩıå°ĳ": 9003,
      "Ġserv": 9004,
      "è¿Ļä¸ªåı¥åŃĲ": 9005,
      "çĶŁæľº": 9006,
      "å°Ĩè¿ĻäºĽ": 9007,
      "æķ°æį®æĿ¥": 9008,
[...]
