{
  "version": "1.0",
  "truncation": null,
  "padding": null,
  "added_tokens": [
    {
      "id": 0,
      "content": "<pad>",
      "single_word": false,
      "lstrip": false,
      "rstrip": false,
      "normalized": false,
      "special": true
    },
    {
      "id": 16000,
      "content": "<|endoftext|>",
      "single_word": false,
      "lstrip": false,
      "rstrip": false,
      "normalized": false,
      "special": true
    },
    {
      "id": 16001,
      "content": "<|im_start|>",
      "single_word": false,
      "lstrip": false,
      "rstrip": false,
      "normalized": false,
      "special": true
    },
    {
      "id": 16002,
      "content": "<|im_end|>",
      "single_word": false,
      "lstrip": false,
      "rstrip": false,
      "normalized": false,
      "special": true
    },
    {
      "id": 16003,
      "content": "<|object_ref_start|>",
      "single_word": false,
      "lstrip": false,
      "rstrip": false,
      "normalized": false,
      "special": true
    },
    {
      "id": 16004,
      "content": "<|object_ref_end|>",
      "single_word": false,
      "lstrip": false,
      "rstrip": false,
      "normalized": false,
      "special": true
    },
    {
      "id": 16005,
      "content": "<|box_start|>",
      "single_word": false,
      "lstrip": false,
      "rstrip": false,
      "normalized": false,
      "special": true
    },
    {
      "id": 16006,
      "content": "<|box_end|>",
      "single_word": false,
      "lstrip": false,
      "rstrip": false,
      "normalized": false,
      "special": true
    },
    {
      "id": 16007,
      "content": "<|quad_start|>",
      "single_word": false,
      "lstrip": false,
      "rstrip": false,
      "normalized": false,
      "special": true
    },
    {
      "id": 16008,
      "content": "<|quad_end|>",
      "single_word": false,
      "lstrip": false,
      "rstrip": false,
      "normalized": false,
      "special": true
    },
    {
      "id": 16009,
      "content": "<|vision_start|>",
      "single_word": false,
      "lstrip": false,
      "rstrip": false,
      "normalized": false,
      "special": true
    },
    {
      "id": 16010,
      "content": "<|vision_end|>",
      "single_word": false,
      "lstrip": false,
      "rstrip": false,
      "normalized": false,
      "special": true
    },
    {
      "id": 16011,
      "content": "<|vision_pad|>",
      "single_word": false,
      "lstrip": false,
      "rstrip": false,
      "normalized": false,
      "special": true
    },
    {
      "id": 16012,
      "content": "<|image_pad|>",
      "single_word": false,
      "lstrip": false,
      "rstrip": false,
      "normalized": false,
      "special": true
    },
    {
      "id": 16013,
      "content": "<|video_pad|>",
      "single_word": false,
      "lstrip": false,
      "rstrip": false,
      "normalized": false,
      "special": true
    },
    {
      "id": 16014,
      "content": "<think>",
      "single_word": false,
      "lstrip": false,
      "rstrip": false,
      "normalized": false,
      "special": false
    },
    {
      "id": 16015,
      "content": "</think>",
      "single_word": false,
      "lstrip": false,
      "rstrip": false,
      "normalized": false,
      "special": false
    },
    {
      "id": 16016,
      "content": "<tool_call>",
      "single_word": false,
      "lstrip": false,
      "rstrip": false,
      "normalized": false,
      "special": false
    },
    {
      "id": 16017,
      "content": "</tool_call>",
      "single_word": false,
      "lstrip": false,
      "rstrip": false,
      "normalized": false,
      "special": false
    },
    {
      "id": 16018,
      "content": "<tool_response>",
      "single_word": false,
      "lstrip": false,
      "rstrip": false,
      "normalized": false,
      "special": false
    },
    {
      "id": 16019,
      "content": "</tool_response>",
      "single_word": false,
      "lstrip": false,
      "rstrip": false,
      "normalized": false,
      "special": false
    },
    {
      "id": 16020,
      "content": "<|fim_prefix|>",
      "single_word": false,
      "lstrip": false,
      "rstrip": false,
      "normalized": false,
      "special": false
    },
    {
      "id": 16021,
      "content": "<|fim_middle|>",
      "single_word": false,
      "lstrip": false,
      "rstrip": false,
      "normalized": false,
      "special": false
    },
    {
      "id": 16022,
      "content": "<|fim_suffix|>",
      "single_word": false,
      "lstrip": false,
      "rstrip": false,
      "normalized": false,
      "special": false
    },
    {
      "id": 16023,
      "content": "<|fim_pad|>",
      "single_word": false,
      "lstrip": false,
      "rstrip": false,
      "normalized": false,
      "special": false
    },
    {
      "id": 16024,
      "content": "<|repo_name|>",
      "single_word": false,
      "lstrip": false,
      "rstrip": false,
      "normalized": false,
      "special": false
    },
    {
      "id": 16025,
      "content": "<|file_sep|>",
      "single_word": false,
      "lstrip": false,
      "rstrip": false,
      "normalized": false,
      "special": false
    },
    {
      "id": 16026,
      "content": "<unk>",
      "single_word": false,
      "lstrip": false,
      "rstrip": false,
      "normalized": false,
      "special": true
    }
  ],
  "normalizer": {
    "type": "NFC"
  },
  "pre_tokenizer": {
    "type": "Sequence",
    "pretokenizers": [
      {
        "type": "Split",
        "pattern": {
          "Regex": "(?i:'s|'t|'re|'ve|'m|'ll|'d)|[^\\r\\n\\p{L}\\p{N}]?\\p{L}+|\\p{N}| ?[^\\s\\p{L}\\p{N}]+[\\r\\n]*|\\s*[\\r\\n]+|\\s+(?!\\S)|\\s+"
        },
        "behavior": "Isolated",
        "invert": false
      },
      {
        "type": "ByteLevel",
        "add_prefix_space": false,
        "trim_offsets": false,
        "use_regex": false
      }
    ]
  },
  "post_processor": {
    "type": "ByteLevel",
    "add_prefix_space": false,
    "trim_offsets": false,
    "use_regex": false
  },
  "decoder": {
    "type": "ByteLevel",
    "add_prefix_space": true,
    "trim_offsets": true,
    "use_regex": true
  },
  "model": {
    "type": "BPE",
    "dropout": null,
    "unk_token": null,
    "continuing_subword_prefix": null,
    "end_of_word_suffix": null,
    "fuse_unk": false,
    "byte_fallback": false,
    "ignore_merges": false,
    "vocab": {
      "<pad>": 0,
      "!": 1,
      "\"": 2,
      "#": 3,
      "$": 4,
      "%": 5,
      "&": 6,
      "'": 7,
      "(": 8,
      ")": 9,
      "*": 10,
      "+": 11,
      ",": 12,
      "-": 13,
      ".": 14,
      "/": 15,
      "0": 16,
      "1": 17,
      "2": 18,
      "3": 19,
      "4": 20,
      "5": 21,
      "6": 22,
      "7": 23,
      "8": 24,
      "9": 25,
      ":": 26,
      ";": 27,
      "<": 28,
      "=": 29,
      ">": 30,
      "?": 31,
      "@": 32,
      "A": 33,
      "B": 34,
      "C": 35,
      "D": 36,
      "E": 37,
      "F": 38,
      "G": 39,
      "H": 40,
      "I": 41,
      "J": 42,
      "K": 43,
      "L": 44,
      "M": 45,
      "N": 46,
      "O": 47,
      "P": 48,
      "Q": 49,
      "R": 50,
      "S": 51,
      "T": 52,
      "U": 53,
      "V": 54,
      "W": 55,
      "X": 56,
      "Y": 57,
      "Z": 58,
      "[": 59,
      "\\": 60,
      "]": 61,
      "^": 62,
      "_": 63,
      "`": 64,
      "a": 65,
      "b": 66,
      "c": 67,
      "d": 68,
      "e": 69,
      "f": 70,
      "g": 71,
      "h": 72,
      "i": 73,
      "j": 74,
      "k": 75,
      "l": 76,
      "m": 77,
      "n": 78,
      "o": 79,
      "p": 80,
      "q": 81,
      "r": 82,
      "s": 83,
      "t": 84,
      "u": 85,
      "v": 86,
      "w": 87,
      "x": 88,
      "y": 89,
      "z": 90,
      "{": 91,
      "|": 92,
      "}": 93,
      "~": 94,
      "¡": 95,
      "¢": 96,
      "£": 97,
      "¤": 98,
      "¥": 99,
      "¦": 100,
      "§": 101,
      "¨": 102,
      "©": 103,
      "ª": 104,
      "«": 105,
      "¬": 106,
      "®": 107,
      "¯": 108,
      "°": 109,
      "±": 110,
      "²": 111,
      "³": 112,
      "´": 113,
      "µ": 114,
      "¶": 115,
      "·": 116,
      "¸": 117,
      "¹": 118,
      "º": 119,
      "»": 120,
      "¼": 121,
      "½": 122,
      "¾": 123,
      "¿": 124,
      "À": 125,
      "Á": 126,
      "Â": 127,
      "Ã": 128,
      "Ä": 129,
      "Å": 130,
      "Æ": 131,
      "Ç": 132,
      "È": 133,
      "É": 134,
      "Ê": 135,
      "Ë": 136,
      "Ì": 137,
      "Í": 138,
      "Î": 139,
      "Ï": 140,
      "Ð": 141,
      "Ñ": 142,
      "Ò": 143,
      "Ó": 144,
      "Ô": 145,
      "Õ": 146,
      "Ö": 147,
      "×": 148,
      "Ø": 149,
      "Ù": 150,
      "Ú": 151,
      "Û": 152,
      "Ü": 153,
      "Ý": 154,
      "Þ": 155,
      "ß": 156,
      "à": 157,
      "á": 158,
      "â": 159,
      "ã": 160,
      "ä": 161,
      "å": 162,
      "æ": 163,
      "ç": 164,
      "è": 165,
      "é": 166,
      "ê": 167,
      "ë": 168,
      "ì": 169,
      "í": 170,
      "î": 171,
      "ï": 172,
      "ð": 173,
      "ñ": 174,
      "ò": 175,
      "ó": 176,
      "ô": 177,
      "õ": 178,
      "ö": 179,
      "÷": 180,
      "ø": 181,
      "ù": 182,
      "ú": 183,
      "û": 184,
      "ü": 185,
      "ý": 186,
      "þ": 187,
      "ÿ": 188,
      "Ā": 189,
      "ā": 190,
      "Ă": 191,
      "ă": 192,
      "Ą": 193,
      "ą": 194,
      "Ć": 195,
      "ć": 196,
      "Ĉ": 197,
      "ĉ": 198,
      "Ċ": 199,
      "ċ": 200,
      "Č": 201,
      "č": 202,
      "Ď": 203,
      "ď": 204,
      "Đ": 205,
      "đ": 206,
      "Ē": 207,
      "ē": 208,
      "Ĕ": 209,
      "ĕ": 210,
      "Ė": 211,
      "ė": 212,
      "Ę": 213,
      "ę": 214,
      "Ě": 215,
      "ě": 216,
      "Ĝ": 217,
      "ĝ": 218,
      "Ğ": 219,
      "ğ": 220,
      "Ġ": 221,
      "ġ": 222,
      "Ģ": 223,
      "ģ": 224,
      "Ĥ": 225,
      "ĥ": 226,
      "Ħ": 227,
      "ħ": 228,
      "Ĩ": 229,
      "ĩ": 230,
      "Ī": 231,
      "ī": 232,
      "Ĭ": 233,
      "ĭ": 234,
      "Į": 235,
      "į": 236,
      "İ": 237,
      "ı": 238,
      "Ĳ": 239,
      "ĳ": 240,
      "Ĵ": 241,
      "ĵ": 242,
      "Ķ": 243,
      "ķ": 244,
      "ĸ": 245,
      "Ĺ": 246,
      "ĺ": 247,
      "Ļ": 248,
      "ļ": 249,
      "Ľ": 250,
      "ľ": 251,
      "Ŀ": 252,
      "ŀ": 253,
      "Ł": 254,
      "ł": 255,
      "Ń": 256,
      "ä¸": 257,
      "ï¼": 258,
      "çļ": 259,
      "ï¼Į": 260,
      "çļĦ": 261,
      "ãĢ": 262,
      "ãĢĤ": 263,
      "ä»": 264,
      "äº": 265,
      "åı": 266,
      "æľ": 267,
      "æĪ": 268,
      "è¿": 269,
      "ä¸Ģ": 270,
      "åħ": 271,
      "è¯": 272,
      "æĺ": 273,
      "å¤": 274,
      "ä½": 275,
      "åĪ": 276,
      "åľ": 277,
      "çĶ": 278,
      "åĲ": 279,
      "åĴ": 280,
      "å®": 281,
      "åĴĮ": 282,
      "æĺ¯": 283,
      "ä¹": 284,
      "æĸ": 285,
      "ä¸ª": 286,
      "čĊ": 287,
      "ç»": 288,
      "åĬ": 289,
      "ä»¥": 290,
      "å°": 291,
      "åŃ": 292,
      "æĪĳ": 293,
      "ãĢģ": 294,
      "åľ¨": 295,
      "è®": 296,
      "åı¯": 297,
      "çļĦæ": 298,
      "è¿Ļ": 299,
      "æľī": 300,
      "ï¼Įå": 301,
      "çī": 302,
      "ĥ½": 303,
      "éĢ": 304,
      "äºº": 305,
      "éĩ": 306,
      "æĿ": 307,
      "ä¸Ń": 308,
      "å¥": 309,
      "æĹ": 310,
      "åº": 311,
      "ä¸º": 312,
      "å¸": 313,
      "ï¼ļ": 314,
      "è¡": 315,
      "åĩ": 316,
      "æķ": 317,
      "ãĢĤčĊ": 318,
      "äºĨ": 319,
      "åĽ": 320,
      "ç§": 321,
      "åı¯ä»¥": 322,
      "ä¼": 323,
      "èĥ½": 324,
      "å¾": 325,
      "çŃ": 326,
      "éĹ": 327,
      "éĿ": 328,
      "è§": 329,
      "é¢": 330,
      "âĢ": 331,
      "åĨ": 332,
      "å½": 333,
      "è¦": 334,
      "è¦ģ": 335,
      "ä¸Ģä¸ª": 336,
      "ä»¬": 337,
      "çĶ¨": 338,
      "æŃ": 339,
      "å¹": 340,
      "¦Ĥ": 341,
      "å¼": 342,
      "åį": 343,
      "ä¸į": 344,
      "èĢ": 345,
      "æī": 346,
      "åĮ": 347,
      "çİ": 348,
      "å·": 349,
      "æŀ": 350,
      "å¯": 351,
      "æĦ": 352,
      "æł": 353,
      "ä½ł": 354,
      "æĢ": 355,
      "æĥ": 356,
      "çĶŁ": 357,
      "çĽ": 358,
      "åĳ": 359,
      "ä¸ĭ": 360,
      "å¥½": 361,
      "åĵ": 362,
      "æ°": 363,
      "æ³": 364,
      "æĪĲ": 365,
      "æĸĩ": 366,
      "æĿ¥": 367,
      "åĪ°": 368,
      "èĩ": 369,
      "ï¼Ł": 370,
      "å¦Ĥ": 371,
      "æĭ": 372,
      "æı": 373,
      "çī©": 374,
      "åŃĲ": 375,
      "äºİ": 376,
      "çŃī": 377,
      "ä¸Ĭ": 378,
      "åĩº": 379,
      "æĤ": 380,
      "æĬ": 381,
      "æ¯": 382,
      "è¾": 383,
      "ä¾": 384,
      "å¤©": 385,
      "å¿": 386,
      "æķ°": 387,
      "åľ°": 388,
      "çĲ": 389,
      "åİ": 390,
      "ä¿": 391,
      "æĽ": 392,
      "æİ": 393,
      "è¡Į": 394,
      "äºĽ": 395,
      "æµ": 396,
      "èī": 397,
      "è´": 398,
      "æĻ": 399,
      "é£": 400,
      "éľ": 401,
      "å¤§": 402,
      "çļĦç": 403,
      "å®ĥ": 404,
      "é¢ĺ": 405,
      "ä»ĸ": 406,
      "éĿ¢": 407,
      "æĸ¹": 408,
      "æĹ¶": 409,
      "èµ": 410,
      "åĪĨ": 411,
      "æ¸": 412,
      "æĤ¨": 413,
      "èĩª": 414,
      "ä½ľ": 415,
      "å°ı": 416,
      "ç±": 417,
      "è¯·": 418,
      "çº": 419,
      "éľĢ": 420,
      "æľĢ": 421,
      "å°Ĩ": 422,
      "å¤ļ": 423,
      "ä¼ļ": 424,
      "æį": 425,
      "åĬ¨": 426,
      "çĦ": 427,
      "å±": 428,
      "éĹ®": 429,
      "åŃ¦": 430,
      "æ¬": 431,
      "æŀľ": 432,
      "ç®": 433,
      "çİ°": 434,
      "å¯¹": 435,
      "æĪĸ": 436,
      "ç§į": 437,
      "çĦ¶": 438,
      "æĶ": 439,
      "æıĲ": 440,
      "èĬ": 441,
      "æĦŁ": 442,
      "åħ³": 443,
      "æ²": 444,
      "æĽ´": 445,
      "åħ¶": 446,
      "èī²": 447,
      "ç»Ļ": 448,
      "âĢĿ": 449,
      "âĢľ": 450,
      "æĪĳä»¬": 451,
      "æĮ": 452,
      "è¿ĩ": 453,
      "å¸¸": 454,
      "éľĢè¦ģ": 455,
      "ä¹Ī": 456,
      "è½": 457,
      "æ³ķ": 458,
      "åĬł": 459,
      "åıĳ": 460,
      "åĵģ": 461,
      "åĲĮ": 462,
      "ä½ĵ": 463,
      "¾İ": 464,
      "å®ļ": 465,
      "æ´": 466,
      "è¯Ń": 467,
      "æį®": 468,
      "è°": 469,
      "è¡¨": 470,
      "ç±»": 471,
      "ä¹Ł": 472,
      "çĤ": 473,
      "éĻ": 474,
      "é¦": 475,
      "éĺ": 476,
      "ä¹ĭ": 477,
      "æĥħ": 478,
      "æľ¬": 479,
      "è¿Ļä¸ª": 480,
      "åº¦": 481,
      "è¿Ľ": 482,
      "çĿ": 483,
      "éģ": 484,
      "æŃ¤": 485,
      "åĬĽ": 486,
      "å¥½çļĦ": 487,
      "éĩı": 488,
      "æ±": 489,
      "çľ": 490,
      "éĤ": 491,
      "åŁ": 492,
      "åĮĸ": 493,
      "è§£": 494,
      "ç«": 495,
      "é«": 496,
      "é«ĺ": 497,
      "åı¥": 498,
      "ç¾İ": 499,
      "ä½¿": 500,
      "ç³": 501,
      "å¾Ĺ": 502,
      "èĢĮ": 503,
      "éĢļ": 504,
      "æĢ§": 505,
      "çĿĢ": 506,
      "åħ¥": 507,
      "æ°Ķ": 508,
      "çĲĨ": 509,
      "åĲİ": 510,
      "éĹ®é¢ĺ": 511,
      "æĥ³": 512,
      "åĲĪ": 513,
      "ç¨": 514,
      "èĤ": 515,
      "éĤ£": 516,
      "è¶": 517,
      "å®¶": 518,
      "æĦı": 519,
      "åºĶ": 520,
      "æľº": 521,
      "åģ": 522,
      "åĢ": 523,
      "å½ĵ": 524,
      "ä¸»": 525,
      "çĥ": 526,
      "æģ": 527,
      "çŁ": 528,
      "çĶµ": 529,
      "å·¥": 530,
      "è®¡": 531,
      "éħ": 532,
      "æĸ°": 533,
      "èį": 534,
      "åĸ": 535,
      "è®©": 536,
      "çĽ¸": 537,
      "ä¸ĢäºĽ": 538,
      "èĢħ": 539,
      "éĩĮ": 540,
      "åī": 541,
      "æīĢ": 542,
      "å½±": 543,
      "éĹ´": 544,
      "ç¬": 545,
      "in": 546,
      "è¯į": 547,
      "æĺİ": 548,
      "åĽł": 549,
      "æ·": 550,
      "åĲį": 551,
      "æ¯Ķ": 552,
      "å¼ı": 553,
      "æ°´": 554,
      "çĤ¹": 555,
      "ï¼ĮæĪĳ": 556,
      "ç¤": 557,
      "å¿ĥ": 558,
      "éĶ": 559,
      "éĩį": 560,
      "éĥ½": 561,
      "å¹´": 562,
      "åŃĹ": 563,
      "ç©": 564,
      "åħ¬": 565,
      "ä¾Ľ": 566,
      "äºĭ": 567,
      "çī¹": 568,
      "è¿ĺ": 569,
      "ç¨ĭ": 570,
      "çķ": 571,
      "éĿŀ": 572,
      "ï¼Įå¹": 573,
      "ç®Ĺ": 574,
      "åħ·": 575,
      "éķ": 576,
      "éĢī": 577,
      "çĭ": 578,
      "è¯´": 579,
      "å¤ĸ": 580,
      "åįķ": 581,
      "ä¿Ŀ": 582,
      "è·": 583,
      "æł¹": 584,
      "è¿°": 585,
      "åĨĻ": 586,
      "ä»¥ä¸ĭ": 587,
      "å¾Ī": 588,
      "ç´": 589,
      "çĪ": 590,
      "æıĲä¾Ľ": 591,
      "ï¼Įå¹¶": 592,
      "é¡": 593,
      "ç¡": 594,
      "æŁ": 595,
      "çĲĥ": 596,
      "ä¸İ": 597,
      "éĢĤ": 598,
      "ç»ı": 599,
      "é£Ł": 600,
      "ä¿¡": 601,
      "è¢": 602,
      "èĲ": 603,
      "ä»£": 604,
      "ä½¿çĶ¨": 605,
      "éĽ": 606,
      "ç½": 607,
      "èµ·": 608,
      "åĿ": 609,
      "»º": 610,
      "ä»Ģ": 611,
      "ä»Ģä¹Ī": 612,
      "æĻº": 613,
      "æł¹æį®": 614,
      "é»": 615,
      "ä½Ĩ": 616,
      "ç³»": 617,
      "å¼Ģ": 618,
      "é£İ": 619,
      "æĺ¯ä¸Ģ": 620,
      "ãĢĤå¥½çļĦ": 621,
      "éģĵ": 622,
      "éķ¿": 623,
      "éĿŀå¸¸": 624,
      "å¸®": 625,
      "æĹł": 626,
      "è¯¥": 627,
      "æ»": 628,
      "å®ŀ": 629,
      "Ġa": 630,
      "æĺŁ": 631,
      "èĭ": 632,
      "èı": 633,
      "æ¬¢": 634,
      "æĬĢ": 635,
      "on": 636,
      "å¦Ĥæŀľ": 637,
      "ãĢĤè¿Ļ": 638,
      "Ġ=": 639,
      "th": 640,
      "åĸľ": 641,
      "åĽ½": 642,
      "å¢": 643,
      "éļ": 644,
      "è¿Ľè¡Į": 645,
      "åıĹ": 646,
      "åĪ¶": 647,
      "æĹ¥": 648,
      "çŃĶ": 649,
      "åıĺ": 650,
      "åĽŀ": 651,
      "å»º": 652,
      "ä¾ĭ": 653,
      "æĻºèĥ½": 654,
      "çľĭ": 655,
      "ä»İ": 656,
      "æ¯ı": 657,
      "åħĥ": 658,
      "ãĢĭ": 659,
      "ãĢĬ": 660,
      "ç¡®": 661,
      "éĥ": 662,
      "æģ¯": 663,
      "åİ»": 664,
      "é¦ĸ": 665,
      "er": 666,
      "è¢«": 667,
      "åŀ": 668,
      "ä¸¤": 669,
      "ï¼Įè¿Ļ": 670,
      "é¸": 671,
      "åħī": 672,
      "è´¨": 673,
      "æľ¯": 674,
      "ç¿": 675,
      "ç¼": 676,
      "ç¯": 677,
      "ä½ķ": 678,
      "è±": 679,
      "æµ·": 680,
      "åķ": 681,
      "é¥": 682,
      "æĸĩæľ¬": 683,
      "æİ¨": 684,
      "åı¥åŃĲ": 685,
      "ç»ĵ": 686,
      "èĬ±": 687,
      "ä¹Ĳ": 688,
      "å½¢": 689,
      "åıª": 690,
      "åĪĽ": 691,
      "ï¼Įåı¯ä»¥": 692,
      "æł¼": 693,
      "ç§ĳ": 694,
      "åīį": 695,
      "åĪĹ": 696,
      "åĮħ": 697,
      "å¹¶": 698,
      "çĮ": 699,
      "éŁ": 700,
      "éĥ¨": 701,
      "æ®": 702,
      "æ¡": 703,
      "è¯Ŀ": 704,
      "ä½į": 705,
      "èĬĤ": 706,
      "ï¼ī": 707,
      "çģ": 708,
      "æŃ£": 709,
      "èģ": 710,
      "çĶŁæĪĲ": 711,
      "æ´»": 712,
      "å£": 713,
      "å®ĥä»¬": 714,
      "äº§": 715,
      "åĨħ": 716,
      "è®¡ç®Ĺ": 717,
      "æ±Ĥ": 718,
      "æ¶": 719,
      "å¹³": 720,
      "åĲĹ": 721,
      "å°ĳ": 722,
      "ç¯ĩ": 723,
      "or": 724,
      "èĪ": 725,
      "åĬ©": 726,
      "æĭ©": 727,
      "å±ķ": 728,
      "çł": 729,
      "çĪ±": 730,
      "éĢīæĭ©": 731,
      "èıľ": 732,
      "å·±": 733,
      "ï¼Ī": 734,
      "èĩªå·±": 735,
      "æ¼": 736,
      "åĳ³": 737,
      "çĽ®": 738,
      "æĭ¬": 739,
      "åŀĭ": 740,
      "æĻ¯": 741,
      "æĶ¾": 742,
      "æıı": 743,
      "çĸ": 744,
      "ãĢĤåľ¨": 745,
      "åı¯èĥ½": 746,
      "è®¾": 747,
      "è¾¾": 748,
      "ç«ł": 749,
      "åĪ©": 750,
      "äººå·¥": 751,
      "æ¸¸": 752,
      "èĻ": 753,
      "èº": 754,
      "åĳĬ": 755,
      "éĢļè¿ĩ": 756,
      "éŁ³": 757,
      "ï¼Įå¦Ĥ": 758,
      "åĪ«": 759,
      "éª": 760,
      "ä¸įåĲĮ": 761,
      "ä»·": 762,
      "åĻ": 763,
      "äººå·¥æĻºèĥ½": 764,
      "éĺ³": 765,
      "çŁ¥": 766,
      "çĻ": 767,
      "ç¥": 768,
      "ä¿¡æģ¯": 769,
      "re": 770,
      "çļĦæķ": 771,
      "åĬ¡": 772,
      "ä¹ł": 773,
      "ï¼Įä½Ĩ": 774,
      "å°±": 775,
      "an": 776,
      "è¯Ĺ": 777,
      "åĸľæ¬¢": 778,
      "è¨": 779,
      "è¨Ģ": 780,
      "ä¸ī": 781,
      "å¸Ĥ": 782,
      "æł·": 783,
      "åı£": 784,
      "ä»¶": 785,
      "åħ¨": 786,
      "åħ³äºİ": 787,
      "åºı": 788,
      "ä¸Ģä¸ĭ": 789,
      "Ġ|": 790,
      "ç¤º": 791,
      "æĸĻ": 792,
      "æŃĮ": 793,
      "èº«": 794,
      "çĶ±": 795,
      "åĻ¨": 796,
      "æĸĩç«ł": 797,
      "ï¼ĮåĽ": 798,
      "ç»ĻæĪĳ": 799,
      "çĶµå½±": 800,
      "ç²": 801,
      "çİ¯": 802,
      "åľº": 803,
      "æ®µ": 804,
      "åıĬ": 805,
      "æ·±": 806,
      "è®®": 807,
      "``": 808,
      "en": 809,
      "å§": 810,
      "ä¹ī": 811,
      "ç©º": 812,
      "ä»»": 813,
      "èĩªçĦ¶": 814,
      "å¤ª": 815,
      "ä¸ĸ": 816,
      "ä¸ļ": 817,
      "ï¼ĮéĤ£": 818,
      "ï¼Įä»¥": 819,
      "æľŁ": 820,
      "æĮģ": 821,
      "ï¼ĮæĪĳä»¬": 822,
      "å¤Ł": 823,
      "æ¸©": 824,
      "ç¦": 825,
      "æīĭ": 826,
      "éĴ": 827,
      "æ¸ħ": 828,
      "åĢ¼": 829,
      "èĥ": 830,
      "æııè¿°": 831,
      "æľĪ": 832,
      "æŃ¥": 833,
      "æī¾": 834,
      "åıĸ": 835,
      "ä»ĸä»¬": 836,
      "ä¸ŃçļĦ": 837,
      "èĭ±": 838,
      "æ²¡": 839,
      "çħ": 840,
      "ç»Ħ": 841,
      "å¤Ħ": 842,
      "è®º": 843,
      "ç¿»": 844,
      "æĢ»": 845,
      "è§Ĥ": 846,
      "ãĢĤè¯·": 847,
      "is": 848,
      "æµģ": 849,
      "çķĮ": 850,
      "ou": 851,
      "ï¼Įä½ł": 852,
      "çº¢": 853,
      "æĺ¯ä¸Ģä¸ª": 854,
      "èİ": 855,
      "ï¼Įè®©": 856,
      "åĲĳ": 857,
      "æĮĩ": 858,
      "¤Ĳ": 859,
      "è¯ĳ": 860,
      "æĸŃ": 861,
      "ï¼ĮåĽł": 862,
      "é¤Ĳ": 863,
      "Ġs": 864,
      "èįĲ": 865,
      "èĮ": 866,
      "åĽłæŃ¤": 867,
      "è±¡": 868,
      "è½¦": 869,
      "è¾ĵ": 870,
      "æ³¨": 871,
      "åĨ³": 872,
      "å±±": 873,
      "ç»Ł": 874,
      "at": 875,
      "å®¹": 876,
      "ä¼ł": 877,
      "è°ĥ": 878,
      "åĲĮæĹ¶": 879,
      "ä¾ĭå¦Ĥ": 880,
      "åĵª": 881,
      "æĢĿ": 882,
      "èĦ": 883,
      "çİ°åľ¨": 884,
      "åĪĻ": 885,
      "ç®Ģ": 886,
      "åĽŀçŃĶ": 887,
      "ï¼Ľ": 888,
      "åħ¶ä»ĸ": 889,
      "æİ¨èįĲ": 890,
      "åĬ¨çī©": 891,
      "è¯ī": 892,
      "èĽ": 893,
      "æ¬¡": 894,
      "ï¼ģ": 895,
      "æĪ·": 896,
      "åĲ¦": 897,
      "æ²¡æľī": 898,
      "ħäºĭ": 899,
      "å¢ĥ": 900,
      "æľª": 901,
      "é¢Ĩ": 902,
      "å¸¦": 903,
      "èĥ½å¤Ł": 904,
      "æķ°æį®": 905,
      "è¯ķ": 906,
      "è£": 907,
      "le": 908,
      "çļĦæĹ": 909,
      "æķ´": 910,
      "åģļ": 911,
      "åºĶçĶ¨": 912,
      "åİŁ": 913,
      "ç¿»è¯ĳ": 914,
      "ç»Ĩ": 915,
      "èĢĥ": 916,
      "æļ": 917,
      "ï¼Įå®ĥ": 918,
      "ï¼Įè¯·": 919,
      "è½»": 920,
      "èĤī": 921,
      "æŀģ": 922,
      "åĵį": 923,
      "ç´ł": 924,
      "èĳ": 925,
      "åŃ¦ä¹ł": 926,
      "çĮ«": 927,
      "æ»¡": 928,
      "Ġ-": 929,
      "ï¼ĮèĢĮ": 930,
      "æĪĸèĢħ": 931,
      "çīĩ": 932,
      "æ¤": 933,
      "ä»½": 934,
      "æľį": 935,
      "æĿ¡": 936,
      "ä¸ĸçķĮ": 937,
      "å¸®åĬ©": 938,
      "åŁŁ": 939,
      "åıį": 940,
      "äº¤": 941,
      "åĮ»": 942,
      "é©": 943,
      "ãĢĤæĪĳ": 944,
      "å¤ı": 945,
      "æ¡Ī": 946,
      "å½ĵçĦ¶": 947,
      "ãĢĤå¦Ĥæŀľ": 948,
      "éĩįè¦ģ": 949,
      "è¯Ńè¨Ģ": 950,
      "æĬĢæľ¯": 951,
      "çĬ": 952,
      "å¤ĩ": 953,
      "æĲ": 954,
      "åħĪ": 955,
      "å®ī": 956,
      "è°¢": 957,
      "ç¬¬": 958,
      "çĻ½": 959,
      "éĩĳ": 960,
      "æº": 961,
      "ä¹¦": 962,
      "å¼º": 963,
      "åĩĨ": 964,
      "åĳĬè¯ī": 965,
      "Ġt": 966,
      "ç§¯": 967,
      "åŁİ": 968,
      "éħį": 969,
      "è¿Ĳ": 970,
      "ä¸¤ä¸ª": 971,
      "äººä»¬": 972,
      "å¦Ĥä½ķ": 973,
      "éĵ": 974,
      "é¦Ļ": 975,
      "åŁº": 976,
      "å¿«": 977,
      "é¢Ħ": 978,
      "è§Ĵ": 979,
      "è¿ĳ": 980,
      "æİĴ": 981,
      "åİĨ": 982,
      "é¡¹": 983,
      "åĳ½": 984,
      "å¼ķ": 985,
      "èĲ½": 986,
      "åŃĺ": 987,
      "æĽ´åĬł": 988,
      "çĭĹ": 989,
      "es": 990,
      "ç»Ļå®ļ": 991,
      "èĽĭ": 992,
      "æľĽ": 993,
      "åıĳå±ķ": 994,
      "ä¼ĺ": 995,
      "ä¹ĭéĹ´": 996,
      "å»ºè®®": 997,
      "åĲĦ": 998,
      "éĢł": 999,
      "ä¸Ģç¯ĩ": 1000,
      "åħĭ": 1001,
      "åĮº": 1002,
      "æİ¥": 1003,
      "Ġc": 1004,
      "æłĩ": 1005,
      "çļĦæĥ": 1006,
      "å¤©æ°Ķ": 1007,
      "æ¨": 1008,
      "å®Į": 1009,
      "ç±³": 1010,
      "çĥŃ": 1011,
      "ä¸Ķ": 1012,
      "åı¸": 1013,
      "ï¼Įä¹Ł": 1014,
      "è¾ĥ": 1015,
      "å·²": 1016,
      "åĳĺ": 1017,
      "è¥": 1018,
      "åĲ«": 1019,
      "åĲ¬": 1020,
      "è¯Ħ": 1021,
      "è¥¿": 1022,
      "ä¹ĭä¸Ģ": 1023,
      "å½±åĵį": 1024,
      "åĶ": 1025,
      "è¿ĻäºĽ": 1026,
      "æķĪ": 1027,
      "çĽ´": 1028,
      "è¯Ĩ": 1029,
      "åĪĨç±»": 1030,
      "åŃ£": 1031,
      "ar": 1032,
      "åĳ¢": 1033,
      "äººç±»": 1034,
      "åĪ°äºĨ": 1035,
      "å¯¼": 1036,
      "çīĽ": 1037,
      "åĳĬè¯īæĪĳ": 1038,
      "æĸ¹å¼ı": 1039,
      "é¢ĨåŁŁ": 1040,
      "æ¨¡": 1041,
      "Ġd": 1042,
      "åıĭ": 1043,
      "åħ·ä½ĵ": 1044,
      "è¶£": 1045,
      "é»ĳ": 1046,
      "æ£": 1047,
      "ä¸½": 1048,
      "é²": 1049,
      "å¤´": 1050,
      "ä¸»é¢ĺ": 1051,
      "Ġth": 1052,
      "åįķè¯į": 1053,
      "ä»Ĭ": 1054,
      "Ġb": 1055,
      "æĹħ": 1056,
      "æīĵ": 1057,
      "è¾¹": 1058,
      "åĨµ": 1059,
      "ãĢĤæŃ¤": 1060,
      "å¹¿": 1061,
      "è´Ń": 1062,
      "çº¦": 1063,
      "ç¥ŀ": 1064,
      "ï¼ļčĊ": 1065,
      "çłģ": 1066,
      "éĢĤåĲĪ": 1067,
      "ï¼Įåľ¨": 1068,
      "Ġp": 1069,
      "çº¿": 1070,
      "é¸¡": 1071,
      "um": 1072,
      "çĹ": 1073,
      "éŁ³ä¹Ĳ": 1074,
      "åħ¶ä¸Ń": 1075,
      "è¯»": 1076,
      "æ¯Ķå¦Ĥ": 1077,
      "éĩĬ": 1078,
      "è®¸": 1079,
      "çĭ¬": 1080,
      "ä¸Ģç§į": 1081,
      "æĸ¹éĿ¢": 1082,
      "æĳ": 1083,
      "åħ±": 1084,
      "æľªæĿ¥": 1085,
      "åĩł": 1086,
      "æĺ¯ä¸Ģç§į": 1087,
      "èĩ³": 1088,
      "æĶ¹": 1089,
      "èįī": 1090,
      "è§Ĩ": 1091,
      "çļĦæĦ": 1092,
      "Ġf": 1093,
      "ç§ĭ": 1094,
      "è§ī": 1095,
      "ï¼ĮčĊ": 1096,
      "è·¯": 1097,
      "å²": 1098,
      "ĥı": 1099,
      "ç¼ĸ": 1100,
      "æĢģ": 1101,
      "éĢŁ": 1102,
      "ç¬¦": 1103,
      "éļı": 1104,
      "å§ĭ": 1105,
      "çĦ¶åĲİ": 1106,
      "è½¬": 1107,
      "çĥ¤": 1108,
      "é»Ħ": 1109,
      "ãĢĤæŃ¤å¤ĸ": 1110,
      "äº«": 1111,
      "ï¼ĮéĤ£ä¹Ī": 1112,
      "çļĦæĥħ": 1113,
      "çİ¯å¢ĥ": 1114,
      "åĨį": 1115,
      "æĽ²": 1116,
      "éĢļå¸¸": 1117,
      "ç½ĳ": 1118,
      "ç¤¾": 1119,
      "æ¯ıä¸ª": 1120,
      "åķĨ": 1121,
      "el": 1122,
      "è¡¨è¾¾": 1123,
      "åģ¥": 1124,
      "è®²": 1125,
      "çŁŃ": 1126,
      "åħ¬åı¸": 1127,
      "Ġm": 1128,
      "çĸĹ": 1129,
      "è®¤": 1130,
      "æ¢": 1131,
      "ï¼ĮåĮ": 1132,
      "çı": 1133,
      "æĸ¹æ³ķ": 1134,
      "ãĢĤåĽłæŃ¤": 1135,
      "æĬĬ": 1136,
      "éªĮ": 1137,
      "æĿĲ": 1138,
      "ing": 1139,
      "æºĲ": 1140,
      "ç¦»": 1141,
      "çŃīçŃī": 1142,
      "åħħ": 1143,
      "çħ§": 1144,
      "æľºåĻ¨": 1145,
      "å¤ªéĺ³": 1146,
      "ä¸Ģé¦ĸ": 1147,
      "Ġw": 1148,
      "å¸®æĪĳ": 1149,
      "åĮħæĭ¬": 1150,
      "çľŁ": 1151,
      "æħ": 1152,
      "æĬ¥": 1153,
      "å®¢": 1154,
      "æ²¹": 1155,
      "ç§°": 1156,
      "åı¶": 1157,
      "ä½łçļĦ": 1158,
      "æĶ¯": 1159,
      "è¶³": 1160,
      "å°ıè¯´": 1161,
      "åºĶè¯¥": 1162,
      "åŁİå¸Ĥ": 1163,
      "èĩªå·±çļĦ": 1164,
      "è£ħ": 1165,
      "å¥¶": 1166,
      "ä¹°": 1167,
      "æ¬¾": 1168,
      "ç´¢": 1169,
      "è®¾è®¡": 1170,
      "åĥı": 1171,
      "åı·": 1172,
      "æĸ¯": 1173,
      "å¥¹": 1174,
      "åĢĻ": 1175,
      "å°½": 1176,
      "è¯ĹæŃĮ": 1177,
      "åĲĥ": 1178,
      "ï¼Įä¾ĭå¦Ĥ": 1179,
      "Ġ\"": 1180,
      "ãĢĤéĤ£": 1181,
      "æĪĺ": 1182,
      "æµĭ": 1183,
      "å¦": 1184,
      "åĬŁ": 1185,
      "çĶ»": 1186,
      "æĬ¤": 1187,
      "çİĩ": 1188,
      "èħ": 1189,
      "æİ¢": 1190,
      "è§£éĩĬ": 1191,
      "ç¢": 1192,
      "ç½®": 1193,
      "é±": 1194,
      "å¾ĭ": 1195,
      "åĽŃ": 1196,
      "åĳ¨": 1197,
      "åĬłåħ¥": 1198,
      "çĶŁæ´»": 1199,
      "èĵ": 1200,
      "äºĮ": 1201,
      "åı¦": 1202,
      "å¤į": 1203,
      "éĶĻ": 1204,
      "Ġ+": 1205,
      "æĪı": 1206,
      "é±¼": 1207,
      "éĿĻ": 1208,
      "è¿ľ": 1209,
      "æĺ¥": 1210,
      "å£°": 1211,
      "é¢ľ": 1212,
      "ä¸ŃåĽ½": 1213,
      "åħ³ç³»": 1214,
      "æŁ¥": 1215,
      "é¥®": 1216,
      "åĩı": 1217,
      "```": 1218,
      "çļĦéĹ®é¢ĺ": 1219,
      "è§Ħ": 1220,
      "ï¼Įä»ĸ": 1221,
      "æķħäºĭ": 1222,
      "äº§åĵģ": 1223,
      "æ¼Ķ": 1224,
      "ï¼Łå½ĵçĦ¶": 1225,
      "åľ°çĲĥ": 1226,
      "it": 1227,
      "Â·": 1228,
      "åıĤ": 1229,
      "çīĮ": 1230,
      "è¶Ĭ": 1231,
      "çĬ¶": 1232,
      "æĽ´å¤ļ": 1233,
      "æŀĲ": 1234,
      "åı²": 1235,
      "æłĳ": 1236,
      "ä¾¿": 1237,
      "æĶ¶": 1238,
      "ç»¿": 1239,
      "åĪ¶ä½ľ": 1240,
      "ä¸Ģèµ·": 1241,
      "ä¸ºæĤ¨": 1242,
      "éļ¾": 1243,
      "è§ģ": 1244,
      "å¢ŀ": 1245,
      "åĽ´": 1246,
      "å¤ļå°ĳ": 1247,
      "èĩ´": 1248,
      "é£ŀ": 1249,
      "Ġn": 1250,
      "çĨ": 1251,
      "å¥ĩ": 1252,
      "æŀĦ": 1253,
      "éħĴ": 1254,
      "ï¼ĮåĮħ": 1255,
      "äºĶ": 1256,
      "çļĦæķ°": 1257,
      "åħ·æľī": 1258,
      "é¸Ł": 1259,
      "æīĢä»¥": 1260,
      "åĿĩ": 1261,
      "éĻ¤": 1262,
      "çĶŁåĳ½": 1263,
      "ï¼ĮåĽłä¸º": 1264,
      "ï¼Įå°Ĩ": 1265,
      "éĶ®": 1266,
      "Ġl": 1267,
      "ä»ĭ": 1268,
      "yth": 1269,
      "ç»ĵæŀľ": 1270,
      "æĥħæĦŁ": 1271,
      "é¢ľèī²": 1272,
      "éĻ©": 1273,
      "è®¸å¤ļ": 1274,
      "ãĢĤä½ł": 1275,
      "åĲ¸": 1276,
      "çļĦæ°": 1277,
      "åĲ§": 1278,
      "æĹłæ³ķ": 1279,
      "ï¼Įåį": 1280,
      "ä¸»è¦ģ": 1281,
      "çļĦäºº": 1282,
      "äºĴ": 1283,
      "æıĲé«ĺ": 1284,
      "æĮī": 1285,
      "åĪĨæŀĲ": 1286,
      "çģ«": 1287,
      "ï¼Įæľī": 1288,
      "åı¤": 1289,
      "ä»·æł¼": 1290,
      "ï¼Įä¸į": 1291,
      "åĽ¾": 1292,
      "é¾": 1293,
      "å¥³": 1294,
      "åĴĸ": 1295,
      "æĺĵ": 1296,
      "ä¼¼": 1297,
      "æĺ¯åĲ¦": 1298,
      "å°Ŀ": 1299,
      "ython": 1300,
      "è®°": 1301,
      "èĵĿ": 1302,
      "om": 1303,
      "è§£åĨ³": 1304,
      "è¿ĺæľī": 1305,
      "æĸĩåĮĸ": 1306,
      "èīº": 1307,
      "èĻĳ": 1308,
      "åĪĩ": 1309,
      "ï¼ĮæĤ¨": 1310,
      "ãĢĤå®ĥ": 1311,
      "å¤ľ": 1312,
      "æľįåĬ¡": 1313,
      "ç»Ļåĩº": 1314,
      "éĽ¨": 1315,
      "èµĦ": 1316,
      "ä»£çłģ": 1317,
      "al": 1318,
      "ç§ĳæĬĢ": 1319,
      "éĹ¨": 1320,
      "åķ¡": 1321,
      "çª": 1322,
      "åĴĸåķ¡": 1323,
      "ĮæľĽ": 1324,
      "äºĨè§£": 1325,
      "æ¤į": 1326,
      "å·²ç»ı": 1327,
      "çĶŁæĪĲä¸Ģä¸ª": 1328,
      "æľĢåĲİ": 1329,
      "çŁ¥éģĵ": 1330,
      "Ġthe": 1331,
      "æĭī": 1332,
      "èµ°": 1333,
      "ï¼ĮåĮħæĭ¬": 1334,
      "ç«ĭ": 1335,
      "æ´»åĬ¨": 1336,
      "è¿ĩç¨ĭ": 1337,
      "åĨħå®¹": 1338,
      "çļĦæĢ": 1339,
      "å¾Īå¤ļ": 1340,
      "åįĩ": 1341,
      "çļĦç¾İ": 1342,
      "åĨĻä¸Ģç¯ĩ": 1343,
      "èİ·": 1344,
      "as": 1345,
      "ä¸Ģä»½": 1346,
      "æĪ¿": 1347,
      "è¾ĵåħ¥": 1348,
      "æĪĲä¸º": 1349,
      "å¼Ģå§ĭ": 1350,
      "ç»Ń": 1351,
      "åº·": 1352,
      "ĠĠ": 1353,
      "ä»Ĭå¤©": 1354,
      "æĻļ": 1355,
      "åİħ": 1356,
      "èĳĹ": 1357,
      "æ²Ļ": 1358,
      "ï¼ļâĢľ": 1359,
      "æ¯į": 1360,
      "ç»Ī": 1361,
      "ç»į": 1362,
      "ç³»ç»Ł": 1363,
      "æ³¨æĦı": 1364,
      "åħ´": 1365,
      "åıĳçİ°": 1366,
      "ä¸ªäºº": 1367,
      "ä»ĭç»į": 1368,
      "æŀĹ": 1369,
      "å·§": 1370,
      "çĵ": 1371,
      "èģĶ": 1372,
      "é²ľ": 1373,
      "æĺ¯ä»Ģä¹Ī": 1374,
      "åĵģçīĮ": 1375,
      "ä¸įåĲĮçļĦ": 1376,
      "å¿µ": 1377,
      "ç¨ĭåºı": 1378,
      "Ġh": 1379,
      "åŃ©": 1380,
      "å°Ķ": 1381,
      "å¯Į": 1382,
      "èľ": 1383,
      "åıĺåĮĸ": 1384,
      "ï¼Įæ¯Ķå¦Ĥ": 1385,
      "ä½İ": 1386,
      "è¡¨ç¤º": 1387,
      "åĽłä¸º": 1388,
      "ï¼ĮçĦ¶åĲİ": 1389,
      "è´¹": 1390,
      "å¤ĦçĲĨ": 1391,
      "åħ¸": 1392,
      "æĿ¾": 1393,
      "éĺ³åħī": 1394,
      "åı¥è¯Ŀ": 1395,
      "æīĢæľī": 1396,
      "æ¶Ī": 1397,
      "é©¬": 1398,
      "å¤ıå¤©": 1399,
      "Ġin": 1400,
      "å¸ĥ": 1401,
      "æīį": 1402,
      "ç§ĳåŃ¦": 1403,
      "å¯Ĩ": 1404,
      "ä½ľä¸º": 1405,
      "ä¿ĿæĮģ": 1406,
      "åģ¥åº·": 1407,
      "nd": 1408,
      "ç²¾": 1409,
      "çĶ¨æĪ·": 1410,
      "éĥ½æĺ¯": 1411,
      "åĽĽ": 1412,
      "åİĨåı²": 1413,
      "å¼ł": 1414,
      "å¸¦æĿ¥": 1415,
      "å¾·": 1416,
      "æĹ¶éĹ´": 1417,
      "åħ³éĶ®": 1418,
      "é¦ĸåħĪ": 1419,
      "åĮ»çĸĹ": 1420,
      "Ġy": 1421,
      "ãĢĤâĢĿ": 1422,
      "ç®Ģåįķ": 1423,
      "ç»´": 1424,
      "éĺŁ": 1425,
      "åĿĹ": 1426,
      "ï¼Įå¦Ĥæŀľ": 1427,
      "çĽ¸åħ³": 1428,
      "è´¨éĩı": 1429,
      "ï¼ĮåĽłæŃ¤": 1430,
      "çļĦæĺ¯": 1431,
      "åį³": 1432,
      "åįİ": 1433,
      "å¯¹äºİ": 1434,
      "æŁĲ": 1435,
      "å±ŀ": 1436,
      "ç³ĸ": 1437,
      "ä¸Ģæ®µ": 1438,
      "æĦŁåıĹ": 1439,
      "å®ŀçİ°": 1440,
      "ic": 1441,
      "ä»»ä½ķ": 1442,
      "çŃĶæ¡Ī": 1443,
      "ç®¡": 1444,
      "æļĸ": 1445,
      "æ¹": 1446,
      "è¾ĵåĩº": 1447,
      "å¡": 1448,
      "åĲĦç§į": 1449,
      "ed": 1450,
      "ä¸ĩ": 1451,
      "ç¿»è¯ĳæĪĲ": 1452,
      "èĢĥèĻĳ": 1453,
      "ï¼ĮéľĢè¦ģ": 1454,
      "æķĻ": 1455,
      "æĥħåĨµ": 1456,
      "æĥ³è¦ģ": 1457,
      "å¤±": 1458,
      "çİ©": 1459,
      "æĴ": 1460,
      "ä»ħ": 1461,
      "æľĭ": 1462,
      "æĤ¨çļĦ": 1463,
      "èī²çļĦ": 1464,
      "åĭ": 1465,
      "Ġto": 1466,
      "ï¼Įä»İ": 1467,
      "æĿ¯": 1468,
      "âĢĿï¼Į": 1469,
      "å¨": 1470,
      "å¸ĮæľĽ": 1471,
      "å¤§çļĦ": 1472,
      "è¯¦": 1473,
      "ä½ľåĵģ": 1474,
      "æī¾åĪ°": 1475,
      "æĦŁåĪ°": 1476,
      "èµĽ": 1477,
      "è¯ģ": 1478,
      "åĦ": 1479,
      "å¾®": 1480,
      "å£«": 1481,
      "ç¾": 1482,
      "ï¼Įå¯": 1483,
      "è¦ģæ±Ĥ": 1484,
      "æ¸¸æĪı": 1485,
      "ä»»åĬ¡": 1486,
      "çļĦæĹ¶": 1487,
      "çĶ¨äºİ": 1488,
      "éĻħ": 1489,
      "æľĭåıĭ": 1490,
      "ä¸įæĺ¯": 1491,
      "èĢģ": 1492,
      "çļĦåľ°": 1493,
      "åŃĺåľ¨": 1494,
      "èĴ": 1495,
      "éħ±": 1496,
      "ç¤¾ä¼ļ": 1497,
      "åħ»": 1498,
      "ç²ī": 1499,
      "é£Łçī©": 1500,
      "å½©": 1501,
      "ç«Ļ": 1502,
      "éĽĨ": 1503,
      "æ¼«": 1504,
      "èĭ±æĸĩ": 1505,
      "åºŃ": 1506,
      "é¤Ĳåİħ": 1507,
      "éĹ»": 1508,
      "ãĢĤè¿Ļä¸ª": 1509,
      "æľīè¶£": 1510,
      "å¯»": 1511,
      "äºĨä¸Ģ": 1512,
      "åĨ°": 1513,
      "åĪ»": 1514,
      "åĦ¿": 1515,
      "ï¼ĮåĲĮæĹ¶": 1516,
      "åºĹ": 1517,
      "æ¯Ķè¾ĥ": 1518,
      "çĹħ": 1519,
      "äºĳ": 1520,
      "éĨ": 1521,
      "ä¸įèĥ½": 1522,
      "AI": 1523,
      "èº«ä½ĵ": 1524,
      "å°Ŀè¯ķ": 1525,
      "ï¼ŁčĊ": 1526,
      "½æķ°": 1527,
      "ä»¤": 1528,
      "ä»¥ä¸ĭæĺ¯": 1529,
      "--": 1530,
      "ä¿®": 1531,
      "è¡£": 1532,
      "èĲ¥": 1533,
      "Python": 1534,
      "è¿ĲåĬ¨": 1535,
      "èĥ½åĬĽ": 1536,
      "æĢİ": 1537,
      "ç©¶": 1538,
      "ï¼Įçİ°åľ¨": 1539,
      "å¾ĹåĪ°": 1540,
      "è¯¦ç»Ĩ": 1541,
      "å®īåħ¨": 1542,
      "æķ£": 1543,
      "æį¢": 1544,
      "ä¹ĭéĹ´çļĦ": 1545,
      "Ġ(": 1546,
      "åħį": 1547,
      "äººçļĦ": 1548,
      "åĮĹ": 1549,
      "æ¨¡åŀĭ": 1550,
      "è¯·ä½ł": 1551,
      "ãĢĤå½ĵ": 1552,
      "ç¾İä¸½": 1553,
      "åĩ½æķ°": 1554,
      "çļĦä¿¡æģ¯": 1555,
      "å·¥ä½ľ": 1556,
      "åĪĹè¡¨": 1557,
      "ĠčĊ": 1558,
      "æķ°åŃĹ": 1559,
      "å¹²": 1560,
      "åįģ": 1561,
      "æĸ°çļĦ": 1562,
      "é¼": 1563,
      "æ¤įçī©": 1564,
      "ç¦ı": 1565,
      "çļĦæĬ": 1566,
      "çĳ": 1567,
      "ãĢĤåĲĮæĹ¶": 1568,
      "èµ·æĿ¥": 1569,
      "ï¼Įæĺ¯": 1570,
      "å°±æĺ¯": 1571,
      "è´Ńä¹°": 1572,
      "æĽ´å¥½": 1573,
      "äº§çĶŁ": 1574,
      "ï¼ĮæľĢ": 1575,
      "èīºæľ¯": 1576,
      "çļĦæĦı": 1577,
      "ç»ĥ": 1578,
      "ï¼Łå½ĵçĦ¶åı¯ä»¥": 1579,
      "æ´ĭ": 1580,
      "åįĹ": 1581,
      "éĶĢ": 1582,
      "è¿½": 1583,
      "çļĦæ¸": 1584,
      "ä½ľçĶ¨": 1585,
      "èĳĹåĲį": 1586,
      "çļĦæŃ": 1587,
      "èĪŀ": 1588,
      "åĬ¿": 1589,
      "çĲĨè§£": 1590,
      "éĩĩ": 1591,
      "æĪĳä»¬çļĦ": 1592,
      "ç©¿": 1593,
      "å·®": 1594,
      "åħĥç´ł": 1595,
      "Ġo": 1596,
      "æ©": 1597,
      "æĵ": 1598,
      "ç±»åŀĭ": 1599,
      "åĲįåŃĹ": 1600,
      "è®¡ç®Ĺæľº": 1601,
      "ä¸Ńæĸĩ": 1602,
      "ä¸įæĸŃ": 1603,
      "ï¼Įä½Ĩæĺ¯": 1604,
      "åħħæ»¡": 1605,
      "éľĢæ±Ĥ": 1606,
      "çļĦæķħäºĭ": 1607,
      "ro": 1608,
      "ï¼ĮæĪĳåı¯ä»¥": 1609,
      "å®ĮæĪĲ": 1610,
      "ãĢĤä»ĸ": 1611,
      "int": 1612,
      "åĵªäºĽ": 1613,
      "ra": 1614,
      "äº¬": 1615,
      "å·´": 1616,
      "çĪ±æĥħ": 1617,
      "å®¶åºŃ": 1618,
      "åĪ¤": 1619,
      "æ³¢": 1620,
      "æŃ£ç¡®": 1621,
      "èĿ": 1622,
      "ãĢĤä½Ĩ": 1623,
      "å±Ĥ": 1624,
      "ç§ĺ": 1625,
      "è´Ł": 1626,
      "å¿ħ": 1627,
      "Ķç©¶": 1628,
      "ï¼ĮåĨ": 1629,
      "¿Ģ": 1630,
      "çļĦä¸Ģ": 1631,
      "çļĦæµ": 1632,
      "å¤§åĪ©": 1633,
      "äº«åıĹ": 1634,
      "å®Ŀ": 1635,
      "åı¯èĥ½ä¼ļ": 1636,
      "è¡Įä¸º": 1637,
      "ä¿ĿæĬ¤": 1638,
      "ãĢĤæĤ¨": 1639,
      "æĪĳæĥ³": 1640,
      "åľŁ": 1641,
      "st": 1642,
      "æ»©": 1643,
      "éŃ": 1644,
      "åĪĽä½ľ": 1645,
      "äº®": 1646,
      "æĭ¥": 1647,
      "é£İæł¼": 1648,
      "çģµ": 1649,
      "ä¸ĵ": 1650,
      "æµª": 1651,
      "èĪĴ": 1652,
      "è®¤ä¸º": 1653,
      "åı°": 1654,
      "èĶ": 1655,
      "ï¼Įå®ĥä»¬": 1656,
      "çº§": 1657,
      "Ġand": 1658,
      "å³": 1659,
      "ï¼Įä¸Ģ": 1660,
      "äºĨä¸Ģä¸ª": 1661,
      "ãĢĤè¿ĻäºĽ": 1662,
      "ä¸ľ": 1663,
      "åĪĴ": 1664,
      "åľĨ": 1665,
      "ï¼Įåį³": 1666,
      "æ³Ľ": 1667,
      "éĿĴ": 1668,
      "åħ¨çĲĥ": 1669,
      "æ¿Ģ": 1670,
      "æĪĳçļĦ": 1671,
      "è¡¨çİ°": 1672,
      "åľºæĻ¯": 1673,
      "æ¦Ĥ": 1674,
      "åĲįç§°": 1675,
      "æľĢè¿ĳ": 1676,
      "âĢĿãĢĤ": 1677,
      "åģĩ": 1678,
      "çļĦæł": 1679,
      "ä¸ĬçļĦ": 1680,
      "ent": 1681,
      "å¾ģ": 1682,
      "è¶ħ": 1683,
      "å¾Ģ": 1684,
      "éĴŁ": 1685,
      "ä¸°": 1686,
      "äºļ": 1687,
      "ä»¥åıĬ": 1688,
      "ä¸īä¸ª": 1689,
      "åŃ£èĬĤ": 1690,
      "è¯¢": 1691,
      "è¿ĺæĺ¯": 1692,
      "ï¼Įå¹¶ä¸Ķ": 1693,
      "æĮīçħ§": 1694,
      "Ġyou": 1695,
      "ï¼ĮæĪĳä»¬åı¯ä»¥": 1696,
      "è¯¯": 1697,
      "æĺ¾": 1698,
      "åĽ¢": 1699,
      "çĶŁçī©": 1700,
      "çĤĴ": 1701,
      "çļĦæĻ": 1702,
      "éĻĲ": 1703,
      "ï¼Įå¸": 1704,
      "è½¯": 1705,
      "åĮħåĲ«": 1706,
      "Th": 1707,
      "è±Ĩ": 1708,
      "èŀ": 1709,
      "è¿İ": 1710,
      "åī§": 1711,
      "et": 1712,
      "çİĭ": 1713,
      "ä½ĵéªĮ": 1714,
      "ä¸¾": 1715,
      "çļĦæĿ": 1716,
      "åĶ®": 1717,
      "ãĢĤéĤ£ä¹Ī": 1718,
      "ç»Ļå®ļçļĦ": 1719,
      "æİ§": 1720,
      "çļĦå¤©æ°Ķ": 1721,
      "åŃĹç¬¦": 1722,
      "é¦Ĩ": 1723,
      "ç¡®å®ļ": 1724,
      "æĽ´å¥½åľ°": 1725,
      "å¹¿æ³Ľ": 1726,
      "çļĦå½±åĵį": 1727,
      "ion": 1728,
      "çĶľ": 1729,
      "æ¸Ĳ": 1730,
      "åĩĨå¤ĩ": 1731,
      "çļĦæĥħæĦŁ": 1732,
      "lo": 1733,
      "çļĦæİ": 1734,
      "è¡ĮæĺŁ": 1735,
      "pr": 1736,
      "æľ¨": 1737,
      "ï¼Įä½¿": 1738,
      "æĸ°éĹ»": 1739,
      "åĪĽéĢł": 1740,
      "è¿ŀ": 1741,
      "éĿ¢ç§¯": 1742,
      "éĺ²": 1743,
      "ä¸²": 1744,
      "åı¯ä»¥åľ¨": 1745,
      "åı¦å¤ĸ": 1746,
      "ä¼łç»Ł": 1747,
      "ç§¯æŀģ": 1748,
      "å½Ĵ": 1749,
      "ï¼Įå¥": 1750,
      "å¹»": 1751,
      "åį¡": 1752,
      "èĤ²": 1753,
      "æ¢¦": 1754,
      "pp": 1755,
      "çŃĳ": 1756,
      "çŃĸ": 1757,
      "ç¬ĳ": 1758,
      "çļ®": 1759,
      "ä¸ĭéĿ¢": 1760,
      "èģĬ": 1761,
      "æĢİä¹Ī": 1762,
      "ĠS": 1763,
      "ç¾İåĽ½": 1764,
      "çĶ·": 1765,
      "ç³ķ": 1766,
      "ut": 1767,
      "åĨ·": 1768,
      "éª¤": 1769,
      "å¸Ī": 1770,
      "åŃĹæ¯į": 1771,
      "é¡º": 1772,
      "å²ģ": 1773,
      "il": 1774,
      "çļĦæī": 1775,
      "çī¹çĤ¹": 1776,
      "æħ¢": 1777,
      "éº": 1778,
      "Ġis": 1779,
      "éĥ¨åĪĨ": 1780,
      "æĹħæ¸¸": 1781,
      "äº²": 1782,
      "å®¤": 1783,
      "ç§ĭå¤©": 1784,
      "ï¼Įå¾": 1785,
      "æĿĲæĸĻ": 1786,
      "çļĦå°ı": 1787,
      "å¼Ĥ": 1788,
      "ï¼Įè¿ĻäºĽ": 1789,
      "ï¼Įå½": 1790,
      "âĢĶ": 1791,
      "æĲŃ": 1792,
      "åı¯ä»¥éĢļè¿ĩ": 1793,
      "éģ¿": 1794,
      "å»ºçŃĳ": 1795,
      "ĠÃ": 1796,
      "ĳæĪĺ": 1797,
      "ä¸Ģåıª": 1798,
      "ï¼Įè¿Ļä¸ª": 1799,
      "çļĦè¯ĹæŃĮ": 1800,
      "åĩºçİ°": 1801,
      "éĻį": 1802,
      "åł": 1803,
      "ï¼Įä»¥åıĬ": 1804,
      "æĹħè¡Į": 1805,
      "åıĳçĶŁ": 1806,
      "çĶ±äºİ": 1807,
      "åĬŁèĥ½": 1808,
      "åı£æĦŁ": 1809,
      "åıįåºĶ": 1810,
      "å¢ŀåĬł": 1811,
      "ch": 1812,
      "æ¯Ľ": 1813,
      "ä½įç½®": 1814,
      "åº§": 1815,
      "èĶ¬": 1816,
      "èĩªçĶ±": 1817,
      "è·Ŀ": 1818,
      "åıĺå¾Ĺ": 1819,
      "çªģ": 1820,
      "ï¼Įåħ¶ä¸Ń": 1821,
      "çļĦæĸĩç«ł": 1822,
      "æľīåħ³": 1823,
      "ç¡®ä¿Ŀ": 1824,
      "èŀį": 1825,
      "Ġx": 1826,
      "å®³": 1827,
      "éĢīé¡¹": 1828,
      "åĩĨç¡®": 1829,
      "ä¹ĺ": 1830,
      "èİ·å¾Ĺ": 1831,
      "ĠC": 1832,
      "ï¼Įä»ĸä»¬": 1833,
      "çİ°ä»£": 1834,
      "ãĢĤå¦ĤæŀľæĤ¨": 1835,
      "çļĦåºĶçĶ¨": 1836,
      "ãĢĤå¦Ĥæŀľä½ł": 1837,
      "æľºåĻ¨åŃ¦ä¹ł": 1838,
      "åıĪ": 1839,
      "é¢ĺçĽ®": 1840,
      "éģĩ": 1841,
      "èĲ¨": 1842,
      "çļĦæĦŁ": 1843,
      "èĮĥ": 1844,
      "print": 1845,
      "ï¼ĮæīĢä»¥": 1846,
      "åºķ": 1847,
      "åį³åı¯": 1848,
      "æ°ĳ": 1849,
      "æ±ģ": 1850,
      "ç»ıåħ¸": 1851,
      "å°¼": 1852,
      "ä¼Ĺ": 1853,
      "æķ°åŃ¦": 1854,
      "è·ĳ": 1855,
      "æİ¢ç´¢": 1856,
      "æĭ¥æľī": 1857,
      "ve": 1858,
      "ï¼Įä¸º": 1859,
      "ãĢģãĢĬ": 1860,
      "æ·»": 1861,
      "ä»·åĢ¼": 1862,
      "ä¹īè¯į": 1863,
      "è°¢è°¢": 1864,
      "é¾Ļ": 1865,
      "æīįèĥ½": 1866,
      "ĠI": 1867,
      "ï¼Įæ¯ı": 1868,
      "èĥ½åĲ¦": 1869,
      "éĺħ": 1870,
      "çīĽå¥¶": 1871,
      "æĺ¯æĮĩ": 1872,
      "åĢĴ": 1873,
      "è´Ńçī©": 1874,
      "ãĢĤç»ĻæĪĳ": 1875,
      "è¿Ļç¯ĩ": 1876,
      "åį°": 1877,
      "éĢŁåº¦": 1878,
      "ur": 1879,
      "çī©è´¨": 1880,
      "æ²»": 1881,
      "å¯¼èĩ´": 1882,
      "çĭ¬çī¹": 1883,
      "åĪ©çĶ¨": 1884,
      "åĩıå°ĳ": 1885,
      "ä¸°å¯Į": 1886,
      "ãĢĤæł¹æį®": 1887,
      "æĢ§åĴĮ": 1888,
      "èĶ¬èıľ": 1889,
      "ç¾İé£Ł": 1890,
      "ç½Ĺ": 1891,
      "çİ¯ä¿Ŀ": 1892,
      "ç®Ĺæ³ķ": 1893,
      "åĪ¤æĸŃ": 1894,
      "__": 1895,
      "æ½": 1896,
      "çķĻ": 1897,
      "èĸ": 1898,
      "åħ¬åĽŃ": 1899,
      "èĥĮ": 1900,
      "ç¼ĸåĨĻ": 1901,
      "èĪĴéĢĤ": 1902,
      "èĪ¬": 1903,
      "num": 1904,
      "ãĢĤæľĢåĲİ": 1905,
      "çłĶç©¶": 1906,
      "çľĭåĪ°": 1907,
      "é¥Ń": 1908,
      "çĽ®æłĩ": 1909,
      "è®²è¿°": 1910,
      "å°Ĩä»¥ä¸ĭ": 1911,
      "è¿ĺåı¯ä»¥": 1912,
      "å¦Ĥä¸ĭ": 1913,
      "æıĲåıĸ": 1914,
      "ver": 1915,
      "æ´ŀ": 1916,
      "ç»ĵæŀĦ": 1917,
      "éĩįè¦ģçļĦ": 1918,
      "æİĴåºı": 1919,
      "im": 1920,
      "çļĦæ¯": 1921,
      "å¾ħ": 1922,
      "æĥĬ": 1923,
      "ãĢĤé¦ĸåħĪ": 1924,
      "æ´ģ": 1925,
      "åı£åĳ³": 1926,
      "ce": 1927,
      "ï¼ļ\"": 1928,
      "æ¸©åº¦": 1929,
      "ï¼Įä»İèĢĮ": 1930,
      "ãĢĤä¾ĭå¦Ĥ": 1931,
      "å¤©ç©º": 1932,
      "ä¹Łæĺ¯": 1933,
      "éħ¸": 1934,
      "åĪĽæĦı": 1935,
      "if": 1936,
      "æĸ½": 1937,
      "çŁ³": 1938,
      "åĩłä¸ª": 1939,
      "äºī": 1940,
      "ä½ľèĢħ": 1941,
      "æ²³": 1942,
      "ãĢĭãĢģãĢĬ": 1943,
      "se": 1944,
      "è¾ĳ": 1945,
      "çļĦçĪ": 1946,
      "åĬĽåĴĮ": 1947,
      "ç¬Ķ": 1948,
      "å±ŀäºİ": 1949,
      "æ°¸": 1950,
      "un": 1951,
      "æĹ©": 1952,
      "éĶħ": 1953,
      "éģ¿åħį": 1954,
      "çļĦå¹³": 1955,
      "çļĦåıĳå±ķ": 1956,
      "èī¯": 1957,
      "åĪĨéĴŁ": 1958,
      "æĦıå¤§åĪ©": 1959,
      "æķ´ä¸ª": 1960,
      "åı«": 1961,
      "ä¹³": 1962,
      "æ²ī": 1963,
      "åı³": 1964,
      "Ġg": 1965,
      "å·¦": 1966,
      "ä»ĺ": 1967,
      "éĢĲ": 1968,
      "æŁĶ": 1969,
      "èĽĭç³ķ": 1970,
      "é¸¡èĽĭ": 1971,
      "è®¨": 1972,
      "çĽĲ": 1973,
      "ä¸ĬæľĢ": 1974,
      "èĩªåĬ¨": 1975,
      "ay": 1976,
      "éĺħè¯»": 1977,
      "ul": 1978,
      "ç®±": 1979,
      "ä¹Łåı¯ä»¥": 1980,
      "åĸĦ": 1981,
      "é¹": 1982,
      "ãĢĤæĪĳä»¬": 1983,
      "æĭĮ": 1984,
      "æŃ£åľ¨": 1985,
      "ï¼Įäººå·¥æĻºèĥ½": 1986,
      "çī©åĵģ": 1987,
      "åİĭ": 1988,
      "çļĦçŁ": 1989,
      "è·³": 1990,
      "ä»£è¡¨": 1991,
      "(\"": 1992,
      "çĩ": 1993,
      "ãĢĤæĢ»": 1994,
      "å®ĩ": 1995,
      "æĻ®": 1996,
      "çľ¼": 1997,
      "èĭ±è¯Ń": 1998,
      "Ġof": 1999,
      "ãĢĤå½ĵçĦ¶": 2000,
      "çī©ä½ĵ": 2001,
      "æ··": 2002,
      "éĥ½æľī": 2003,
      "çħ®": 2004,
      "è¯Ħè®º": 2005,
      "è·Ŀç¦»": 2006,
      "ä½ı": 2007,
      "éĽª": 2008,
      "åŃĹç¬¦ä¸²": 2009,
      "åĩī": 2010,
      "ä¸ĬéĿ¢": 2011,
      "ç»ĦæĪĲ": 2012,
      "ç¥ŀç§ĺ": 2013,
      "ãĢĤ\"": 2014,
      "ä¸ĭæĿ¥": 2015,
      "æ°ĶåĢĻ": 2016,
      "åįĥ": 2017,
      "de": 2018,
      "ãĢĤåı¦å¤ĸ": 2019,
      "è¯´æĺİ": 2020,
      "éķ¿åº¦": 2021,
      "ran": 2022,
      "å®ĥçļĦ": 2023,
      "çĸĳ": 2024,
      "æ¥": 2025,
      "ĠB": 2026,
      "æĸ¹ç¨ĭ": 2027,
      "äºĭä»¶": 2028,
      "å¾Īå¥½": 2029,
      "æ¬¢è¿İ": 2030,
      "æµĵ": 2031,
      "ç¤¼": 2032,
      "ï¼Įå¯¹": 2033,
      "å¯»æī¾": 2034,
      "ãĢĤä½Ĩæĺ¯": 2035,
      "å³°": 2036,
      "\\n": 2037,
      "Ġe": 2038,
      "éĩİ": 2039,
      "å¾Ħ": 2040,
      "æĪĲåĬŁ": 2041,
      "æł·çļĦ": 2042,
      "èĳ±": 2043,
      "åħ³éĶ®è¯į": 2044,
      "Ġre": 2045,
      "é¢Ŀ": 2046,
      "çķ¥": 2047,
      "æ±½": 2048,
      "ï¼Įä½łåı¯ä»¥": 2049,
      "åķĨåĵģ": 2050,
      "åĮĢ": 2051,
      "åŁºäºİ": 2052,
      "ĠA": 2053,
      "åĪĿ": 2054,
      "åįĬ": 2055,
      "ä¸įéĶĻ": 2056,
      "èĮĦ": 2057,
      "å±ħ": 2058,
      "ä¸ºä»Ģä¹Ī": 2059,
      "çī¹å¾ģ": 2060,
      "èĮ¶": 2061,
      "éĶĢåĶ®": 2062,
      "è¿Ļç§į": 2063,
      "æĿĤ": 2064,
      "æ¯ĶèµĽ": 2065,
      "ç´§": 2066,
      "ç¬¬äºĮ": 2067,
      "æĲŃéħį": 2068,
      "ge": 2069,
      "¹ģ": 2070,
      "çļĦçĶµå½±": 2071,
      "å°Ħ": 2072,
      "æĿİ": 2073,
      "å¹¸": 2074,
      "æķ°éĩı": 2075,
      "æ¤Ĵ": 2076,
      "æĳĦ": 2077,
      "éļıçĿĢ": 2078,
      "å¦Ļ": 2079,
      "ä»¤äºº": 2080,
      ".čĊ": 2081,
      "oo": 2082,
      "æĸĩåŃ¦": 2083,
      "æĦŁè°¢": 2084,
      "ï¼Įå°ı": 2085,
      "ä¸Ģå®ļ": 2086,
      "ä¸Ńå¿ĥ": 2087,
      "åĩ»": 2088,
      "åĪĨåĪ«": 2089,
      "åħ¬å¼ı": 2090,
      "æĿ¡ä»¶": 2091,
      "çĨĬ": 2092,
      "am": 2093,
      "çīĻ": 2094,
      "éĢĤéĩı": 2095,
      "èĥľ": 2096,
      "èĦĳ": 2097,
      "çļĦç¬": 2098,
      "å½¢å¼ı": 2099,
      "çº¢èī²": 2100,
      "ä¸įä»ħ": 2101,
      "çĶµåŃĲ": 2102,
      "æŃ¥éª¤": 2103,
      "å©": 2104,
      "çĽĬ": 2105,
      "æ°§": 2106,
      "æ´Ĺ": 2107,
      "ç¼º": 2108,
      "çĨŁ": 2109,
      "åĮĹäº¬": 2110,
      "ãģ": 2111,
      "çĽĺ": 2112,
      "è¿Ļä¸ªéĹ®é¢ĺ": 2113,
      "åĮĸåŃ¦": 2114,
      "ä¾ĭåŃĲ": 2115,
      "éĶĻè¯¯": 2116,
      "ç»Ŀ": 2117,
      "ä¸įä¼ļ": 2118,
      "åĳ¼": 2119,
      "ç¥¨": 2120,
      "çıŃ": 2121,
      "æİ§åĪ¶": 2122,
      "ç¾İåĳ³": 2123,
      "çĥ§": 2124,
      "çŁ¥è¯Ĩ": 2125,
      "ï¼Łå½ĵ": 2126,
      "ãĢĤèĢĮ": 2127,
      "æľµ": 2128,
      "çļĦçľ": 2129,
      "æĲľ": 2130,
      "å®Ļ": 2131,
      "åŃ¤": 2132,
      "æĺ¯åľ¨": 2133,
      "ä¼´": 2134,
      "çī¹åĪ«": 2135,
      "ç©ºæ°Ķ": 2136,
      "ig": 2137,
      "ï¼ĮâĢľ": 2138,
      "æĿ¥è¯´": 2139,
      "å¤§èĩªçĦ¶": 2140,
      "çĻ¾": 2141,
      "Ġde": 2142,
      "qu": 2143,
      "åĵĪ": 2144,
      "æĮĳæĪĺ": 2145,
      "èĻ½": 2146,
      "æŃĮæĽ²": 2147,
      "æļĹ": 2148,
      "å®ĩå®Ļ": 2149,
      "å·¨": 2150,
      "æĶ¯æĮģ": 2151,
      "æŁĵ": 2152,
      "ä¸´": 2153,
      "åĪĹåĩº": 2154,
      "è®Ń": 2155,
      "å¹ħ": 2156,
      "ï¼Įåĩ": 2157,
      "äººçĶŁ": 2158,
      "å·¥åħ·": 2159,
      "ãĢĤè¯·éĹ®": 2160,
      "ist": 2161,
      "äº¤éĢļ": 2162,
      "ä¸Ģæ¬¡": 2163,
      "æľīä¸Ģä¸ª": 2164,
      "çĶŁæĢģ": 2165,
      "æĺİå¤©": 2166,
      "å·§åħĭ": 2167,
      ")čĊ": 2168,
      "ä»ĸçļĦ": 2169,
      "æĢĿèĢĥ": 2170,
      "ä¸ºæĪĳ": 2171,
      "æĬĺ": 2172,
      "å¸¸è§ģ": 2173,
      "ç®¡çĲĨ": 2174,
      "ct": 2175,
      "ä¼¤": 2176,
      "èģĮ": 2177,
      "é¥®æĸĻ": 2178,
      "æĦī": 2179,
      "ï¼ĮæĪĳä¼ļ": 2180,
      "å®¢æĪ·": 2181,
      "å®ł": 2182,
      "ç»ľ": 2183,
      "åį«": 2184,
      "åħ´è¶£": 2185,
      "æľīå¾Īå¤ļ": 2186,
      "åħ³æ³¨": 2187,
      "å¼Ģåıĳ": 2188,
      "å¿«ä¹Ĳ": 2189,
      "èĻ½çĦ¶": 2190,
      "åĽ°": 2191,
      "æ¸©æļĸ": 2192,
      "æ·»åĬł": 2193,
      "è¯Ĭ": 2194,
      "ä¼ģ": 2195,
      "æ´²": 2196,
      "åĲ¸å¼ķ": 2197,
      "ld": 2198,
      "çļĦéĩįè¦ģ": 2199,
      "å½ķ": 2200,
      "æĦ¿": 2201,
      "é£ĺ": 2202,
      "åĨĻä¸Ģç¯ĩåħ³äºİ": 2203,
      "æ©Ļ": 2204,
      "ot": 2205,
      "ç¹ģ": 2206,
      "ä»Ģä¹Īæĺ¯": 2207,
      "ç¾¤": 2208,
      "ç»§": 2209,
      "åĬ¨ä½ľ": 2210,
      "é¢Ħæµĭ": 2211,
      "ç»ª": 2212,
      "è´¢": 2213,
      "é¥¼": 2214,
      "ä½Ľ": 2215,
      "é¥°": 2216,
      "éĥ¨çĶµå½±": 2217,
      "æ··åĲĪ": 2218,
      "Ġ*": 2219,
      "ï¼Įä»¥ä¸ĭæĺ¯": 2220,
      "æľīä»Ģä¹Ī": 2221,
      "éĿ¢åĮħ": 2222,
      "å½¢æĪĲ": 2223,
      "æĦŁåıĹåĪ°": 2224,
      "å¿Ĺ": 2225,
      "è¯·éĹ®": 2226,
      "ç¾İåħĥ": 2227,
      "åĽłç´ł": 2228,
      "æĶ¾åľ¨": 2229,
      "çļĦæ°Ķ": 2230,
      "çļĦæŃĮ": 2231,
      "å·§åħĭåĬĽ": 2232,
      "ä½³": 2233,
      "ç»ĩ": 2234,
      "å½ĵåľ°": 2235,
      "åİŁåĽł": 2236,
      "ä¸Ģå¤©": 2237,
      "çļĦæ²": 2238,
      "ï¼Łå¦Ĥæŀľ": 2239,
      "æĹ¥æľŁ": 2240,
      "Ġ||": 2241,
      "ä¾Ŀ": 2242,
      "äºĭæĥħ": 2243,
      "ç»¿èī²": 2244,
      "åŃ©åŃĲ": 2245,
      "çļĦè¯Ŀ": 2246,
      "è®¢": 2247,
      "éĢı": 2248,
      "æĦıä¹ī": 2249,
      "é¢ĳ": 2250,
      "é«ĺçļĦ": 2251,
      "åĿļ": 2252,
      "çļĦæ°´": 2253,
      "å®łçī©": 2254,
      "ir": 2255,
      "åį´": 2256,
      "å¤§å°ı": 2257,
      "éĩıåŃĲ": 2258,
      "è®©äºº": 2259,
      "éĵģ": 2260,
      "æĽ´å¤ļçļĦ": 2261,
      "è¿ĩç¨ĭä¸Ń": 2262,
      "é¡ºåºı": 2263,
      "æ±½è½¦": 2264,
      "æ°´æŀľ": 2265,
      "çļĦæµ·": 2266,
      "æĲľç´¢": 2267,
      "ä¸ĢæŃ¥": 2268,
      "ä¸ĵä¸ļ": 2269,
      "ªèĮĦ": 2270,
      "åĬª": 2271,
      "çļĦæĹħ": 2272,
      "ï¼Įè¯·éĹ®": 2273,
      "éĵ¾": 2274,
      "æĺ¥å¤©": 2275,
      "èķ": 2276,
      "Ġ$": 2277,
      "èµı": 2278,
      "çĥĪ": 2279,
      "ç¼ĵ": 2280,
      "åŁºæľ¬": 2281,
      "é»ĳæ´ŀ": 2282,
      "åħ°": 2283,
      "æĿĥ": 2284,
      "æĶ¿": 2285,
      "åıªæľī": 2286,
      "å¨ģ": 2287,
      "æĺ¯å¤ļå°ĳ": 2288,
      "æĭŁ": 2289,
      "æĸ¹æ¡Ī": 2290,
      "éĴĪ": 2291,
      "ï¼Įå¥¹": 2292,
      "æ³³": 2293,
      "å¤§éĩı": 2294,
      "å°ıæĹ¶": 2295,
      "ç½ĳç«Ļ": 2296,
      "æĮģç»Ń": 2297,
      "us": 2298,
      "Ġå°Ĩ": 2299,
      "ä¸Ģä½į": 2300,
      "è´ŁéĿ¢": 2301,
      "åı¯ä»¥ä½¿çĶ¨": 2302,
      "æ±ĩ": 2303,
      "æĢ§çļĦ": 2304,
      "å®ŀéĻħ": 2305,
      "åĵªä¸ª": 2306,
      "è¯ĨåĪ«": 2307,
      "é¾Ħ": 2308,
      "»åĬ¨": 2309,
      "ä¸Ģæ¬¾": 2310,
      "èµŀ": 2311,
      "é¡¿": 2312,
      "åĪĽå»º": 2313,
      "åĬĽéĩı": 2314,
      "è¯Ħä»·": 2315,
      "èµĦæºĲ": 2316,
      "é¼ł": 2317,
      "èĹ": 2318,
      "ä½Ļ": 2319,
      "æŃ¢": 2320,
      "çł´": 2321,
      "èľľ": 2322,
      "åª": 2323,
      "åı¯ä»¥å¸®åĬ©": 2324,
      "è®¾å¤ĩ": 2325,
      "èĵĿèī²": 2326,
      "è¿·": 2327,
      "ä»¥ä¸Ĭ": 2328,
      "çĽ¸ä¼¼": 2329,
      "åĪĽæĸ°": 2330,
      "è¯ĬæĸŃ": 2331,
      "æľ«": 2332,
      "ä¸ŃæľĢ": 2333,
      "ä¼¦": 2334,
      "è°±": 2335,
      "å®ĥä»¬çļĦ": 2336,
      "ç½ĳç»ľ": 2337,
      "ç»§ç»Ń": 2338,
      "ow": 2339,
      "ĠP": 2340,
      "éĴ±": 2341,
      "èĥ¡": 2342,
      "est": 2343,
      "è¿Ļæ®µ": 2344,
      "ä¸ºäºĨ": 2345,
      "é£Łåĵģ": 2346,
      "ä»ĸä»¬çļĦ": 2347,
      "çļĦä¸»é¢ĺ": 2348,
      "åıĮ": 2349,
      "è¾£": 2350,
      "è¾Ĩ": 2351,
      "èĤ¡": 2352,
      "èģļ": 2353,
      "è§Ĵèī²": 2354,
      "åĿĩåĮĢ": 2355,
      "ï¼ĮåĨį": 2356,
      "æ¥¼": 2357,
      "åĤ": 2358,
      "ï¼ĮçĶ¨": 2359,
      "çļĦæı": 2360,
      "æ³¡": 2361,
      "çķªèĮĦ": 2362,
      "ä¸īè§Ĵ": 2363,
      "å¤įæĿĤ": 2364,
      "çī©çĲĨ": 2365,
      "åĨ³å®ļ": 2366,
      "é©¶": 2367,
      "é»Ħèī²": 2368,
      "æľºåĻ¨äºº": 2369,
      "ç¡Ģ": 2370,
      "çļĦæĻ¯": 2371,
      "èĨ": 2372,
      "ĠM": 2373,
      "çļĦçĥ": 2374,
      "è®¡åĪĴ": 2375,
      "åŁºç¡Ģ": 2376,
      "åĶ±": 2377,
      "èģĶç³»": 2378,
      "ï¼Įæ¯ıä¸ª": 2379,
      "åĬ±": 2380,
      "åĵº": 2381,
      "æĤ¦": 2382,
      "çļĦçģ": 2383,
      "å°Ĩåħ¶": 2384,
      "æĺŁæľŁ": 2385,
      "æ®µèĲ½": 2386,
      "èĮĥåĽ´": 2387,
      "çļĦåı¥åŃĲ": 2388,
      "è¡¡": 2389,
      "æľĢç»Ī": 2390,
      "åıĹæ¬¢è¿İ": 2391,
      "æĶ¾åħ¥": 2392,
      "èĳĹåĲįçļĦ": 2393,
      "įä½ľ": 2394,
      "ï¼Įå¼": 2395,
      "åĨ¬": 2396,
      "ä¿ĥ": 2397,
      "æĸ¹åĲĳ": 2398,
      "æ°Ķæ¸©": 2399,
      "æ¶¦": 2400,
      "ç¬¦åĲĪ": 2401,
      "åĲ¹": 2402,
      "åľ¨ä¸Ģèµ·": 2403,
      "åľ°åĮº": 2404,
      "åĲĪéĢĤ": 2405,
      "éĵ¶": 2406,
      "çļĦæĢ»": 2407,
      "The": 2408,
      "å¹¸ç¦ı": 2409,
      "ä¸Ŀ": 2410,
      "æĿ¿": 2411,
      "æµİ": 2412,
      "æ¸ħåįķ": 2413,
      "ï¼Įè®©æĪĳ": 2414,
      "æĲħ": 2415,
      "ç¼ĸç¨ĭ": 2416,
      "ï¼Įäººä»¬": 2417,
      "åĩºäºĨ": 2418,
      "ä½įäºİ": 2419,
      "æ¹ĸ": 2420,
      "æĶ¾æĿ¾": 2421,
      "ç¥Ŀ": 2422,
      "ç»ĺ": 2423,
      "çŃīæĸ¹éĿ¢": 2424,
      "çĽ®åīį": 2425,
      "ad": 2426,
      "ãĢĤä¸į": 2427,
      "ä¸Ģç»Ħ": 2428,
      "çļĦæĮ": 2429,
      "çļĦçº": 2430,
      "æ¶ī": 2431,
      "æµģè¡Į": 2432,
      "çļĦæķ°æį®": 2433,
      "è®Ńç»ĥ": 2434,
      "ke": 2435,
      "åĩĢ": 2436,
      "è¡¨éĿ¢": 2437,
      "é¡»": 2438,
      "æĬĢå·§": 2439,
      "åĭĩ": 2440,
      "æľĹ": 2441,
      "çº¸": 2442,
      "çī¹å®ļ": 2443,
      "åĪĨç±»ä¸º": 2444,
      "è¯»èĢħ": 2445,
      "ï¼ĮæĤ¨åı¯ä»¥": 2446,
      "åĬŀ": 2447,
      "æķ°ä¸º": 2448,
      "æ³ķå¾ĭ": 2449,
      "éļĲ": 2450,
      "èĻļ": 2451,
      "æ»¡è¶³": 2452,
      "çĵľ": 2453,
      "èĥĮæĻ¯": 2454,
      "¾çĹħ": 2455,
      "çļĦæľĢ": 2456,
      "çĽĸ": 2457,
      "éģĵå¾·": 2458,
      "æĲħæĭĮ": 2459,
      "è¯Ńæ³ķ": 2460,
      "è·Ł": 2461,
      "ç§ĳå¹»": 2462,
      "åĢ¼å¾Ĺ": 2463,
      "éĢģ": 2464,
      "èĥ½æºĲ": 2465,
      "å¯Ł": 2466,
      "è¶ĭ": 2467,
      "ä¸»äºº": 2468,
      "çĽ´åĪ°": 2469,
      "éĩĩçĶ¨": 2470,
      "Ġåľ¨": 2471,
      "æĽ¿": 2472,
      "æ£®": 2473,
      "çļĦæĸ¹æ³ķ": 2474,
      "éĹª": 2475,
      "å°ıæĺİ": 2476,
      "å¤ļä¸ª": 2477,
      "Ġfor": 2478,
      "çļĦåľ°æĸ¹": 2479,
      "ri": 2480,
      "«èĲ¨": 2481,
      "éŀ": 2482,
      "æĬķ": 2483,
      "åĮ»åŃ¦": 2484,
      "ä¸¥": 2485,
      "ãĢĤéĿŀå¸¸": 2486,
      "éĺ¿": 2487,
      "å¿ĥçĲĨ": 2488,
      "ç»ıæµİ": 2489,
      "æł¹æį®ä»¥ä¸ĭ": 2490,
      "æ£Ģ": 2491,
      "Ġnum": 2492,
      "è¿Ļç¯ĩæĸĩç«ł": 2493,
      "åĵºä¹³": 2494,
      "ï¼Įåħ¶": 2495,
      "âĢĿçļĦ": 2496,
      "è°ģ": 2497,
      "è¢ĭ": 2498,
      "ç«¯": 2499,
      "çļĦæĬĢ": 2500,
      "æĺł": 2501,
      "éĻĪ": 2502,
      "æľ¬ä¹¦": 2503,
      "æķĻèĤ²": 2504,
      "æŃ£ç¡®çļĦ": 2505,
      "èĥ½éĩı": 2506,
      "æī§": 2507,
      "åİĺ": 2508,
      "ç»ıåİĨ": 2509,
      "ï¼ĮæĪĳä»¬éľĢè¦ģ": 2510,
      "èĦļ": 2511,
      "Ã©": 2512,
      "ç¾İå¥½": 2513,
      "èĤ¤": 2514,
      "çĽ¸äºĴ": 2515,
      "å®¹æĺĵ": 2516,
      "ç»ĨèĬĤ": 2517,
      "åĮ»çĶŁ": 2518,
      "Ġbe": 2519,
      "çļĦçĪ±": 2520,
      "ä»¿": 2521,
      "æľīæķĪ": 2522,
      "å¹´é¾Ħ": 2523,
      "é¢ĦæĬ¥": 2524,
      "æİ¥ä¸ĭæĿ¥": 2525,
      "çļĦæĹ¶åĢĻ": 2526,
      "ï¼Įè¯¥": 2527,
      "ï¼ĮåĪĻ": 2528,
      "ãĢĤä»İ": 2529,
      "éĢĶ": 2530,
      "çİī": 2531,
      "è´£": 2532,
      "æĦŁè§ī": 2533,
      "èį¯": 2534,
      "ç³»åĪĹ": 2535,
      "ãĢĤåľ¨è¿Ļä¸ª": 2536,
      "èħ¿": 2537,
      "äºĶä¸ª": 2538,
      "åŃ¤çĭ¬": 2539,
      "åŃĲçļĦ": 2540,
      "è¡¨æł¼": 2541,
      "å¤ıåŃ£": 2542,
      "æ¶īåıĬ": 2543,
      "åħĶ": 2544,
      "çļĦæ³": 2545,
      "åĨĴ": 2546,
      "æķĪçİĩ": 2547,
      "æ°ĶåĢĻåıĺåĮĸ": 2548,
      "æĺ¯çĶ±": 2549,
      "å°Ĭ": 2550,
      "å°ļ": 2551,
      "åŃ¦çĶŁ": 2552,
      "è®©æĪĳä»¬": 2553,
      "æıĲä¾Ľä¸ĢäºĽ": 2554,
      "æµ·æ´ĭ": 2555,
      "éº¦": 2556,
      "å·¦åı³": 2557,
      "åĬªåĬĽ": 2558,
      "ï¼Įè¿ĺ": 2559,
      "ï¼Įè¿ĺæľī": 2560,
      "ç±»åĪ«": 2561,
      "çĸ¾çĹħ": 2562,
      "åĸľæ¬¢çļĦ": 2563,
      "å¸Ĥåľº": 2564,
      "èİĵ": 2565,
      "èĲ¥åħ»": 2566,
      "åĵºä¹³åĬ¨çī©": 2567,
      "ãĢĤäººå·¥æĻºèĥ½": 2568,
      "å¥ĸ": 2569,
      "éľ²": 2570,
      "çºª": 2571,
      "ï¼Įè®©äºº": 2572,
      "éŀĭ": 2573,
      "ï¼ĮéĢļå¸¸": 2574,
      "çļĦå»ºè®®": 2575,
      "å¥ı": 2576,
      "é¢Ĺ": 2577,
      "å¤ļç§į": 2578,
      "ï¼īï¼Į": 2579,
      "æ¸¸æ³³": 2580,
      "èĩªçĦ¶è¯Ńè¨Ģ": 2581,
      "å®Ī": 2582,
      "å¿Ĩ": 2583,
      "è¯Ńè¨Ģæ¨¡åŀĭ": 2584,
      "æ£Ĵ": 2585,
      "è¶ĭåĬ¿": 2586,
      "ï¼Įå»º": 2587,
      "æ¹¿": 2588,
      "ï¼Įå¤§": 2589,
      "ãĢĤåı¯ä»¥": 2590,
      "ãĢģâĢľ": 2591,
      "è¡Ĺ": 2592,
      "èĢ³": 2593,
      "å¿ĺ": 2594,
      "çĽ¸åĲĮ": 2595,
      "ï¼ĮèĢĮä¸Ķ": 2596,
      "ä¸ĸçķĮä¸ĬæľĢ": 2597,
      "è¿Ļåı¥è¯Ŀ": 2598,
      "åįĪ": 2599,
      "ä¸Ĭæµ·": 2600,
      "çĤ¼": 2601,
      "éĻĦ": 2602,
      "è¯įæ±ĩ": 2603,
      "é¡¹çĽ®": 2604,
      "æľīè¶£çļĦ": 2605,
      "çļĦæĶ": 2606,
      "äººçī©": 2607,
      "ï¼ļ-": 2608,
      "çĽĳ": 2609,
      "ï¼ŁæĪĳ": 2610,
      "çĶµè§Ĩ": 2611,
      "èĹı": 2612,
      "app": 2613,
      "çĦ¶èĢĮ": 2614,
      "æĥħèĬĤ": 2615,
      "çıį": 2616,
      "ä¼ģä¸ļ": 2617,
      "èļ": 2618,
      "ç§ģ": 2619,
      "è´µ": 2620,
      "èī²å½©": 2621,
      "åģı": 2622,
      "ort": 2623,
      "åĳ³éģĵ": 2624,
      "è¿Ķ": 2625,
      "è¿ĻéĩĮ": 2626,
      "è¯įè¯Ń": 2627,
      "æĹłè®º": 2628,
      "è§īå¾Ĺ": 2629,
      "é¥®é£Ł": 2630,
      "ç¾İä¸½çļĦ": 2631,
      "åĢĴåħ¥": 2632,
      "å¥¥": 2633,
      "æĿ¥è¶Ĭ": 2634,
      "æ¬£": 2635,
      "åģľ": 2636,
      "æģĲ": 2637,
      "è¶ĬæĿ¥è¶Ĭ": 2638,
      "Ġv": 2639,
      "æĭĤ": 2640,
      "æĽ¾": 2641,
      "åĪĨäº«": 2642,
      "åĿĲ": 2643,
      "æ·±åħ¥": 2644,
      "Ġ/": 2645,
      "åįı": 2646,
      "ï¼ŁâĢĿ": 2647,
      "éĻ¢": 2648,
      "è®©æĪĳ": 2649,
      "è½¬æį¢": 2650,
      "æĵįä½ľ": 2651,
      "ãĢĤæľī": 2652,
      "çģ¯": 2653,
      "ï¼Įä»¥ä¾¿": 2654,
      "å¹¿åĳĬ": 2655,
      ".\"": 2656,
      "çļĦæĸĩæľ¬": 2657,
      "åĲ¯": 2658,
      "å°º": 2659,
      "åįļ": 2660,
      "çĶŁæĹ¥": 2661,
      "çŃīäºİ": 2662,
      "æĻ¨": 2663,
      "åı¥åŃĲä¸Ń": 2664,
      "æķĪæŀľ": 2665,
      "ol": 2666,
      "ĠW": 2667,
      "ãĢĤè¯¥": 2668,
      "ä¸Ģä¸ªäºº": 2669,
      "åĪĨåŃĲ": 2670,
      "æ³ķè¯Ń": 2671,
      "è§ĤçĤ¹": 2672,
      "ï¼ģčĊ": 2673,
      "æĶ¹åıĺ": 2674,
      "èĴľ": 2675,
      "ï¼ĮæĪĸèĢħ": 2676,
      "æĿŁ": 2677,
      "çĽ¸å¯¹": 2678,
      "åĽŀçŃĶä¸ĬéĿ¢": 2679,
      "å¤ªéĺ³ç³»": 2680,
      "çªĹ": 2681,
      "éŃĶ": 2682,
      "ä¸īè§Ĵå½¢": 2683,
      "åĽŀçŃĶä¸ĬéĿ¢çļĦéĹ®é¢ĺ": 2684,
      "ç£": 2685,
      "èĥ½ä¸įèĥ½": 2686,
      "å¾ª": 2687,
      "éĿł": 2688,
      "è¡ĮåĬ¨": 2689,
      "è¿Ľä¸ĢæŃ¥": 2690,
      "çļĦæĥħåĨµ": 2691,
      "ä¸ĢçĽ´": 2692,
      "å¤«": 2693,
      "é£ŁæĿĲ": 2694,
      "ãĢĤè¿Ļç§į": 2695,
      "åıĹåĪ°": 2696,
      "å£°éŁ³": 2697,
      "ãĢĤæīĢä»¥": 2698,
      "å¯¹è¯Ŀ": 2699,
      "å®ļä¹ī": 2700,
      "åıĺæĪĲ": 2701,
      "æµ·æ»©": 2702,
      "å½¢çĬ¶": 2703,
      "èıľåįķ": 2704,
      "æĻ¯çĤ¹": 2705,
      "åıĤåĬł": 2706,
      "çĵ¶": 2707,
      "ç»ĥä¹ł": 2708,
      "ï¼ĮåĬłåħ¥": 2709,
      "æĸĩåŃĹ": 2710,
      "çİ°å®ŀ": 2711,
      "çİ°è±¡": 2712,
      "äºĭå®ŀ": 2713,
      "çļĦæĹ¥": 2714,
      "ç§°ä¸º": 2715,
      "éĨĴ": 2716,
      "å¯Ĵ": 2717,
      "çĶŁéķ¿": 2718,
      "ãĢĭãĢĤ": 2719,
      "æ¶²": 2720,
      "åħ·ä½ĵçļĦ": 2721,
      "ç®ĢåįķçļĦ": 2722,
      "è½¯ä»¶": 2723,
      "åĳ¼åĲ¸": 2724,
      "å®ģ": 2725,
      "çļĦæ´": 2726,
      "çīĪ": 2727,
      "æĭ¿": 2728,
      "ï¼īãĢĤ": 2729,
      "æīĭæľº": 2730,
      "çŁŃè¯Ń": 2731,
      "id": 2732,
      "è¸": 2733,
      "å·ŀ": 2734,
      "èĭ¦": 2735,
      "res": 2736,
      "æ·±åº¦": 2737,
      "ac": 2738,
      "ï¼Įå°±": 2739,
      "ãĢĤåħ¶": 2740,
      "å®½": 2741,
      "çĽĽ": 2742,
      "çº³": 2743,
      "åĬĽçļĦ": 2744,
      "æĪ¿éĹ´": 2745,
      "ï¼ĮåĲĮæĹ¶ä¹Ł": 2746,
      "åİĺç±³": 2747,
      "¹æŀľ": 2748,
      "ãĢĤæ¯Ķå¦Ĥ": 2749,
      "åĩºæĿ¥": 2750,
      "èĭ¹æŀľ": 2751,
      "æŃ£éĿ¢": 2752,
      "çļĦæİ¨": 2753,
      "ht": 2754,
      "âĦ": 2755,
      "ï¼Įèĥ½å¤Ł": 2756,
      "ä¹ħ": 2757,
      "è¿Ļæł·": 2758,
      "çĶŁäº§": 2759,
      "èĤĮ": 2760,
      "æ·¡": 2761,
      "æĬ¥åĳĬ": 2762,
      "åĽ¢éĺŁ": 2763,
      "av": 2764,
      "ä»į": 2765,
      "æ±¤": 2766,
      "é«ĺåº¦": 2767,
      "éĽħ": 2768,
      "çīĽèĤī": 2769,
      "çıł": 2770,
      "```čĊ": 2771,
      "çĭ¬çī¹çļĦ": 2772,
      "âĦĥ": 2773,
      "ï¼Įå±": 2774,
      "ï¼ļ```": 2775,
      "æ´¾": 2776,
      "æ»ĳ": 2777,
      "è½»è½»": 2778,
      "å¿«éĢŁ": 2779,
      "åħ¬åı¸çļĦ": 2780,
      "è§£éĩĬä¸Ģä¸ĭ": 2781,
      "è¡£æľį": 2782,
      "è¿½æ±Ĥ": 2783,
      "ĠH": 2784,
      "å¾Ĺåĩº": 2785,
      "éĶ»": 2786,
      "å²Ľ": 2787,
      "çļĦä¸»è¦ģ": 2788,
      "ï¼Įå¿": 2789,
      "âĢĿåĴĮ": 2790,
      "åķĬ": 2791,
      "å¤ıæĹ¥": 2792,
      "éĶ»çĤ¼": 2793,
      "èŃ": 2794,
      "ï¼Įæł¹æį®": 2795,
      "ãĢĤçİ°åľ¨": 2796,
      "ä¹İ": 2797,
      "çº½": 2798,
      "one": 2799,
      "å¥³åŃ©": 2800,
      "âĢĶâĢĶ": 2801,
      "å°¾": 2802,
      "åį·": 2803,
      "åľ°æĸ¹": 2804,
      "åħ±åĲĮ": 2805,
      "for": 2806,
      "å¸ģ": 2807,
      "åĵªéĩĮ": 2808,
      "çļĦæ¸©": 2809,
      "ï¼Įå½ĵ": 2810,
      "ith": 2811,
      "æĺ¯åĽłä¸º": 2812,
      "å¥Ĺ": 2813,
      "æĸ°é²ľ": 2814,
      "åĨĻä¸Ģé¦ĸ": 2815,
      "å£®": 2816,
      "çļĦçŁŃ": 2817,
      "èŃ¦": 2818,
      "åı¹": 2819,
      "æĪ·å¤ĸ": 2820,
      "èĿ¶": 2821,
      "ä¼ĳ": 2822,
      "ä¸įåı¯": 2823,
      "åĳĪ": 2824,
      "æ±ī": 2825,
      "é£İéĻ©": 2826,
      "ä»¿ä½Ľ": 2827,
      "ĠD": 2828,
      "èıĩ": 2829,
      "our": 2830,
      "èĩªçĦ¶è¯Ńè¨Ģå¤ĦçĲĨ": 2831,
      "å®«": 2832,
      "æ°ı": 2833,
      "æķ°çļĦ": 2834,
      "æģĴ": 2835,
      "åĸĿ": 2836,
      "åħ¬éĩĮ": 2837,
      "ant": 2838,
      "ãĢĤä½łåı¯ä»¥": 2839,
      "æ¦": 2840,
      "åħ«": 2841,
      "çķħ": 2842,
      "é»İ": 2843,
      "è¾¾åĪ°": 2844,
      "æİĮ": 2845,
      "ç§įç±»": 2846,
      "âĢĿãĢģâĢľ": 2847,
      "éģį": 2848,
      "åĢį": 2849,
      "åĨĻä¸Ģä¸ª": 2850,
      "çĬ¬": 2851,
      "åĲ«ä¹ī": 2852,
      "çļĦæĢĿ": 2853,
      "æ¦Ĥæĭ¬": 2854,
      "os": 2855,
      "çļĦéĿ¢ç§¯": 2856,
      "ãĢĤçĦ¶åĲİ": 2857,
      "åºĵ": 2858,
      "æ·±åĪ»": 2859,
      "è°ĥåĳ³": 2860,
      "éĻĪè¿°": 2861,
      "çļĦéĢīæĭ©": 2862,
      "çļĦåįķè¯į": 2863,
      "éĢĴ": 2864,
      "æĻ´": 2865,
      "è°Ī": 2866,
      "éļıæľº": 2867,
      "ï¼ĮéĢļè¿ĩ": 2868,
      "ãĢĤåħ¶ä¸Ń": 2869,
      "è¿Ļé¦ĸ": 2870,
      "ï¼Įåĳ": 2871,
      "æĬ«èĲ¨": 2872,
      "è´§": 2873,
      "ç±»ä¼¼": 2874,
      "é»ĺ": 2875,
      "çĮ®": 2876,
      "Ġ---": 2877,
      "èĩ³å°ĳ": 2878,
      "ç¤¾äº¤": 2879,
      "è¡¨è¾¾äºĨ": 2880,
      "å¸¦æĿ¥äºĨ": 2881,
      "æķ£æŃ¥": 2882,
      "ï¼Įå¾Ĺ": 2883,
      "ĠÃĹ": 2884,
      "ä¿ĥè¿Ľ": 2885,
      "æ¾": 2886,
      "ãĢĤéĢļè¿ĩ": 2887,
      "è½®": 2888,
      "ç¨³": 2889,
      "åĸľå¥½": 2890,
      "æİ¨èįĲä¸ĢäºĽ": 2891,
      "åģļåĩº": 2892,
      "ç¬¬ä¸Ģä¸ª": 2893,
      "æĶ¯ä»ĺ": 2894,
      "ä¸ĢæĿ¡": 2895,
      "ç§Ģ": 2896,
      "çļĦç¤": 2897,
      "å¹³åĿĩ": 2898,
      "è°ĥæķ´": 2899,
      "çļĦæĦıæĢĿ": 2900,
      "éĴĪå¯¹": 2901,
      "çº½çº¦": 2902,
      "è¹": 2903,
      "éĢĤå½ĵ": 2904,
      "æĺ¯ä¸Ģéĥ¨": 2905,
      "èĭı": 2906,
      "çĶŁæĪĲä¸Ģé¦ĸ": 2907,
      "çĹĽ": 2908,
      "ä¸ºæĤ¨æıĲä¾Ľ": 2909,
      "æ²»çĸĹ": 2910,
      "ãĢĤ-": 2911,
      "æĭį": 2912,
      "è§ĦåĪĻ": 2913,
      "çļĦæķ°éĩı": 2914,
      "éĻĦè¿ĳ": 2915,
      "\\\\": 2916,
      "ly": 2917,
      "æĹĭ": 2918,
      "éģĹ": 2919,
      "å¼ºè°ĥ": 2920,
      "ªæĸ½": 2921,
      "æĩ": 2922,
      "ĠE": 2923,
      "ãĢĤä»¥ä¸ĭæĺ¯": 2924,
      "ä¸Ģæľ¬": 2925,
      "ä¸Ģæł·": 2926,
      "ä¸ĢèĪ¬": 2927,
      "æľīæīĢ": 2928,
      "åı¯ä»¥è¢«": 2929,
      "âĢ¦": 2930,
      "çĶ¨æĿ¥": 2931,
      "çľģ": 2932,
      "çĪ½": 2933,
      "éĢĲæ¸Ĳ": 2934,
      "ç»ķ": 2935,
      "æľīçĿĢ": 2936,
      "ç»ĵåĲĪ": 2937,
      "è®ºæĸĩ": 2938,
      "Ġst": 2939,
      "é©¾": 2940,
      "è¶³å¤Ł": 2941,
      "è£ħé¥°": 2942,
      "èľĤ": 2943,
      "å¿ħé¡»": 2944,
      "çļĦæıı": 2945,
      "ew": 2946,
      "ĠL": 2947,
      "ï¼Įä¸İ": 2948,
      "ãĢĤå¸ĮæľĽ": 2949,
      "åºĬ": 2950,
      "æķħ": 2951,
      "æł¡": 2952,
      "çļĦç®": 2953,
      "å°Ĩä¼ļ": 2954,
      "ä¹Łä¼ļ": 2955,
      "ï¼ĮæĪĳæĥ³": 2956,
      "åĨĻä½ľ": 2957,
      "è¿Ľè¡ĮåĪĨç±»": 2958,
      "èĻ«": 2959,
      "éĢłæĪĲ": 2960,
      "å©ļ": 2961,
      "put": 2962,
      "æľĿ": 2963,
      "çļĦæ¦Ĥ": 2964,
      "ä¼½": 2965,
      "ç±į": 2966,
      "éľĢè¦ģæ³¨æĦı": 2967,
      "åĲİçļĦ": 2968,
      "æĦıæĢĿ": 2969,
      "ç¿»è¯ĳæĪĲä¸Ńæĸĩ": 2970,
      "é¼ĵ": 2971,
      "èĸĦ": 2972,
      "ĽåĽ´": 2973,
      "ï¼Įåıª": 2974,
      "æŃ»": 2975,
      "çļĦçĭ": 2976,
      "å±Ģ": 2977,
      "ç¾İå¥½çļĦ": 2978,
      "æıĲä¾ĽäºĨ": 2979,
      "é¡¾": 2980,
      "ï¼Įè¿Ļæł·": 2981,
      "å¹³åı°": 2982,
      "Ġ|čĊ": 2983,
      "æĢ»ç»ĵ": 2984,
      "è½»æĿ¾": 2985,
      "ï¼Įå»ºè®®": 2986,
      "æª": 2987,
      "å®ĺ": 2988,
      "åĵ²": 2989,
      "çĤİ": 2990,
      "ç¾İçļĦ": 2991,
      "åĿ¦": 2992,
      "çľĭèµ·æĿ¥": 2993,
      "ç»Ħç»ĩ": 2994,
      "èĽĭçĻ½": 2995,
      "åĳĺå·¥": 2996,
      "ï¼ĮåĽłä¸ºå®ĥ": 2997,
      "ï¼Įçİ°åľ¨è¯·ä½ł": 2998,
      "çļĦæĦŁè§ī": 2999,
      "çĩĥ": 3000,
      "python": 3001,
      "èª": 3002,
      "ĠG": 3003,
      "å®ľ": 3004,
      "æľīåĵªäºĽ": 3005,
      "éĢ»": 3006,
      "çº·": 3007,
      "éĺµ": 3008,
      "ï¼Įä¹Łåı¯ä»¥": 3009,
      "æĪĲä¸ºäºĨ": 3010,
      "å»": 3011,
      "Ġj": 3012,
      "ãĢĤå¥¹": 3013,
      "çĶŁåŃĺ": 3014,
      "ers": 3015,
      "èĪª": 3016,
      "å§Ĩ": 3017,
      "çļĦæ¸¸": 3018,
      "æµªæ¼«": 3019,
      "æ£®æŀĹ": 3020,
      "éĢ»è¾ĳ": 3021,
      ".ãĢĬ": 3022,
      "çļĦæĸ¹å¼ı": 3023,
      "ä¸Ģä»¶": 3024,
      "åľ¨åĮ»çĸĹ": 3025,
      "å¦ĤæŃ¤": 3026,
      "ä¸Ĭä¸ĭ": 3027,
      "éĿ¢ä¸Ĭ": 3028,
      "æ¬§": 3029,
      "çİ°åĩº": 3030,
      "åĲĮä¹īè¯į": 3031,
      "è°·": 3032,
      "å¹´è½»": 3033,
      "çĪ¬": 3034,
      "éĽ¶": 3035,
      "å»ºç«ĭ": 3036,
      "çļĦç¾İå¥½": 3037,
      "èĴ¸": 3038,
      "åĤ¨": 3039,
      "Ġle": 3040,
      "ï¼ĮæıĲé«ĺ": 3041,
      "ï¼Įåİ": 3042,
      "éĤ£ä¹Ī": 3043,
      "ä¸»è¯Ń": 3044,
      "å¹´çļĦ": 3045,
      "æĸĩæľ¬ä¸Ń": 3046,
      "æŁ¥è¯¢": 3047,
      "å¤ľæĻļ": 3048,
      "æ²Ļæĭī": 3049,
      "æŁĲä¸ª": 3050,
      "éĩĩåıĸ": 3051,
      "å·´é»İ": 3052,
      "åł¡": 3053,
      "ãĢĤè°¢è°¢": 3054,
      "æĺ¯æĪĳ": 3055,
      "æĪĲéķ¿": 3056,
      "å¹³æĸ¹": 3057,
      "ä»ĭç»įä¸Ģä¸ĭ": 3058,
      "æĴŃ": 3059,
      "è¿ĶåĽŀ": 3060,
      "çļĦå¥½": 3061,
      "ãĢĤå¯¹äºİ": 3062,
      "åį±": 3063,
      "ä¹ĭåīį": 3064,
      "ç¼©": 3065,
      "å½¢è±¡": 3066,
      "ord": 3067,
      "åĳ¨åĽ´": 3068,
      "åĪĩæĪĲ": 3069,
      "éº»": 3070,
      "ab": 3071,
      "ï¼Įä¸Ģä¸ª": 3072,
      "çļĦé£Łçī©": 3073,
      "ãĢĤå°ı": 3074,
      "ãĢĤå¸®æĪĳ": 3075,
      "å°ģ": 3076,
      "çļĦç¥": 3077,
      "åº¦åĴĮ": 3078,
      "éĩįæĸ°": 3079,
      "é¡µ": 3080,
      "æ¡Į": 3081,
      "end": 3082,
      "ç¢İ": 3083,
      "ç¾Ĭ": 3084,
      "çļĦæīĭ": 3085,
      "æ°¸è¿ľ": 3086,
      "ĠT": 3087,
      "åı¯çĪ±": 3088,
      "æĸ¹ä¾¿": 3089,
      "åĬłä¸Ĭ": 3090,
      "æīĢåľ¨": 3091,
      "ç»ıå¸¸": 3092,
      "æ¯ıå¤©": 3093,
      "å±ķç¤º": 3094,
      "ãĢĤæĪĳæĥ³": 3095,
      "çĽ´æİ¥": 3096,
      "ç¢³": 3097,
      "ç§ĳåŃ¦å®¶": 3098,
      "ä¿®æĶ¹": 3099,
      "åĺ": 3100,
      "çļĦå°ıè¯´": 3101,
      "ï¼Įåº": 3102,
      "å¥ĭ": 3103,
      "æł¸": 3104,
      "ä¸ĭåĪĹ": 3105,
      "åľ°ä¸Ĭ": 3106,
      "çļĦç©": 3107,
      "é¸£": 3108,
      "æĢ»æĺ¯": 3109,
      "å¡«": 3110,
      "ä¸ĩçī©": 3111,
      "te": 3112,
      "ï¼ļæĪĳ": 3113,
      "æĬ½": 3114,
      "çĤ¸": 3115,
      "çĿ¡": 3116,
      "é£İåĲ¹": 3117,
      "ation": 3118,
      "æµĭè¯ķ": 3119,
      "æİ¢è®¨": 3120,
      "çĬ¶æĢģ": 3121,
      "è®°å½ķ": 3122,
      "ï¼ĮæľĢç»Ī": 3123,
      "łæª": 3124,
      "ãĢĤçĦ¶èĢĮ": 3125,
      "åĨľ": 3126,
      "è¯ŃéŁ³": 3127,
      "æ±Ł": 3128,
      "æİĴåĪĹ": 3129,
      "è®²ä¸Ģä¸ª": 3130,
      "łæª¬": 3131,
      "èĺ": 3132,
      "ï¼Įè¦ģ": 3133,
      "ï¼Įä½¿çĶ¨": 3134,
      "ï¼ĮçĽ´åĪ°": 3135,
      "çļĦéŁ³ä¹Ĳ": 3136,
      "ä¸Ģéģĵ": 3137,
      "è¯ļ": 3138,
      "æĺ¯çļĦ": 3139,
      "ä¸ºä½ł": 3140,
      "ï¼ļåľ¨": 3141,
      "èĢĢ": 3142,
      "æī¿": 3143,
      "ä¼ļè®®": 3144,
      "éĤ®": 3145,
      "é¡¶": 3146,
      "åĬ©äºİ": 3147,
      "æļ´": 3148,
      "ä¹¦ç±į": 3149,
      "å®Įåħ¨": 3150,
      "ç»Ļä½ł": 3151,
      "è®¾ç½®": 3152,
      "ï¼Įè®©æĪĳä»¬": 3153,
      "é»ĳèī²": 3154,
      "é¸¡èĤī": 3155,
      "èįīèİĵ": 3156,
      "Ġla": 3157,
      "å¡Ķ": 3158,
      "å½Ĵç±»": 3159,
      "èķī": 3160,
      "ĺè¦ģ": 3161,
      "ľä¼½": 3162,
      "çļĦåĢ¼": 3163,
      "çļĦé¢ľèī²": 3164,
      "åĪ°è¾¾": 3165,
      "è¡Įä¸ļ": 3166,
      "èĩªæĪĳ": 3167,
      "èĬĿ": 3168,
      "æĺİç¡®": 3169,
      "é¦Ļèķī": 3170,
      "æĻļä¸Ĭ": 3171,
      "æĥħåĨµä¸ĭ": 3172,
      "åĪĽä½ľä¸Ģé¦ĸ": 3173,
      "..": 3174,
      "è¿Ļéĥ¨çĶµå½±": 3175,
      "æķı": 3176,
      "å¯¿": 3177,
      "åŃĲéĩĮ": 3178,
      "æıĲåĩº": 3179,
      "åĢ¾": 3180,
      "èį¡": 3181,
      "é£Łè°±": 3182,
      "éĻ¤ä»¥": 3183,
      "åģĩè®¾": 3184,
      "æĦīæĤ¦": 3185,
      "ãĢĤä¸įè¿ĩ": 3186,
      "Ġ'": 3187,
      "è¡Ģ": 3188,
      "æĤ²": 3189,
      "éľľ": 3190,
      "çļĦç¼": 3191,
      "é£İæĻ¯": 3192,
      "èĭ±åĽ½": 3193,
      "æīĵå¼Ģ": 3194,
      "å¥³æĢ§": 3195,
      "æ¶Īè´¹": 3196,
      "çļĦå¹³åĿĩ": 3197,
      "ult": 3198,
      "å¸¸è§ģçļĦ": 3199,
      "çļĦåĨħå®¹": 3200,
      "è¿¹": 3201,
      "åĪº": 3202,
      "å¯Ĥ": 3203,
      "æĭ¼": 3204,
      "çĲ´": 3205,
      "è¡¨æĺİ": 3206,
      "é«ĺæķĪ": 3207,
      "çĭ®": 3208,
      "æł¹æį®ç»Ļå®ļçļĦ": 3209,
      "æĸĩç«łä¸Ń": 3210,
      "éĴ¢": 3211,
      "åºĶçĶ¨ç¨ĭåºı": 3212,
      "èİ·åıĸ": 3213,
      "åĽ°éļ¾": 3214,
      "çļĦåĲįåŃĹ": 3215,
      "çĶ°": 3216,
      "æĿ¥èĩª": 3217,
      "åĪĨä¸º": 3218,
      "æľºä¼ļ": 3219,
      "çģ¾": 3220,
      "çĻ»": 3221,
      "ç®ĢçŁŃ": 3222,
      "å¼ķåĬĽ": 3223,
      "ãĢĤæĤ¨åı¯ä»¥": 3224,
      "æī§è¡Į": 3225,
      "èĺĳ": 3226,
      "XX": 3227,
      "ä¸įè¦ģ": 3228,
      "æ°´å¹³": 3229,
      "å¦Ĥæŀľä½ł": 3230,
      "éĥģ": 3231,
      "æ¸ħæĸ°": 3232,
      "Ġch": 3233,
      "æłĩåĩĨ": 3234,
      "æ²Ļæ»©": 3235,
      "èªī": 3236,
      "çļĦç©º": 3237,
      "èĺĳèıĩ": 3238,
      "æĹ¶å°ļ": 3239,
      "åĵģç§į": 3240,
      "è¿ĽæŃ¥": 3241,
      "åīĤ": 3242,
      "åĨħå¿ĥ": 3243,
      "è§Ĥå¯Ł": 3244,
      "äº¤æµģ": 3245,
      "åı¦ä¸Ģä¸ª": 3246,
      "çªģçĦ¶": 3247,
      "ight": 3248,
      "ï¼Įå¾ĹåĪ°": 3249,
      "list": 3250,
      "Ġi": 3251,
      "ï¼Įè¢«": 3252,
      "ãĢĤä½ľä¸º": 3253,
      "æĹı": 3254,
      "åŃĲåĴĮ": 3255,
      "è®©ä½ł": 3256,
      "å¿ĥçģµ": 3257,
      "ç´«": 3258,
      "æŁłæª¬": 3259,
      "Ġal": 3260,
      "æĹ¥æľ¬": 3261,
      "çļĦæ¯Ķ": 3262,
      "åĨĴéĻ©": 3263,
      "å¤§æ°Ķ": 3264,
      "æĦıåĳ³": 3265,
      "Ġare": 3266,
      "åıĺéĩı": 3267,
      "ç»ĵè®º": 3268,
      "ç©ºéĹ´": 3269,
      "å¼ķèµ·": 3270,
      "ä¸ľè¥¿": 3271,
      "ãĢĤæĢ»ä¹ĭ": 3272,
      "çļĦæŃĮæĽ²": 3273,
      "\"ï¼Į": 3274,
      "pe": 3275,
      "ãĢĤä»ĸä»¬": 3276,
      "å®£": 3277,
      "æĭħ": 3278,
      "è´Ŀ": 3279,
      "çļĦçł": 3280,
      "çĦ¦": 3281,
      "çī¹èī²": 3282,
      "ç»ıè¿ĩ": 3283,
      "ç¯®": 3284,
      "éħĴåºĹ": 3285,
      "çļĦç¾İä¸½": 3286,
      "ï¼Įå¸®": 3287,
      "åĵ²åŃ¦": 3288,
      "çļĦä¼ĺ": 3289,
      "ä¸Ģå¼ł": 3290,
      "åĬĽåŃ¦": 3291,
      "ä¸»ä¹ī": 3292,
      "èĳ¡": 3293,
      "æ´ĭèĳ±": 3294,
      "()": 3295,
      "´èĿ¶": 3296,
      "åħŃ": 3297,
      "æĺ¨": 3298,
      "åĨĽ": 3299,
      "æı¡": 3300,
      "æĬ±": 3301,
      "æİī": 3302,
      "åĮĸçļĦ": 3303,
      "èĤ¯": 3304,
      "èį·": 3305,
      "æ·ĭ": 3306,
      "éĥ½ä¼ļ": 3307,
      "èĲĦ": 3308,
      "å®ŀéªĮ": 3309,
      "ello": 3310,
      "æĶ¶åħ¥": 3311,
      "èĿ´èĿ¶": 3312,
      "éļĲç§ģ": 3313,
      "èĳ¡èĲĦ": 3314,
      "Ġen": 3315,
      "ï¼ĮéĿŀå¸¸": 3316,
      "ãĢĤå»ºè®®": 3317,
      "å¯¸": 3318,
      "åĵģè´¨": 3319,
      "é¢Ħç®Ĺ": 3320,
      "Ġma": 3321,
      "åĽ¾åĥı": 3322,
      "ĠĠĠ": 3323,
      "èģĶç½ĳ": 3324,
      "æ£ĢæŁ¥": 3325,
      "æ°ıåº¦": 3326,
      "og": 3327,
      "Ġqu": 3328,
      "ä¸ĢæĿ¯": 3329,
      "æİªæĸ½": 3330,
      "é¦¨": 3331,
      "åģ¶": 3332,
      "ç»ıéªĮ": 3333,
      "æĺŁçĲĥ": 3334,
      "æ®Ĭ": 3335,
      "èģª": 3336,
      "è¥¿çıŃ": 3337,
      "åı¤ä»£": 3338,
      "çļĦæłĩ": 3339,
      "èģĬå¤©": 3340,
      "æ°§åĮĸ": 3341,
      "çĶŁæĢģç³»ç»Ł": 3342,
      "è¥¿çıŃçīĻ": 3343,
      "åĹ": 3344,
      "å·Ŀ": 3345,
      "æĥł": 3346,
      "æķ°åĪĹ": 3347,
      "çĽ¸åºĶ": 3348,
      "éĩĮæľī": 3349,
      "èĪ¹": 3350,
      "åĽŀçŃĶéĹ®é¢ĺ": 3351,
      "ï¼ĽčĊ": 3352,
      "æķ´æķ°": 3353,
      "è§Ĩè§ī": 3354,
      "åıĤä¸İ": 3355,
      "è¶ħè¿ĩ": 3356,
      "ĠF": 3357,
      "ãĢĤå®ĥä»¬": 3358,
      "è¿ª": 3359,
      "ä¸Ģéĥ¨": 3360,
      "åºľ": 3361,
      "æĪĲåĪĨ": 3362,
      "éģµ": 3363,
      "éĢĤåºĶ": 3364,
      "çĮª": 3365,
      "èıľåĵģ": 3366,
      "æ¦Ĥå¿µ": 3367,
      "ç¼ĸåĨĻä¸Ģä¸ª": 3368,
      "æĦıå¤§åĪ©éĿ¢": 3369,
      "çļĦèĬ±": 3370,
      "çļĦåĬ¨çī©": 3371,
      "ãĢĤå°Ĩ": 3372,
      "åı¯æĮģç»Ń": 3373,
      "è¿Ļæĺ¯ä¸Ģä¸ª": 3374,
      "å½¼": 3375,
      "çĶ¨çļĦ": 3376,
      "æľĢå¤§": 3377,
      "èĬĴ": 3378,
      "çĶµèĦĳ": 3379,
      "éķľ": 3380,
      "ä¿Ŀè¯ģ": 3381,
      "èĲĿ": 3382,
      "ç½ª": 3383,
      "æ³¨éĩį": 3384,
      "çĬ¯": 3385,
      "Ġwith": 3386,
      "æĬ¥éģĵ": 3387,
      "çļĦæĿ¥": 3388,
      "çļĦæııè¿°": 3389,
      "å½Ĵç±»ä¸º": 3390,
      "æĦıåĳ³çĿĢ": 3391,
      "ĠâĢľ": 3392,
      "ãĢĤçĶ±äºİ": 3393,
      "çļĦæ®": 3394,
      "éĿ©": 3395,
      "åĨ²": 3396,
      "åİ¨": 3397,
      "è¿Ļä¸ªåı¥åŃĲ": 3398,
      "æ±ł": 3399,
      "å¿ĥæĥħ": 3400,
      "éķĩ": 3401,
      "æıĲä¾Ľä¸Ģä¸ª": 3402,
      "éĿŀå¸¸å¥½": 3403,
      "é£ŀè¡Į": 3404,
      "):": 3405,
      "ci": 3406,
      "ŁéĢļ": 3407,
      "ä¹¡": 3408,
      "æĸĹ": 3409,
      "ä½łèĥ½": 3410,
      "æĪĲæľ¬": 3411,
      "å®ļçļĦ": 3412,
      "è¿Ľåħ¥": 3413,
      "æĦıè¯Ĩ": 3414,
      "çī¹æ®Ĭ": 3415,
      "åĿı": 3416,
      "å¼ĢæĶ¾": 3417,
      "åĨ³çŃĸ": 3418,
      "çĬ¶åĨµ": 3419,
      "å®ģéĿĻ": 3420,
      "èģªæĺİ": 3421,
      "ĠN": 3422,
      "äº¿": 3423,
      "åľ£": 3424,
      "åľ¨è¿Ļä¸ª": 3425,
      "æī¬": 3426,
      "æĤł": 3427,
      "æĸ¹å½¢": 3428,
      "å¤ļæł·": 3429,
      "æ³ķåĽ½": 3430,
      "çľĭçľĭ": 3431,
      "åıįä¹īè¯į": 3432,
      "éĩĳèŀį": 3433,
      "çĭ¬ç«ĭ": 3434,
      "AIè¯Ńè¨Ģæ¨¡åŀĭ": 3435,
      "è¿ŀæİ¥": 3436,
      "åĪĽå»ºä¸Ģä¸ª": 3437,
      "ä¸Ģçīĩ": 3438,
      "æµ®": 3439,
      "èĩªè¡Į": 3440,
      "è¯·è¾ĵåħ¥": 3441,
      "æĽ´å¥½çļĦ": 3442,
      "åĬłå¼º": 3443,
      "å®¶åħ·": 3444,
      "çĽ¸ä¿¡": 3445,
      "ï¼Įä½łèĥ½": 3446,
      "åĲ«æľī": 3447,
      "åħħæ»¡äºĨ": 3448,
      "éĻįä½İ": 3449,
      "è®¨è®º": 3450,
      "åħĶåŃĲ": 3451,
      "ä¸Ĭä¸ĭæĸĩ": 3452,
      "ue": 3453,
      "ĠR": 3454,
      "çĶ³": 3455,
      "å®¾": 3456,
      "åľ¨ä¸Ģä¸ª": 3457,
      "ï¼Įåĵ": 3458,
      "éĹŃ": 3459,
      "æıĲåĪ°": 3460,
      "èĬ¬": 3461,
      "éª¨": 3462,
      "ate": 3463,
      "æľªæĿ¥çļĦ": 3464,
      "çľŁæŃ£": 3465,
      "çĳľä¼½": 3466,
      "ĥåľ": 3467,
      "çļĦåŃ£èĬĤ": 3468,
      "ï¼Įå·": 3469,
      "äººåĳĺ": 3470,
      "è§Ī": 3471,
      "çļĦç¨": 3472,
      "æ±¡": 3473,
      "é«ĺåħ´": 3474,
      "åħ¬åħ±": 3475,
      "æĹłéĻĲ": 3476,
      "çļĦæĥ³": 3477,
      "æ¬£èµı": 3478,
      "ĥåľ¾": 3479,
      "Â°": 3480,
      "çļĦåİĨåı²": 3481,
      "æĺ¯ä¸ŃåĽ½": 3482,
      "ä¸ªæĢ§": 3483,
      "æľīäºĽ": 3484,
      "è½½": 3485,
      "ç¨į": 3486,
      "åī©": 3487,
      "ï¼Įå¹¶åľ¨": 3488,
      "å¤ªç©º": 3489,
      "è§Ĵåº¦": 3490,
      "å®Įæķ´": 3491,
      "çļĦæĦıä¹ī": 3492,
      "ill": 3493,
      "Ġ[": 3494,
      "çļĦæĭ": 3495,
      "æķĳ": 3496,
      "çļĦç¿": 3497,
      "åĲĪä½ľ": 3498,
      "åŀĥåľ¾": 3499,
      "éļıæĹ¶": 3500,
      "èħĲ": 3501,
      "Ġli": 3502,
      "æŁĲäºĽ": 3503,
      "åįģåĪĨ": 3504,
      "è¯¢éĹ®": 3505,
      "))": 3506,
      "é½": 3507,
      "ãĢĤâĢľ": 3508,
      "ç»¼": 3509,
      "æŀĿ": 3510,
      "æĤ£": 3511,
      "å¿Ļ": 3512,
      "éĿ¢ä¸´": 3513,
      "åı¯èĥ½æĺ¯": 3514,
      "åĮºåŁŁ": 3515,
      "é©¾é©¶": 3516,
      "Ġon": 3517,
      "ï¼ĮèĬ±": 3518,
      "åĴª": 3519,
      "çŃīé¢ĨåŁŁ": 3520,
      "æıĲåįĩ": 3521,
      "ä½¿å¾Ĺ": 3522,
      "èĢħçļĦ": 3523,
      "éĩįéĩı": 3524,
      "çĽ®çļĦåľ°": 3525,
      "çħİ": 3526,
      "é»ĳæļĹ": 3527,
      "åħ±æľī": 3528,
      "ç¬¬äºĮä¸ª": 3529,
      "åªĴ": 3530,
      "ie": 3531,
      "åĽº": 3532,
      "åįł": 3533,
      "æ°Ķä½ĵ": 3534,
      "å½ĵåīį": 3535,
      "ä¸ĸçºª": 3536,
      "è§Ĥä¼Ĺ": 3537,
      "åĪĻæĺ¯": 3538,
      "ç®Ģæ´ģ": 3539,
      "é¢Ħè®¢": 3540,
      "ä¼ĺåĮĸ": 3541,
      "ç¼ĸè¾ĳ": 3542,
      "åģ¥èº«": 3543,
      "è¶³çĲĥ": 3544,
      "è¾ĵåĩºç»ĵæŀľ": 3545,
      "urn": 3546,
      "çī©çĲĨåŃ¦": 3547,
      "çļĦæĬĢæľ¯": 3548,
      "çļĦæ®µ": 3549,
      "ure": 3550,
      "æķ¢": 3551,
      "æĬĹ": 3552,
      "æĮ¥": 3553,
      "åįķä½į": 3554,
      "ï¼īčĊ": 3555,
      "çĹĩ": 3556,
      "ç¿»è¯ĳæĪĲæ³ķè¯Ń": 3557,
      "æĺ¾ç¤º": 3558,
      "æ½ľ": 3559,
      "è´¢åĬ¡": 3560,
      "ä¸ģ": 3561,
      "ï¼Įæ²¡æľī": 3562,
      "ï¼Įéģ¿åħį": 3563,
      "çļĦçī¹çĤ¹": 3564,
      "æĺ¯æľĢ": 3565,
      "æĢĢ": 3566,
      "çĽĴ": 3567,
      "å±ĭ": 3568,
      "æĶ»": 3569,
      "è¿ĩåİ»": 3570,
      "åīįå¾Ģ": 3571,
      "å¹¶ä¸į": 3572,
      "ï¼ĮåĽŀ": 3573,
      "ãĢĤè¯·ç»ĻæĪĳ": 3574,
      "é¤Ĳé¦Ĩ": 3575,
      "èĦ±": 3576,
      "åºĶçĶ¨äºİ": 3577,
      "å¼ºçĥĪ": 3578,
      "æĶ¹è¿Ľ": 3579,
      "éĨī": 3580,
      "ãĢĤåħ¶æ¬¡": 3581,
      "ï¼ĮåºĶ": 3582,
      "çļĦçĶŁæ´»": 3583,
      "ãĢĤèĻ½çĦ¶": 3584,
      "æĹ¶åĢĻ": 3585,
      "æĥħç»ª": 3586,
      "éħª": 3587,
      "äºĭçī©": 3588,
      "Ġan": 3589,
      "åĸľæ¬¢åĲĥ": 3590,
      "ãĢĤè¯·åĳĬè¯īæĪĳ": 3591,
      "åİŁçĲĨ": 3592,
      "æĳĩ": 3593,
      "åķĨä¸ļ": 3594,
      "ä¼¼ä¹İ": 3595,
      "è´£ä»»": 3596,
      "çĴ": 3597,
      "Ġun": 3598,
      "åĴĮåħ¶ä»ĸ": 3599,
      "ç»ĻæĤ¨": 3600,
      "åĲĪçĲĨ": 3601,
      "äººå·¥æĻºèĥ½æĬĢæľ¯": 3602,
      "å¢ŀå¼º": 3603,
      "ç»Ļåĩºä¸Ģä¸ª": 3604,
      "çļĦæĹ¶éĹ´": 3605,
      "ï¼Įå¯¹äºİ": 3606,
      "æ·±åº¦åŃ¦ä¹ł": 3607,
      "çĶ²": 3608,
      "çŃ¾": 3609,
      "æĥ³è±¡": 3610,
      "èĤ¥": 3611,
      "çĥ¹": 3612,
      "æģ¶": 3613,
      "ç¿ħ": 3614,
      "æııç»ĺ": 3615,
      "ç¤ºä¾ĭ": 3616,
      "ç²Ĵ": 3617,
      "å²¸": 3618,
      "éĨĭ": 3619,
      "ĠÃ·": 3620,
      "çļĦç¬¬": 3621,
      "èĻļæĭŁ": 3622,
      "ĠJ": 3623,
      "ï¼Įæııè¿°": 3624,
      "ãĢĤèĥ½åĲ¦": 3625,
      "è¯º": 3626,
      "ï¼ĮåĢ": 3627,
      "äººæķ°": 3628,
      "æĹ¢": 3629,
      "ç§»åĬ¨": 3630,
      "éľĩ": 3631,
      "å°ıçĮ«": 3632,
      "ä¹ĭåĲİ": 3633,
      "éĩĮçļĦ": 3634,
      "åĪ¶éĢł": 3635,
      "ence": 3636,
      "èĦĤ": 3637,
      "ï¼Įè¯·åĳĬè¯īæĪĳ": 3638,
      "æħ§": 3639,
      "çĽ¸åħ³çļĦ": 3640,
      "çĳ°": 3641,
      "ï¼Įè®²è¿°": 3642,
      "çļĦæ·": 3643,
      "çļĦæŀ": 3644,
      "è¿Ļä¸¤ä¸ª": 3645,
      "åºĨ": 3646,
      "èĢĲ": 3647,
      "æĤ¬": 3648,
      "çľł": 3649,
      "éļľ": 3650,
      "orld": 3651,
      "åĲ¬èµ·æĿ¥": 3652,
      "çĥ¤ç®±": 3653,
      "çķĻä¸ĭ": 3654,
      "çļĦçĥŃ": 3655,
      "èĽĭçĻ½è´¨": 3656,
      "éĤ®ä»¶": 3657,
      "iz": 3658,
      "Ġor": 3659,
      "éĹ²": 3660,
      "çİĽ": 3661,
      "åıĳæĺİ": 3662,
      "åºĶå¯¹": 3663,
      "ãĢĭï¼Į": 3664,
      "æİ¨åĬ¨": 3665,
      "å¹³è¡¡": 3666,
      "åıĤèĢĥ": 3667,
      "¨è¯¢": 3668,
      "ï¼ĮæĽ´": 3669,
      "ï¼Įè®¡ç®Ĺ": 3670,
      "çļĦéĺ³åħī": 3671,
      "çļĦä½įç½®": 3672,
      "ãĢĤA": 3673,
      "ãĢĤåĽłä¸º": 3674,
      "åĴ¨è¯¢": 3675,
      "åľ¨çº¿": 3676,
      "çļĦæĳ": 3677,
      "æ³°": 3678,
      "æĿ¥è®¡ç®Ĺ": 3679,
      "åĩºèī²": 3680,
      "è´¡": 3681,
      "è°ĵ": 3682,
      "çĿĽ": 3683,
      "ç¾İå¦Ļ": 3684,
      "çĶµè¯Ŀ": 3685,
      "èį£": 3686,
      "çĪ¶": 3687,
      "æł¹æį®èĩªå·±çļĦ": 3688,
      "åıªæĺ¯": 3689,
      "ä¼ĺç§Ģ": 3690,
      "äºĴåĬ¨": 3691,
      "çŃĸçķ¥": 3692,
      "å®¤åĨħ": 3693,
      "å¾ªçİ¯": 3694,
      "ï¼Įå¸®åĬ©": 3695,
      "çļĦæ®µèĲ½": 3696,
      "Ģæľī": 3697,
      "çļĦç²": 3698,
      "éĿ¢å¯¹": 3699,
      "ç«¥": 3700,
      "ç«ŀ": 3701,
      "æ¼Ĥ": 3702,
      "æ¸©é¦¨": 3703,
      "èĥŀ": 3704,
      "ç¬¬ä¸Ģ": 3705,
      "è¿Ĳè¡Į": 3706,
      "æ¨¡å¼ı": 3707,
      "æĳ©": 3708,
      "è·¯ä¸Ĭ": 3709,
      "ç¬¦åı·": 3710,
      "ook": 3711,
      "æĪĳåı¯ä»¥": 3712,
      "è¿Ļä¸Ģ": 3713,
      "æŀ¶": 3714,
      "çī©ç§į": 3715,
      "éľĢè¦ģæĪĳ": 3716,
      "ä¹Łæľī": 3717,
      "å®¶äºº": 3718,
      "è·ĥ": 3719,
      "åıĸåĩº": 3720,
      "åıĸå¾Ĺ": 3721,
      "Ġme": 3722,
      "èģĮä¸ļ": 3723,
      "çļĦæĹħæ¸¸": 3724,
      "nt": 3725,
      "æĢ¥": 3726,
      "æĥ¯": 3727,
      "åİļ": 3728,
      "å°ıçĭĹ": 3729,
      "å¯¹æĸ¹": 3730,
      "åĪ¶å®ļ": 3731,
      "èĻ¾": 3732,
      "æĮĩåĩº": 3733,
      "æķ°æį®éĽĨ": 3734,
      "ç¥ŀç»ı": 3735,
      "çļĦç¬ĳ": 3736,
      "ï¼Įåĩı": 3737,
      "å°Ĭéĩį": 3738,
      "çļĦæ´»åĬ¨": 3739,
      "ä»įçĦ¶": 3740,
      "è´¡çĮ®": 3741,
      "å¼ĥ": 3742,
      "ä½łå¥½": 3743,
      "å¤§åľ°": 3744,
      "æģ©": 3745,
      "é£ŁçĶ¨": 3746,
      "Ġpro": 3747,
      "åºĶè¯¥æĺ¯": 3748,
      "åĲĪéĢĤçļĦ": 3749,
      "åªĴä½ĵ": 3750,
      "ï¼ĮéĢĤåĲĪ": 3751,
      "çļĦåħī": 3752,
      "è´¥": 3753,
      "æĻ°": 3754,
      "æĹ¶æľŁ": 3755,
      "è°ľ": 3756,
      "ç¨ĭåº¦": 3757,
      "èĬ±åĽŃ": 3758,
      "æ¡£": 3759,
      "å±±å³°": 3760,
      "ï¼Įä¹Łæĺ¯": 3761,
      "è¯ģæĺİ": 3762,
      "æħ¢æħ¢": 3763,
      "çļĦæĮĩ": 3764,
      "çļĦæ¸¸æĪı": 3765,
      "å½¼æŃ¤": 3766,
      "±ä¹Ĳ": 3767,
      "ĠåĴĮ": 3768,
      "Ħæ¦": 3769,
      "ï¼ĮæĹłæ³ķ": 3770,
      "çļĦåŁİå¸Ĥ": 3771,
      "çī©é¦Ĩ": 3772,
      "æĻĴ": 3773,
      "æį·": 3774,
      "åĲĪçī©": 3775,
      "æīĢéľĢ": 3776,
      "ine": 3777,
      "ç¡¬": 3778,
      "éĽĦ": 3779,
      "æİ¨çĲĨ": 3780,
      "èĦī": 3781,
      "ç¬¬ä¸ī": 3782,
      "åĶĲ": 3783,
      "æĶ¹åĸĦ": 3784,
      "è½¬åĮĸ": 3785,
      "çľŁçļĦ": 3786,
      "å°½ç®¡": 3787,
      "Ġint": 3788,
      "æĳĦæ°ıåº¦": 3789,
      "ä¸»äººåħ¬": 3790,
      "æĽ¾ç»ı": 3791,
      "Ħæ¦Ħ": 3792,
      "ry": 3793,
      "turn": 3794,
      "å´": 3795,
      "çļĦä¸Ģä¸ª": 3796,
      "åĵ¥": 3797,
      "æĹ¶åħī": 3798,
      "åŃ¦æł¡": 3799,
      "è°Ĭ": 3800,
      "çĲĨè®º": 3801,
      "èĤ´": 3802,
      "ä¸ĢäºĽåħ³äºİ": 3803,
      "ç¿Ķ": 3804,
      "éªĳ": 3805,
      "ous": 3806,
      "èİ«": 3807,
      "ç»Ĩèĥŀ": 3808,
      "ome": 3809,
      "çļĦæĢ§": 3810,
      "ï¼Įä½¿å¾Ĺ": 3811,
      "åıĺå¾ĹæĽ´åĬł": 3812,
      "æĬķèµĦ": 3813,
      "æ±¡æŁĵ": 3814,
      "'s": 3815,
      "oh": 3816,
      "Ġ#": 3817,
      "çļĦæ¼": 3818,
      "æĹ¨": 3819,
      "å¹ķ": 3820,
      "åĪĨæĪĲ": 3821,
      "æĤ¨éľĢè¦ģ": 3822,
      "å®ļå¾ĭ": 3823,
      "æĺİçĻ½": 3824,
      "æıĲä¾ĽçļĦ": 3825,
      "ere": 3826,
      "çĶŁæĪĲä¸Ģç¯ĩ": 3827,
      "æ¸ħæĻ°": 3828,
      "ç»ĦåĲĪ": 3829,
      "åĵªç§į": 3830,
      "æ¼Ķåĳĺ": 3831,
      "ï¼Įå¦Ĥæŀľä½ł": 3832,
      "ä¹ĭéĹ´çļĦåħ³ç³»": 3833,
      "ï¼Įå½¢": 3834,
      "ä¸¥éĩį": 3835,
      "é¼ĵåĬ±": 3836,
      "Â²": 3837,
      "çļĦæģ": 3838,
      "ä¼°": 3839,
      "ä½łåı¯ä»¥": 3840,
      "åľ°çĤ¹": 3841,
      "å¤§å®¶": 3842,
      "åŁ¹": 3843,
      "åĪĹä¸¾": 3844,
      "ï¼Įä½łéľĢè¦ģ": 3845,
      "èİİ": 3846,
      "èĥ¡æ¤Ĵ": 3847,
      "åįļçī©é¦Ĩ": 3848,
      "ear": 3849,
      "ï¼Įåı¯": 3850,
      "ä¸ĢåĲį": 3851,
      "ï¼Įå¢": 3852,
      "æķ¬": 3853,
      "ä¾§": 3854,
      "èī³": 3855,
      "è§£çŃĶ": 3856,
      "çĮİ": 3857,
      "çĶŁæĪĲä¸Ģæ®µ": 3858,
      "ana": 3859,
      "æĢĿæĥ³": 3860,
      "èĦ¸": 3861,
      "æİ¥çĿĢ": 3862,
      "å·²çŁ¥": 3863,
      "åįĬå¾Ħ": 3864,
      "çĨĬçĮ«": 3865,
      "æĦīå¿«": 3866,
      "are": 3867,
      "ï¼Įåħ·æľī": 3868,
      "ï¼ĮæľĢåĲİ": 3869,
      "ï¼Įéĺ³åħī": 3870,
      "ãĢĤéĻ¤": 3871,
      "è¿Ļæĺ¯": 3872,
      "å¤§è±¡": 3873,
      "éĿ¢ç²ī": 3874,
      "è¯Ńåı¥": 3875,
      "é¥ª": 3876,
      "æ¸ħæ´ģ": 3877,
      "ä¼łè¾¾": 3878,
      "é²¸": 3879,
      "çº¦ä¸º": 3880,
      "è§Ĩé¢ĳ": 3881,
      "æĴĴ": 3882,
      "å·®å¼Ĥ": 3883,
      "åªļ": 3884,
      "«çĳ°": 3885,
      "ï¿": 3886,
      "ï¼Įäº«åıĹ": 3887,
      "çļĦç»ĵæŀľ": 3888,
      "æī©": 3889,
      "çİ«çĳ°": 3890,
      "éĺ´": 3891,
      "ç¨İ": 3892,
      "æľºæŀĦ": 3893,
      "åĲįè¨Ģ": 3894,
      "ï¼Įè¿Ļæĺ¯": 3895,
      "é¸ŁåĦ¿": 3896,
      "æ©Ħæ¦Ħ": 3897,
      "è´Ńçī©æ¸ħåįķ": 3898,
      "æ©ĻåŃĲ": 3899,
      "èĬĿå£«": 3900,
      "çļĦæĥ³æ³ķ": 3901,
      "ma": 3902,
      "çĥĤ": 3903,
      "ï¼ĮæĪĳå°Ĩ": 3904,
      "çĪĨ": 3905,
      "å¹¶æ²¡æľī": 3906,
      "å§ľ": 3907,
      "æĢĿç»´": 3908,
      "åıĭè°Ĭ": 3909,
      "æ¯ıä¸ªäºº": 3910,
      "çļĦæīĢæľī": 3911,
      "ï¼ĮéĢīæĭ©": 3912,
      "èĢį": 3913,
      "èĢĹ": 3914,
      "åĵ¦": 3915,
      "æįŁ": 3916,
      "æıĲç¤º": 3917,
      "æģĭ": 3918,
      "çĽ¸åĬł": 3919,
      "ä¹łæĥ¯": 3920,
      "åı£åı·": 3921,
      "ä¼łéĢĴ": 3922,
      "å¦Ĥä½ķåĪ¶ä½ľ": 3923,
      "è¿ĺæľīåħ¶ä»ĸ": 3924,
      "çļĦæ°Ķæģ¯": 3925,
      "è¥¿çıŃçīĻè¯Ń": 3926,
      "ï¿¥": 3927,
      "xt": 3928,
      "ï¼Įè¦ģæ±Ĥ": 3929,
      "ï¼Įä»¿ä½Ľ": 3930,
      "çļĦå¤§": 3931,
      "çļĦå¤ĸ": 3932,
      "äºĨè®¸å¤ļ": 3933,
      "åįľ": 3934,
      "Ġthat": 3935,
      "å¥¶æ²¹": 3936,
      "æŁ¥çľĭ": 3937,
      "ast": 3938,
      "è´¹çĶ¨": 3939,
      "(x": 3940,
      "çļĦçİ¯å¢ĥ": 3941,
      "å¤©ä½ĵ": 3942,
      "æµ¸": 3943,
      "å°ıé¸Ł": 3944,
      "å¿ĥä¸Ń": 3945,
      "å®īè£ħ": 3946,
      "çĻ½èī²": 3947,
      "çļĦæŃ¥": 3948,
      "å¿ħè¦ģ": 3949,
      "éŃħ": 3950,
      "éĶħä¸Ń": 3951,
      "çĸĳéĹ®": 3952,
      "çļĦçłĶç©¶": 3953,
      "èĲĿåįľ": 3954,
      "Ġit": 3955,
      "çļĦä½ĵ": 3956,
      "çļĦä¸ĸçķĮ": 3957,
      "çļĦäºĭæĥħ": 3958,
      "ãĢĤãĢĬ": 3959,
      "æĿĳ": 3960,
      "è§¦": 3961,
      "å¼¹": 3962,
      "çļĦçĮ": 3963,
      "éĿ¢åĽ¢": 3964,
      "èĬ³": 3965,
      "æĦŁåħ´è¶£": 3966,
      "input": 3967,
      "æĺİåªļ": 3968,
      "èıĮ": 3969,
      "æĬĢèĥ½": 3970,
      "åİ»äºĨ": 3971,
      "è¢«ç§°ä¸º": 3972,
      "å§¿": 3973,
      "æľªçŁ¥": 3974,
      "æŁ¥æī¾": 3975,
      "åıĤæķ°": 3976,
      "å¯Ĩçłģ": 3977,
      "å¡ĳ": 3978,
      "çİ©èĢį": 3979,
      "èĸ¯": 3980,
      "é¹ħ": 3981,
      "ç¤¼çī©": 3982,
      "éĩıåŃĲåĬĽåŃ¦": 3983,
      "çļĦç¥ŀ": 3984,
      "oy": 3985,
      "çļĦæ±": 3986,
      "æľĢä½³": 3987,
      "æ´Ĵ": 3988,
      "è¡¨æ¼Ķ": 3989,
      "å®¶å±ħ": 3990,
      "çĪ±å¥½": 3991,
      "äººå·¥æĻºèĥ½çļĦ": 3992,
      "æĳĺè¦ģ": 3993,
      "Ġwe": 3994,
      "çļĦç¾İé£Ł": 3995,
      "ï¼Įå¯¼": 3996,
      "åľŁè±Ĩ": 3997,
      "çĭ®åŃĲ": 3998,
      "NA": 3999,
      "å«": 4000,
      "çļĦä¸»": 4001,
      "çļĦè¯Ĺ": 4002,
      "ãĢĤæľªæĿ¥": 4003,
      "äºĪ": 4004,
      "ä¸Ģåı¥": 4005,
      "åĪļ": 4006,
      "åľ¨äºİ": 4007,
      "éĢĥ": 4008,
      "èī¾": 4009,
      "ãĢĤè¿Ļç¯ĩ": 4010,
      "ä¸¤ç§į": 4011,
      "é¸Ń": 4012,
      "æ¶Ĥ": 4013,
      "ï¼Įä»¥ç¡®ä¿Ŀ": 4014,
      "æııè¿°ä¸Ģä¸ĭ": 4015,
      "æī¾åĩº": 4016,
      "æĮĩå¯¼": 4017,
      "åİŁåŃĲ": 4018,
      "äº«çĶ¨": 4019,
      "æĪĺäºī": 4020,
      "æİ¢éĻ©": 4021,
      "è§£åĨ³æĸ¹æ¡Ī": 4022,
      "ä¹ĺä»¥": 4023,
      "____": 4024,
      "æŁĶè½¯": 4025,
      "ohn": 4026,
      "çļĦä»·æł¼": 4027,
      "ä¸Ģåľº": 4028,
      "æĸ¤": 4029,
      "éĢĢ": 4030,
      "å¥½çľĭ": 4031,
      "çİ°äºĨ": 4032,
      "æıĲåĪ°äºĨ": 4033,
      "ä¹ĭå¤ĸ": 4034,
      "Ġas": 4035,
      "èĦĨ": 4036,
      "å¤©æ°Ķé¢ĦæĬ¥": 4037,
      "äººç±»çļĦ": 4038,
      "å¦Ī": 4039,
      "åħ´å¥ĭ": 4040,
      "å¾®é£İ": 4041,
      "çļĦçľŁ": 4042,
      "ç¨³å®ļ": 4043,
      "çļĦæĿ¥è¯´": 4044,
      "èĩªè¡Įè½¦": 4045,
      "Ġran": 4046,
      "çļĦåħ·ä½ĵ": 4047,
      "çļĦè¿ĩç¨ĭ": 4048,
      "ãĢĤéļıçĿĢ": 4049,
      "è¯¾": 4050,
      "å°¤": 4051,
      "æĿ°": 4052,
      "è¯·åĳĬè¯īæĪĳ": 4053,
      "éĽ·": 4054,
      "åıĸåĨ³": 4055,
      "ä¼ĺç¾İ": 4056,
      "éļ¾ä»¥": 4057,
      "äºĴèģĶç½ĳ": 4058,
      "å¨±ä¹Ĳ": 4059,
      "è®¤ä¸ºæĺ¯": 4060,
      "çļĦéĩįè¦ģæĢ§": 4061,
      "çļĦç¼ĸ": 4062,
      "åıĸåĨ³äºİ": 4063,
      ")```": 4064,
      "ļèĩ³": 4065,
      "çļĦæĸ°": 4066,
      "çļĦçŃĶæ¡Ī": 4067,
      "è¿Ļæł·çļĦ": 4068,
      "äººå¿ĥ": 4069,
      "äººæ°ĳ": 4070,
      "æī¹": 4071,
      "æľĢé«ĺ": 4072,
      "ç§įæ¤į": 4073,
      "ä¹ĭå¤Ħ": 4074,
      "å¼Ģå¤´": 4075,
      "åĸľçĪ±": 4076,
      "çļĦæķĪ": 4077,
      "è°ĥæŁ¥": 4078,
      "ç»Ļå®ļä¸Ģä¸ª": 4079,
      "Ġlo": 4080,
      "çļĦæłĳ": 4081,
      "çĶľçĤ¹": 4082,
      "æĢİä¹Īæł·": 4083,
      "çĶ·åŃ©": 4084,
      "çļĦå¹³æĸ¹": 4085,
      "åİĭåĬĽ": 4086,
      "åį«çĶŁ": 4087,
      "æĶ¿åºľ": 4088,
      "ç¯®çĲĥ": 4089,
      "çļĦè´¨éĩı": 4090,
      "ãĢĤå¤ıå¤©": 4091,
      "ãĢĤæĹłè®º": 4092,
      "çĶļèĩ³": 4093,
      "åĴĮæ°´": 4094,
      "ç§»": 4095,
      "æĢª": 4096,
      "ä¸ĭéĽ¨": 4097,
      "æĹ¶ä»£": 4098,
      "æĤ¨åı¯ä»¥": 4099,
      "çº¯": 4100,
      "åıĳå¸ĥ": 4101,
      "éĻĨ": 4102,
      "éĺ¶": 4103,
      "åıĬåħ¶": 4104,
      "è£¤": 4105,
      "èĲ½åı¶": 4106,
      "å²ģæľĪ": 4107,
      "åį°è±¡": 4108,
      "ĠY": 4109,
      "è¡¥": 4110,
      "æī£": 4111,
      "æīĺ": 4112,
      "åıĳæĮ¥": 4113,
      "åº¦åģĩ": 4114,
      "éĤ£äºĽ": 4115,
      "åıĺæļĸ": 4116,
      "æµ·è¾¹": 4117,
      "åıĬæĹ¶": 4118,
      "ï¼ĮèĢĮä¸įæĺ¯": 4119,
      "ï¼Įä¸įè¦ģ": 4120,
      "è®°å¿Ĩ": 4121,
      "çĳŁ": 4122,
      "çļĦæĻº": 4123,
      "ï¼Įå¸ĮæľĽ": 4124,
      "æ½®": 4125,
      "ï¼ļ\",": 4126,
      "åıĹæ¬¢è¿İçļĦ": 4127,
      "çļĦçĪ±æĥħ": 4128,
      "æ¶īåıĬåĪ°": 4129,
      "è½¬æį¢ä¸º": 4130,
      "çļĦæ¼Ķ": 4131,
      "ï¼Įå¯¼èĩ´": 4132,
      "çļĩ": 4133,
      "ï¼Įä»·æł¼": 4134,
      "ï¼ĮæĦŁåıĹ": 4135,
      "çļĦåĲįç§°": 4136,
      "ãĢĤåħ·ä½ĵ": 4137,
      "ä»Ķ": 4138,
      "æĽ¼": 4139,
      "è´´": 4140,
      "æ²¿": 4141,
      "å®¶éĩĮ": 4142,
      "èıľèĤ´": 4143,
      "ç¢Ĺ": 4144,
      "çļĦæķ°åŃ¦": 4145,
      "çĶŁåĳ½çļĦ": 4146,
      "åı¤åħ¸": 4147,
      "æıĲåıĸåĩº": 4148,
      "çļĦçģµ": 4149,
      "è¹Ī": 4150,
      "ï¼Įå¢ŀ": 4151,
      "he": 4152,
      "à¤": 4153,
      "ä»°": 4154,
      "ï¼Łåľ¨": 4155,
      "æĭĽ": 4156,
      "æ¯«": 4157,
      "è¡Įé©¶": 4158,
      "ä¼ļæľī": 4159,
      "æ²ŁéĢļ": 4160,
      "æ°´ä¸Ń": 4161,
      "èĭ¥": 4162,
      "éļĶ": 4163,
      "çģ°": 4164,
      "çĶŁæĪĲä¸Ģä»½": 4165,
      "è¿Ĳç®Ĺ": 4166,
      "ell": 4167,
      "å¦Ĩ": 4168,
      "éŃĤ": 4169,
      "ç¥ŀç§ĺçļĦ": 4170,
      "çģ¾å®³": 4171,
      "æĺİçĻ½äºĨ": 4172,
      "ï¼Įå½¢æĪĲ": 4173,
      "çŀ": 4174,
      "ï¼Įè¿ĺåı¯ä»¥": 4175,
      "è¦Ĩ": 4176,
      "çĶ¨åĵģ": 4177,
      "å¼±": 4178,
      "çĽĪ": 4179,
      "äºİæĺ¯": 4180,
      "çŃīå¾ħ": 4181,
      "çļĦç½": 4182,
      "æľĢåĸľæ¬¢çļĦ": 4183,
      "éĩĮéĿ¢": 4184,
      "æĺ¯ä¸Ģä½į": 4185,
      "Ġwh": 4186,
      "ï¼Įå°Ĩåħ¶": 4187,
      "æ¼«æŃ¥": 4188,
      "This": 4189,
      "è±ĨèħĲ": 4190,
      "åĨ¬å¤©": 4191,
      "Ph": 4192,
      "è²": 4193,
      "ï¼Įç»Ļ": 4194,
      "ï¼Įä¸»é¢ĺ": 4195,
      "ï¼Įç¡®ä¿Ŀ": 4196,
      "çļĦè¯Ńè¨Ģ": 4197,
      "åĴĮæĸĩåĮĸ": 4198,
      "äººåľ¨": 4199,
      "ï¼Łæł¹æį®": 4200,
      "ï¼Łæĺ¯çļĦ": 4201,
      "æ¯Ĵ": 4202,
      "æĪĳä»¬åı¯ä»¥": 4203,
      "èĤĸ": 4204,
      "æĺİæĺ¾": 4205,
      "ï¼Įè¿Ļç§į": 4206,
      "èĻİ": 4207,
      "åºıåĪĹ": 4208,
      "æĬĢæľ¯çļĦ": 4209,
      "å®īæİĴ": 4210,
      "æ¢ħ": 4211,
      "è®¾è®¡ä¸Ģä¸ª": 4212,
      "åľ°çĲĥçļĦ": 4213,
      "æłĳåı¶": 4214,
      "æīĢæľīçļĦ": 4215,
      "èĪŀè¹Ī": 4216,
      "åľĨå½¢": 4217,
      "ç¬ĳè¯Ŀ": 4218,
      "ä¸°å¯ĮçļĦ": 4219,
      "æĺ¨å¤©": 4220,
      "çļĦç¿»": 4221,
      "Ġlike": 4222,
      "ï¼ĮåĽŀçŃĶ": 4223,
      "ä¸ĥ": 4224,
      "ï¼Įæµ·": 4225,
      "ãĢĤä¸Ģä¸ª": 4226,
      "åĪ·": 4227,
      "æĺ¯éĿŀå¸¸": 4228,
      "æĿĢ": 4229,
      "ä¼Ł": 4230,
      "å¯¹è±¡": 4231,
      "æĥ³æ³ķ": 4232,
      "èĤł": 4233,
      "æŁ¿": 4234,
      "å¸®æĤ¨": 4235,
      "çľĭåĪ°äºĨ": 4236,
      "æŃĮè¯į": 4237,
      "ç»ĻæĪĳä¸Ģä¸ª": 4238,
      "out": 4239,
      "åŃ¦ä¹łåĴĮ": 4240,
      "ï¼ĮèĢĮæĺ¯": 4241,
      "Ġcan": 4242,
      "å¥¶éħª": 4243,
      "Ġyour": 4244,
      "çļĦæ¯ı": 4245,
      "æĸ¹ç¨ĭå¼ı": 4246,
      "è¿Ļæ®µæĸĩæľ¬": 4247,
      "æĲħæĭĮåĿĩåĮĢ": 4248,
      "éŃĶæ³ķ": 4249,
      "åĪºæ¿Ģ": 4250,
      "çļĦç¬ĳè¯Ŀ": 4251,
      "op": 4252,
      "ä¸Ģå®¶": 4253,
      "åľĪ": 4254,
      "æĸĳ": 4255,
      "çļĦæ¤": 4256,
      "äºĨä¸ĢäºĽ": 4257,
      "å·¥ç¨ĭ": 4258,
      "ä»£åħ¥": 4259,
      "èĬĤæĹ¥": 4260,
      "èĬĤå¥ı": 4261,
      "æ»¡æĦı": 4262,
      "ç»´æĬ¤": 4263,
      "ç§¯æŀģçļĦ": 4264,
      "æİĮæı¡": 4265,
      "\"ãĢĤ": 4266,
      "',": 4267,
      "_list": 4268,
      "çļĦåħ³ç³»": 4269,
      "åĴĮè°": 4270,
      "è¿Ļæĺ¯ä¸Ģ": 4271,
      "ä¸ºä¸»é¢ĺ": 4272,
      "âĢĿè¿Ļä¸ª": 4273,
      "åĵģå°Ŀ": 4274,
      "æ´Ľ": 4275,
      "åĽ½éĻħ": 4276,
      "åĪ¶æĪĲ": 4277,
      "Ġpl": 4278,
      "è§ĦåĪĴ": 4279,
      "åłĤ": 4280,
      "çļĦçľ¼": 4281,
      "èĥ¡èĲĿåįľ": 4282,
      "çķªèĮĦéħ±": 4283,
      "åĭĩæķ¢": 4284,
      "å»¶": 4285,
      "åį±éĻ©": 4286,
      "(input": 4287,
      "rt": 4288,
      "ï¼ĮæıĲä¾Ľ": 4289,
      "ãĢģæµ·": 4290,
      "ï¼Įåģ": 4291,
      "ä¸Ńæľī": 4292,
      "ä¸ŃæĢ§": 4293,
      "åĮĸåĴĮ": 4294,
      "éĽ¾": 4295,
      "èı²": 4296,
      "æĻ¯è§Ĥ": 4297,
      "åĪ©æ¶¦": 4298,
      "ä¸īç§į": 4299,
      "ï¼Įä¹Łå°±æĺ¯": 4300,
      "æ¨¡æĭŁ": 4301,
      "çļĦæµģ": 4302,
      "str": 4303,
      "ï¼Įä½¿åħ¶": 4304,
      "çļĦæ³ķ": 4305,
      "ï¼Įå¿ĥ": 4306,
      "ï¼Įåĩıå°ĳ": 4307,
      "AP": 4308,
      "iv": 4309,
      "ob": 4310,
      "ï¼Įä¼ļ": 4311,
      "ç»©": 4312,
      "çļĦæ£": 4313,
      "åŁĥ": 4314,
      "éĩįå¤į": 4315,
      "ä»¥ä¸ĭåı¥åŃĲ": 4316,
      "æııåĨĻ": 4317,
      "æľĪäº®": 4318,
      "çº¢æ¥¼": 4319,
      "è±¡å¾ģ": 4320,
      "les": 4321,
      "éħįæĸĻ": 4322,
      "Ġcon": 4323,
      "èĵĿèī²çļĦ": 4324,
      "å¯»æ±Ĥ": 4325,
      "ç©¿çĿĢ": 4326,
      "æĸ°éĹ»æĬ¥éģĵ": 4327,
      "å°Ĩä»¥ä¸ĭåı¥åŃĲ": 4328,
      "æĶ¿çŃĸ": 4329,
      "ï¼Įå±ķ": 4330,
      "å®£ä¼ł": 4331,
      "çĥ¹é¥ª": 4332,
      "(num": 4333,
      "çļĦåħ³éĶ®": 4334,
      "æľīåĬ©äºİ": 4335,
      "ä»ĸäºº": 4336,
      "åıĳåĩº": 4337,
      "åĮĸåĲĪçī©": 4338,
      "åĲįä¸º": 4339,
      "è¿ĺéľĢè¦ģ": 4340,
      "ä»İä»¥ä¸ĭ": 4341,
      "ãĢĭçŃī": 4342,
      "ç¿ł": 4343,
      "çĸ«": 4344,
      "åŃĺåĤ¨": 4345,
      "æĳĨ": 4346,
      "æĺĵäºİ": 4347,
      "çĵ£": 4348,
      "æĹ©ä¸Ĭ": 4349,
      "æĽ¿æį¢": 4350,
      "ãĢĤéĿŀå¸¸æĦŁè°¢": 4351,
      "æģĲé¾Ļ": 4352,
      "éĴ¢çĲ´": 4353,
      "çļĦç²¾": 4354,
      "pt": 4355,
      "é³": 4356,
      "ĠçļĦ": 4357,
      "çļĦä¸Ģç§į": 4358,
      "çļĦåĴĸåķ¡": 4359,
      "çļĦåľºæĻ¯": 4360,
      "ä¸Ģåı¥è¯Ŀ": 4361,
      "ï¼ļå°Ĩ": 4362,
      "ç§Ĵ": 4363,
      "ç§Ł": 4364,
      "çŃĽ": 4365,
      "å¹½": 4366,
      "æŀ«": 4367,
      "ï¼Łå¥½çļĦ": 4368,
      "æĥ³ä¸Ģä¸ª": 4369,
      "æĺİäº®": 4370,
      "ï¼ĮæĪĳæĹłæ³ķ": 4371,
      "æĻºæħ§": 4372,
      "å°±ä¼ļ": 4373,
      "ang": 4374,
      "çĮ«åĴª": 4375,
      "åĶ¯": 4376,
      "ç§ĭé£İ": 4377,
      "è§Ħå¾ĭ": 4378,
      "é¸Łç±»": 4379,
      "åĿĹéĵ¾": 4380,
      "èĢģé¼ł": 4381,
      "åį«æĺŁ": 4382,
      "ç¤¾äº¤åªĴä½ĵ": 4383,
      "æĩĤ": 4384,
      "ï¼ĮåºĶè¯¥": 4385,
      "\",": 4386,
      "**": 4387,
      "od": 4388,
      "åľ¨è¿Ļ": 4389,
      "âĢĿæĺ¯": 4390,
      "âĢľæĪĳ": 4391,
      "ä¿Ŀåģ¥": 4392,
      "è·µ": 4393,
      "ï¼Įå¹¶å°Ĩ": 4394,
      "æĹłå°½": 4395,
      "æ»´": 4396,
      "èĥģ": 4397,
      "æĮĩçļĦæĺ¯": 4398,
      "è½¦è¾Ĩ": 4399,
      "éĵº": 4400,
      "çĶ»éĿ¢": 4401,
      "åĽĽä¸ª": 4402,
      "çļĦæ¸ħ": 4403,
      "éģĩåĪ°": 4404,
      "ood": 4405,
      "è°ĵè¯Ń": 4406,
      "çļĦç¿»è¯ĳ": 4407,
      "ï¼Įå®ŀçİ°": 4408,
      "çļĦè¡Įä¸º": 4409,
      "çļĦåİŁåĽł": 4410,
      "ãĢĤä¸ºäºĨ": 4411,
      "åįĸ": 4412,
      "çĶŁæľº": 4413,
      "å¿§": 4414,
      "è´¦": 4415,
      "æ¬²": 4416,
      "éĺĶ": 4417,
      "ç¾İæĻ¯": 4418,
      "å®¶çļĦ": 4419,
      "çĭĤ": 4420,
      "ä»¥ä¸ĭæĺ¯ä¸Ģ": 4421,
      "å¼Ģå¿ĥ": 4422,
      "å£¤": 4423,
      "æ±Ĥè§£": 4424,
      "è£Ļ": 4425,
      "ç¿»è¯ĳä¸º": 4426,
      "æīĵåį°": 4427,
      "äºĴçĽ¸": 4428,
      "è§£åĨ³éĹ®é¢ĺ": 4429,
      "ime": 4430,
      "åı«åģļ": 4431,
      "åİ¨æĪ¿": 4432,
      "çļĦè®¾è®¡": 4433,
      "ãĢĤ\\": 4434,
      "æĺ¯è°ģ": 4435,
      "çļĦæ¬": 4436,
      "ï¼Įåĸ": 4437,
      "ä¸ĭçļĦ": 4438,
      "ï¼Łè¿Ļ": 4439,
      "æķ°æĺ¯": 4440,
      "éĥ½åľ¨": 4441,
      "å®ŀè·µ": 4442,
      "ther": 4443,
      "ç¡®è®¤": 4444,
      "Ġsu": 4445,
      "ard": 4446,
      "çľŁå®ŀ": 4447,
      "åĳ¨éķ¿": 4448,
      "åĳ¨æľ«": 4449,
      "è¿ľå¤Ħ": 4450,
      "çļĦæ°ĽåĽ´": 4451,
      "çŃĶæ¡Īæĺ¯": 4452,
      "æ½º": 4453,
      "èī¯å¥½çļĦ": 4454,
      "ãĢĤæĢ»çļĦæĿ¥è¯´": 4455,
      "åĵĪåĪ©": 4456,
      "ava": 4457,
      "çļĦæ·±": 4458,
      "æ©Ħæ¦Ħæ²¹": 4459,
      "įçī©": 4460,
      "ï¼ĮåĪ¤æĸŃ": 4461,
      "çļĦéķ¿åº¦": 4462,
      "çļĦåŁºæľ¬": 4463,
      "ä¸Ģå¹´": 4464,
      "ä¹Ļ": 4465,
      "ä¸ŃéĢīæĭ©": 4466,
      "æĹ§": 4467,
      "æ³Ĭ": 4468,
      "åº¦è¿ĩ": 4469,
      "çĽ¸åıį": 4470,
      "éĥ½åı¯ä»¥": 4471,
      "çģŃ": 4472,
      "ä¸¤ä¸ªåı¥åŃĲ": 4473,
      "çīĽé¡¿": 4474,
      "åħħåĪĨ": 4475,
      "é¥®åĵģ": 4476,
      "ity": 4477,
      "åĭĩæ°Ķ": 4478,
      "_num": 4479,
      "åĴĮæĥħæĦŁ": 4480,
      "æĪĳéľĢè¦ģ": 4481,
      "çļĦæ¢": 4482,
      "æĢĸ": 4483,
      "æĥľ": 4484,
      "æĭĶ": 4485,
      "çļĦçĬ": 4486,
      "æĢ§èĥ½": 4487,
      "å¢Ļ": 4488,
      "éŁµ": 4489,
      "çļĦæķ£": 4490,
      "å±±èĦī": 4491,
      "éĩĳå±ŀ": 4492,
      "é¦Ļæ°Ķ": 4493,
      "è¯Ħä¼°": 4494,
      "Ġmy": 4495,
      "å°½åı¯èĥ½": 4496,
      "åĲ¸æĶ¶": 4497,
      "ï¼Įåį´": 4498,
      "è§£åĨ³è¿Ļä¸ªéĹ®é¢ĺ": 4499,
      "ãĢĤâĢĿčĊ": 4500,
      "äº§çĶŁäºĨ": 4501,
      "æ°§æ°Ķ": 4502,
      "ç¼ºçĤ¹": 4503,
      "å·¨å¤§": 4504,
      "çļĦæĻ¯çĤ¹": 4505,
      "çļĦæĥħåĨµä¸ĭ": 4506,
      "çļĦæ¸©åº¦": 4507,
      "çº¢æ¥¼æ¢¦": 4508,
      "age": 4509,
      "ï¼ĮçĶŁæĪĲä¸Ģä¸ª": 4510,
      "ï¼Įä¿ĿæĮģ": 4511,
      "ï¼ĮçĶ±äºİ": 4512,
      "çļĦåĬĽéĩı": 4513,
      "åıł": 4514,
      "çļĦæ¶": 4515,
      "ä¸įçŁ¥éģĵ": 4516,
      "æĢķ": 4517,
      "æ°¢": 4518,
      "çŃīéĹ®é¢ĺ": 4519,
      "é¦Ī": 4520,
      "æī¾åĪ°äºĨ": 4521,
      "ç¿»çĤĴ": 4522,
      "ould": 4523,
      "åĲĦä¸ª": 4524,
      "æİ¥åıĹ": 4525,
      "Ġcom": 4526,
      "çĥŃéĹ¨": 4527,
      "def": 4528,
      "å¨ģèĥģ": 4529,
      "åĴĮè°Ĳ": 4530,
      "ĩæ·ĭ": 4531,
      "ï¼ĮçĶ¨äºİ": 4532,
      "çļĦå£°éŁ³": 4533,
      "äº¡": 4534,
      "åĪĢ": 4535,
      "åĴĮç¤¾ä¼ļ": 4536,
      "ï¼ļãĢĬ": 4537,
      "åı¯ä»¥æĺ¯": 4538,
      "ä½łæĥ³": 4539,
      "çļĦç±": 4540,
      "åĪĨå¸ĥ": 4541,
      "æıĲéĨĴ": 4542,
      "æĮĤ": 4543,
      "ä¸»è§Ĵ": 4544,
      "åīª": 4545,
      "æ·ĩæ·ĭ": 4546,
      "ç¿©": 4547,
      "ï¼Įåı¯ä»¥ä½¿çĶ¨": 4548,
      "çĮľ": 4549,
      "è®¡ç®Ĺåĩº": 4550,
      "çº¢çĥ§": 4551,
      "èİ±": 4552,
      "å¤ªéĺ³èĥ½": 4553,
      "åıĤè§Ĥ": 4554,
      "æ²Ļåıĳ": 4555,
      "ç¿»è¯ĳæĪĲèĭ±æĸĩ": 4556,
      "åľŁå£¤": 4557,
      "çļĦæĿĲ": 4558,
      "èŀįåĲĪ": 4559,
      "éģĩåĪ°äºĨ": 4560,
      "æµĵéĥģ": 4561,
      "çļĦæĮĳæĪĺ": 4562,
      "è½¬åĮĸä¸º": 4563,
      "çļĦæŃ¥éª¤": 4564,
      "å®¡": 4565,
      "ç»µ": 4566,
      "å¼¦": 4567,
      "æĪĲå°±": 4568,
      "æµħ": 4569,
      "è¯·ç»ĻæĪĳ": 4570,
      "æįķ": 4571,
      "éĤ£éĩĮ": 4572,
      "æ¡¶": 4573,
      "èĤīç±»": 4574,
      "æ¤ħ": 4575,
      "åĨįæ¬¡": 4576,
      "çļĦæķ°åŃĹ": 4577,
      "çģµæĦŁ": 4578,
      "çļĦå¤©æ°Ķé¢ĦæĬ¥": 4579,
      "çļĦçŁ¥": 4580,
      "ç¼ĵè§£": 4581,
      "æĪ·å¤ĸæ´»åĬ¨": 4582,
      "çļĦçĭĹ": 4583,
      "port": 4584,
      "Ġï¿¥": 4585,
      "ãĢĤå¾Īå¥½": 4586,
      "åĴĮä¸Ģä¸ª": 4587,
      "ãĢģå¤§": 4588,
      "çŃīå¼ı": 4589,
      "éĿ¢æĿ¡": 4590,
      "åĬłçĥŃ": 4591,
      "éĻ·": 4592,
      "ãĢĤè¿Ļæł·": 4593,
      "æµ·é²ľ": 4594,
      "çĽ®çļĦ": 4595,
      "ï¼ģâĢĿ": 4596,
      "æĲº": 4597,
      "ä¼ĺæĥł": 4598,
      "ç±³é¥Ń": 4599,
      "å¢ŀéķ¿": 4600,
      "åı¤èĢģ": 4601,
      "ick": 4602,
      "éĻĲåĪ¶": 4603,
      "ï¼Įå¸¦": 4604,
      "åī§æĥħ": 4605,
      "åĪĽéĢłä¸Ģä¸ª": 4606,
      "ãĢĤå¦Ĥæŀľä½łåĸľæ¬¢": 4607,
      "å·¨å¤§çļĦ": 4608,
      "å°¤åħ¶": 4609,
      "è²Į": 4610,
      "ãĢģæĻºèĥ½": 4611,
      "æķ¦": 4612,
      "çĶŁåĬ¨": 4613,
      "æĿ¥æºĲ": 4614,
      "æľĢæĸ°": 4615,
      "ä½¿çĶ¨äºĨ": 4616,
      "æł¹æį®ç»Ļå®ļ": 4617,
      "é£İåħī": 4618,
      "æĹ¥å¸¸": 4619,
      "éĥ¨éĹ¨": 4620,
      "return": 4621,
      "å°±åı¯ä»¥": 4622,
      "è¥¿çĵľ": 4623,
      "å°½åĬĽ": 4624,
      "åĩıè½»": 4625,
      "è§Ħå®ļ": 4626,
      "æłĳæľ¨": 4627,
      "åĪĨæŀĲåĴĮ": 4628,
      "åĨ°æ·ĩæ·ĭ": 4629,
      "è¿½éĢĲ": 4630,
      "çļĦç¨ĭ": 4631,
      "ç«ŀäºī": 4632,
      "au": 4633,
      "em": 4634,
      "pl": 4635,
      "sum": 4636,
      "ï¼Įäººç±»": 4637,
      "ï¼Įè¡¨ç¤º": 4638,
      "çļĦèĥ½åĬĽ": 4639,
      "ä¸ĢçĤ¹": 4640,
      "ãĢģæ°´": 4641,
      "è¿Ļæľ¬ä¹¦": 4642,
      "æľīçĤ¹": 4643,
      "ä¼¸": 4644,
      "åĩºçĶŁ": 4645,
      "æĤŁ": 4646,
      "åĪĨéħį": 4647,
      "æĪĸæĺ¯": 4648,
      "ä¹ĭä¸Ń": 4649,
      "å¹´ä»½": 4650,
      "æ»ļ": 4651,
      "æ¡¥": 4652,
      "èº«é«ĺ": 4653,
      "è§Ĥçľĭ": 4654,
      "ä¼ĺåĬ¿": 4655,
      "åĲ¬åĪ°": 4656,
      "å¯¼æ¼Ķ": 4657,
      "è¾¹éķ¿": 4658,
      "è®¤è¯Ĩ": 4659,
      "æĵİ": 4660,
      "rad": 4661,
      "æ³¢çī¹": 4662,
      "çļ®èĤ¤": 4663,
      "ï¼Įå¾®": 4664,
      "åħ¬åĽŃéĩĮ": 4665,
      "èī¯å¥½": 4666,
      "çĽĲåĴĮ": 4667,
      "èĩªåĬ¨åĮĸ": 4668,
      "éĶĢåĶ®é¢Ŀ": 4669,
      "çļĦæİ¨çĲĨ": 4670,
      "çļĦç®Ģ": 4671,
      "éľĢè¦ģæ³¨æĦıçļĦæĺ¯": 4672,
      "ï¼Įåİ»": 4673,
      "åģ¶æķ°": 4674,
      "çļĦç¼ĸç¨ĭ": 4675,
      "John": 4676,
      "ber": 4677,
      "çļĦä»£è¡¨": 4678,
      "çļĦåŁºç¡Ģ": 4679,
      "ä¹Į": 4680,
      "æĸľ": 4681,
      "çļĦæĽ": 4682,
      "åı¯ä»¥çĶ¨": 4683,
      "ä¼ŀ": 4684,
      "åĨł": 4685,
      "ä½łåľ¨": 4686,
      "å¤§åŀĭ": 4687,
      "ä½ľå®¶": 4688,
      "è¯·å¸®æĪĳ": 4689,
      "æľĢå¥½": 4690,
      "éĻª": 4691,
      "å¾ĹåĪ°äºĨ": 4692,
      "éĤ£ä¸ª": 4693,
      "çĪ¸": 4694,
      "å½¢å®¹": 4695,
      "åĨħéĥ¨": 4696,
      "åľºåĲĪ": 4697,
      "æľŁå¾ħ": 4698,
      "æııè¿°äºĨ": 4699,
      "èĭ±å°º": 4700,
      "ãĢĤè¯·å¸®æĪĳ": 4701,
      "è°ĥæĸĻ": 4702,
      "ï¼Įå®ĥçļĦ": 4703,
      "ï¼Įå®ĥåı¯ä»¥": 4704,
      "åıįé¦Ī": 4705,
      "å¼ķæĵİ": 4706,
      "çĲĨè§£åĴĮ": 4707,
      "ç©¿è¶Ĭ": 4708,
      "åħ¨çĲĥåıĺæļĸ": 4709,
      "çļĦæł¸": 4710,
      "çİĭæĺŁ": 4711,
      "èĨĢ": 4712,
      "ç§ĳå¹»å°ıè¯´": 4713,
      "æ¶Īè´¹èĢħ": 4714,
      "èĤ¯å®ļ": 4715,
      "ĠO": 4716,
      "Ġest": 4717,
      "çļĦä¹¦": 4718,
      "æĪ´": 4719,
      "ä¹ı": 4720,
      "æī®": 4721,
      "åĩºåıĳ": 4722,
      "çļĦçĻ": 4723,
      "æĽ´åĩĨç¡®": 4724,
      "âĢĿãĢĤčĊ": 4725,
      "åĸ»": 4726,
      "å¹´ä»£": 4727,
      "ãĢĭï¼Ī": 4728,
      "ç»ĵæĿŁ": 4729,
      "å¸¦æľī": 4730,
      "å¤ĩçĶ¨": 4731,
      "å®Įç¾İ": 4732,
      "é»Ħæ²¹": 4733,
      "æĢİä¹Īåģļ": 4734,
      "çĩķ": 4735,
      "çļĦè¯Ŀé¢ĺ": 4736,
      "è¾£æ¤Ĵ": 4737,
      "çĤİçĥŃ": 4738,
      "åºĨç¥Ŀ": 4739,
      "Hello": 4740,
      "ak": 4741,
      "cm": 4742,
      "ĠæĪĳ": 4743,
      "çļĦåĳ³éģĵ": 4744,
      "åı¯åı£": 4745,
      "ï¼Įåĥı": 4746,
      "åĩ¡": 4747,
      "çĶŁç´ł": 4748,
      "ä¾µ": 4749,
      "å¤ļäºĳ": 4750,
      "åĢŁ": 4751,
      "ä¸»èıľ": 4752,
      "ï¼Īå¦Ĥ": 4753,
      "æ¼ł": 4754,
      "å§ĵ": 4755,
      "æııè¿°ä¸Ģä¸ª": 4756,
      "æłĩå¿Ĺ": 4757,
      "è·¯çº¿": 4758,
      "åħħè¶³": 4759,
      "row": 4760,
      "æĪĳæĥ³çŁ¥éģĵ": 4761,
      "ĠCh": 4762,
      "ä¸įéĶĻçļĦéĢīæĭ©": 4763,
      "åģıå¥½": 4764,
      "Phone": 4765,
      "çļĦæ¢¦": 4766,
      ":čĊ": 4767,
      "ÃĹ": 4768,
      "çļĦéľĢæ±Ĥ": 4769,
      "è¿Ŀ": 4770,
      "å°ĺ": 4771,
      "æľīè®¸å¤ļ": 4772,
      "å¸Ŀ": 4773,
      "æĸĩæ¡£": 4774,
      "æĿ¥å®ŀçİ°": 4775,
      "è¾ħ": 4776,
      "çļĦç«": 4777,
      "åĪĨæķ°": 4778,
      "çĥŁ": 4779,
      "åħ·å¤ĩ": 4780,
      "æ»ĭ": 4781,
      "ãĢĤè¿Ļæĺ¯ä¸Ģä¸ª": 4782,
      "ãĢĤè¿Ļåı¥è¯Ŀ": 4783,
      "å¢¨": 4784,
      "ï¼Įè¿Ļæĺ¯ä¸Ģä¸ª": 4785,
      "ï¼Įåı¯ä»¥èĢĥèĻĳ": 4786,
      "è¯Ŀé¢ĺ": 4787,
      "æµģçķħ": 4788,
      "åĽŀçŃĶä¸Ģä¸ª": 4789,
      "åĮºåĿĹéĵ¾": 4790,
      "æłĩé¢ĺ": 4791,
      "çļĦæĥħç»ª": 4792,
      "çļĦç¾İæĻ¯": 4793,
      "åĭĴ": 4794,
      "æĵ¦": 4795,
      "é¥¼å¹²": 4796,
      "åĢ¼å¾Ĺä¸Ģ": 4797,
      "å¯ĴåĨ·": 4798,
      "èĤĮèĤī": 4799,
      "ä¼ĳæģ¯": 4800,
      "çļĦç¤¾": 4801,
      "éŃħåĬĽ": 4802,
      "çļĦç½ĳ": 4803,
      "çļĦæķ£æĸĩ": 4804,
      "ĠãĢĬ": 4805,
      "Ġçĥ¤": 4806,
      "åı¯ä¹Ĳ": 4807,
      "çļĦæŁ": 4808,
      "äººåı£": 4809,
      "å¥Ķ": 4810,
      "æĪĲåĳĺ": 4811,
      "æĸĩæĺİ": 4812,
      "æĬĵ": 4813,
      "å¤©çĦ¶": 4814,
      "èµĸ": 4815,
      "æľĢå¥½çļĦ": 4816,
      "ç¨¿": 4817,
      "è¯´è¯Ŀ": 4818,
      "åĽŀå¿Ĩ": 4819,
      "æ®ĸ": 4820,
      "and": 4821,
      "æ®µæĸĩæľ¬": 4822,
      "èĥ¸": 4823,
      "èĽĩ": 4824,
      "ï¼Įè¯·ä½ł": 4825,
      "è¿ĲçĶ¨": 4826,
      "çĭĹçĭĹ": 4827,
      "åĮºåĪ«": 4828,
      "é¢ĨåŁŁçļĦ": 4829,
      "çĶŁæ´»ä¸Ń": 4830,
      "åĩıåİ»": 4831,
      "å¾·åĽ½": 4832,
      "çļĦæŃ£": 4833,
      "è·ĳæŃ¥": 4834,
      "åĿļæĮģ": 4835,
      "èģļä¼ļ": 4836,
      "èĮĥåĽ´åĨħ": 4837,
      "çıįæĥľ": 4838,
      "ä¸ªæĢ§åĮĸ": 4839,
      "çļĦçŁ¥è¯Ĩ": 4840,
      "Java": 4841,
      "ave": 4842,
      "é¬": 4843,
      "ï¼ĮæĬĬ": 4844,
      "çļĦåıĺåĮĸ": 4845,
      "çļĦéĢŁåº¦": 4846,
      "ãĢĤæİ¥ä¸ĭæĿ¥": 4847,
      "ä¸ĢåĪĩ": 4848,
      "åĬ³": 4849,
      "æľīæ²¡æľī": 4850,
      "å¤§çº¦": 4851,
      "èµ¢": 4852,
      "èĩªä¿¡": 4853,
      "ä½ĵéĩį": 4854,
      "å®ļæľŁ": 4855,
      "ä¹Łå¾Ī": 4856,
      "ä¹ĭæĹħ": 4857,
      "å·¥èµĦ": 4858,
      "éĥ½èĥ½": 4859,
      "ä»¥ä¸ĭæĺ¯ä¸Ģä¸ª": 4860,
      "ä¿¡ä»»": 4861,
      "Ġam": 4862,
      "åīįæĻ¯": 4863,
      "èº«å¿ĥ": 4864,
      "ç»ĻæĪĳæİ¨èįĲ": 4865,
      "çº¢éħĴ": 4866,
      "ç»Łè®¡": 4867,
      "æĢĿå¿µ": 4868,
      "ess": 4869,
      "ä»Ĭå¤©å¤©æ°Ķ": 4870,
      "æĴ°": 4871,
      "å®ŀéĻħä¸Ĭ": 4872,
      "ÏĢ": 4873,
      "ï¼Įèĥ½": 4874,
      "ï¼ĮçĶ±": 4875,
      "ãĢĤæľĢç»Ī": 4876,
      "æľīå¤ļå°ĳ": 4877,
      "ä¸ºä¸Ģä¸ª": 4878,
      "æµ´": 4879,
      "æľ¬æĸĩ": 4880,
      "ind": 4881,
      "ç©Ĩ": 4882,
      "è¢ĸ": 4883,
      "å¹¶ä¸Ķ": 4884,
      "çłĶ": 4885,
      "æľŁéĹ´": 4886,
      "ç¦ģ": 4887,
      "Ġsum": 4888,
      "ç®Ģè¦ģ": 4889,
      "äº¤äºĴ": 4890,
      "äº¤æĺĵ": 4891,
      "å¦Ĥä½ķåľ¨": 4892,
      "è¯ĦåĪĨ": 4893,
      "ä»Ĭå¤©æĺ¯": 4894,
      "ï¼Įå¦ĤæŀľæĤ¨": 4895,
      "èİ·å¾ĹäºĨ": 4896,
      "åĪĿåŃ¦": 4897,
      "åĪĨåĪ«æĺ¯": 4898,
      "åĮĸåŃ¦åıįåºĶ": 4899,
      "ç¾İåĳ³çļĦ": 4900,
      "apple": 4901,
      "çļĦæ¦Ĥå¿µ": 4902,
      "é¡¾å®¢": 4903,
      "çļĦäº§åĵģ": 4904,
      "ãĢĤå¥½": 4905,
      "è¿ħ": 4906,
      "æĺĨ": 4907,
      "åĲī": 4908,
      "æī°": 4909,
      "æīİ": 4910,
      "å·¾": 4911,
      "å¯ĵ": 4912,
      "å¿ł": 4913,
      "å°ıçļĦ": 4914,
      "è½¨": 4915,
      "èĢĮè¨Ģ": 4916,
      "èĤª": 4917,
      "çĭ¸": 4918,
      "è±ª": 4919,
      "æĸĩæľ¬åĨħå®¹": 4920,
      "æ¶µ": 4921,
      "ï¼Įå¦Ĥä½ķ": 4922,
      "çŁ¥åĲį": 4923,
      "å±±æ°´": 4924,
      "Ġpar": 4925,
      "éĢļå¸¸æĺ¯": 4926,
      "ç¢§": 4927,
      "æĺ¥èĬĤ": 4928,
      "ï¼ĮæĪĳåı¯ä»¥ä¸ºæĤ¨": 4929,
      "çħ®çĨŁ": 4930,
      "ä¼¦æķ¦": 4931,
      "çļĦæĶ¯": 4932,
      "å¯ĤéĿĻ": 4933,
      "èĦĤèĤª": 4934,
      "éī": 4935,
      "Ĳçĭ¸": 4936,
      "çļĦä½¿çĶ¨": 4937,
      "çļĦä½ľåĵģ": 4938,
      "ä¸Ģå¹ħ": 4939,
      "åºŁ": 4940,
      "åĩĿ": 4941,
      "æ³ī": 4942,
      "ï¼ŁåĽŀçŃĶä¸ĬéĿ¢çļĦéĹ®é¢ĺ": 4943,
      "èµĭ": 4944,
      "å°ıæľĭåıĭ": 4945,
      "éĺ»": 4946,
      "ä¹ĭæĥħ": 4947,
      "æĢ§è´¨": 4948,
      "çĥ¦": 4949,
      "çŁ©": 4950,
      "æİ¨æĸŃ": 4951,
      "åĬ©æīĭ": 4952,
      "æ·±æ·±": 4953,
      "ish": 4954,
      "ä¼łæĴŃ": 4955,
      "åŁºåĽł": 4956,
      "çĽ´å¾Ħ": 4957,
      "é»ĳèĥ¡æ¤Ĵ": 4958,
      "ç¤¾åĮº": 4959,
      "æĸĩåĮĸåĴĮ": 4960,
      "å¯Įæľī": 4961,
      "çļĦæĬ¥": 4962,
      "åŃĹæ¯įé¡ºåºı": 4963,
      "é¹¿": 4964,
      "åįĥåħĭ": 4965,
      "âĢ¦âĢ¦": 4966,
      "çļĦçĮ«": 4967,
      "çļĦæĿĲæĸĻ": 4968,
      "éī´": 4969,
      "ment": 4970,
      "rom": 4971,
      "ï¼Įè°¢è°¢": 4972,
      "çļĦé¦ĸ": 4973,
      "è®¿": 4974,
      "æķ°åĢ¼": 4975,
      "çļĦçĹ": 4976,
      "èĩªä¸»": 4977,
      "æĪĸåħ¶ä»ĸ": 4978,
      "æŃ¤ä¹ĭå¤ĸ": 4979,
      "æıĲä¾ĽæĽ´å¤ļ": 4980,
      "å½¢æĢģ": 4981,
      "ï¼Įåı¯ä»¥éĢīæĭ©": 4982,
      "å®īéĿĻ": 4983,
      "éĵħ": 4984,
      "è§Ĩä¸º": 4985,
      "ç½ĳä¸Ĭ": 4986,
      "æŀĦæĪĲ": 4987,
      "ãĢĤä½łèĥ½": 4988,
      "æ¶Īæŀģ": 4989,
      "æķ£æĸĩ": 4990,
      "æĻ®éĢļ": 4991,
      "åĳĪçİ°åĩº": 4992,
      "çĦ¦èĻĳ": 4993,
      "Â°C": 4994,
      "è¦ĨçĽĸ": 4995,
      "]čĊ": 4996,
      "ph": 4997,
      "ï¼Įåı£æĦŁ": 4998,
      "çļĦèĩªçĦ¶": 4999,
      "çļĦä¾ĭåŃĲ": 5000,
      "ãĢĤS": 5001,
      "åºĦ": 5002,
      "ä¼Ļ": 5003,
      "æĬ¹": 5004,
      "æµĨ": 5005,
      "é¢ĺæĿĲ": 5006,
      "çºł": 5007,
      "å¸¸å¸¸": 5008,
      "ä¹ĭåĴĮ": 5009,
      "èįĴ": 5010,
      "çĽ¸çŃī": 5011,
      "çĲĥåĳĺ": 5012,
      "å¦ĤæŀľæĪĳ": 5013,
      "æ¶Į": 5014,
      "è®¾æĸ½": 5015,
      "æĢ»ç»Ł": 5016,
      "è¯ķè¯ķ": 5017,
      "æŀģç«¯": 5018,
      "æľįè£ħ": 5019,
      "Ġflo": 5020,
      "é»Ħçĵľ": 5021,
      "åı¦ä¸Ģ": 5022,
      "ä¾¿åĪ©": 5023,
      "åĭĥ": 5024,
      "èĴĤ": 5025,
      "åĪĹè¡¨ä¸Ń": 5026,
      "åľĨçļĦ": 5027,
      "çļĦå¤©æ°ĶæĥħåĨµ": 5028,
      "éĵ¶è¡Į": 5029,
      "ç£¨": 5030,
      "è¯ŃéŁ³è¯ĨåĪ«": 5031,
      "çļĦç©ºæ°Ķ": 5032,
      "çļĦæ¤įçī©": 5033,
      "APP": 5034,
      "éĵħç¬Ķ": 5035,
      "ive": 5036,
      "åĴĮä¸į": 5037,
      "åĴĮæľįåĬ¡": 5038,
      "æĺ¯æĪĳä»¬": 5039,
      "ç»½": 5040,
      "ãĢģå°ı": 5041,
      "æĹģ": 5042,
      "æ°ĽåĽ´": 5043,
      "å°ıåĿĹ": 5044,
      "æĽ´æĸ°": 5045,
      "çĶµæ±ł": 5046,
      "çº¢èī²çļĦ": 5047,
      "æĮĩå®ļ": 5048,
      "å¸®åĬ©æĤ¨": 5049,
      "ç¦»å¼Ģ": 5050,
      "å¡ŀ": 5051,
      "çİ©åħ·": 5052,
      "å¨ľ": 5053,
      "æĢİæł·": 5054,
      "ç±»åŀĭçļĦ": 5055,
      "åį°åº¦": 5056,
      "æŁĶåĴĮ": 5057,
      "åĬŀåħ¬": 5058,
      "èį¯çī©": 5059,
      "ç£ģ": 5060,
      "è¸ª": 5061,
      "èľĤèľľ": 5062,
      "æĤ²ä¼¤": 5063,
      "å®¾è¯Ń": 5064,
      "æĶ»åĩ»": 5065,
      "æĤ¬çĸĳ": 5066,
      "æĴĴä¸Ĭ": 5067,
      "çŃĽéĢī": 5068,
      "ud": 5069,
      "ï¼ĮçĶŁæĪĲ": 5070,
      "ï¼Įåıªæľī": 5071,
      "ï¼Įå°¤åħ¶": 5072,
      "çļĦçī©åĵģ": 5073,
      "ãĢĤéĹ®é¢ĺ": 5074,
      "åĴĮå¹³": 5075,
      "åĴĮåıĳå±ķ": 5076,
      "åľ¨æłĳ": 5077,
      "æľīä»»ä½ķ": 5078,
      "ä¼ı": 5079,
      "çİ»": 5080,
      "æĭľ": 5081,
      "æıŃ": 5082,
      "ä¿Ĺ": 5083,
      "ä¹ŁéĿŀå¸¸": 5084,
      "ç³Ĭ": 5085,
      "æıĲä¾ĽæĽ´": 5086,
      "æ»¤": 5087,
      "ãĢĤè¿Ļé¦ĸ": 5088,
      "å±ķå¼Ģ": 5089,
      "æĻ¯èī²": 5090,
      "åĪ«äºº": 5091,
      "è¯Ĺäºº": 5092,
      "èĭ±éĽĦ": 5093,
      "çº¢æŁ¿": 5094,
      "æ¡Īä»¶": 5095,
      "éĩĳé»Ħèī²": 5096,
      "çĥŃæĥħ": 5097,
      "åĲ¬è¯´": 5098,
      "è¥¿çº¢æŁ¿": 5099,
      "Ġdog": 5100,
      "åŁİå¸ĤçļĦ": 5101,
      "è£ħä¿®": 5102,
      "æµĭéĩı": 5103,
      "é£ŀæľº": 5104,
      "é£ŀç¿Ķ": 5105,
      "çİ©å®¶": 5106,
      "åĦ¿ç«¥": 5107,
      "ä¸įæĸŃåľ°": 5108,
      "çļĦæ²Ļ": 5109,
      "æľĹçİĽ": 5110,
      "æ¬§æ´²": 5111,
      "å¹³æĸ¹ç±³": 5112,
      "çļĦæł¸å¿ĥ": 5113,
      "å§ĵåĲį": 5114,
      "æľĹçİĽå³°": 5115,
      "ter": 5116,
      "ï¼Įæ°´": 5117,
      "ï¼Įä¸»è¦ģ": 5118,
      "çļĦæľįåĬ¡": 5119,
      "çļĦä»£çłģ": 5120,
      "ãĢģç³ĸ": 5121,
      "è¿Ļå®¶": 5122,
      "è¾ī": 5123,
      "å¤ļå½©": 5124,
      "åĲĮæł·": 5125,
      "è¯Ńæ°Ķ": 5126,
      "éĿŀæ³ķ": 5127,
      "ç¼ĺ": 5128,
      "èģĺ": 5129,
      "åı¯èĥ½éľĢè¦ģ": 5130,
      "Ġse": 5131,
      "èĮ«": 5132,
      "èĢĥè¯ķ": 5133,
      "èħ»": 5134,
      "åĳ¨æľŁ": 5135,
      "è§Ħæ¨¡": 5136,
      "æŁĲç§į": 5137,
      "èĴĻ": 5138,
      "æķ°åŃ¦é¢ĺ": 5139,
      "æĹ©é¤Ĳ": 5140,
      "Ġex": 5141,
      "ction": 5142,
      "æģĲæĢĸ": 5143,
      "æ¾Ī": 5144,
      "çļĦç¤¼": 5145,
      "ãĢĤå¸ĮæľĽè¿ĻäºĽ": 5146,
      "å©ļç¤¼": 5147,
      "çļĦç±»": 5148,
      "ç©ĨæľĹçİĽå³°": 5149,
      "ag": 5150,
      "ps": 5151,
      "ï¼ĮæĹł": 5152,
      "çļĦä¸ĢäºĽ": 5153,
      "ä»Ļ": 5154,
      "å¤®": 5155,
      "å®Ĺ": 5156,
      "ä¼Ĭ": 5157,
      "éĹ°": 5158,
      "ä¸ĭåįĪ": 5159,
      "ä¼ļåľ¨": 5160,
      "è§£è¯»": 5161,
      "åı¥åŃĲçļĦ": 5162,
      "ç§ĳåĬ¨çī©": 5163,
      "æŃ£å¼ı": 5164,
      "åħ³äºİå¤ıå¤©": 5165,
      "æ·±è¿ľ": 5166,
      "è¯ķåĽ¾": 5167,
      "æ£ĭ": 5168,
      "é²ģ": 5169,
      "æĸ¯åĿ¦": 5170,
      "äºĨè§£ä¸Ģä¸ĭ": 5171,
      "åĮĹæŀģ": 5172,
      "éĺ²æĻĴ": 5173,
      "çľ¼çĿĽ": 5174,
      "éĢĤéĩıçļĦ": 5175,
      "ï¼Įå¼Ģ": 5176,
      "çıłç©ĨæľĹçİĽå³°": 5177,
      "å¼ºè°ĥäºĨ": 5178,
      "åľ¨åĮ»çĸĹé¢ĨåŁŁ": 5179,
      "çĴĥ": 5180,
      "DNA": 5181,
      "rou": 5182,
      "ust": 5183,
      "ãĢĤè¿ĺæľī": 5184,
      "ä»ģ": 5185,
      "ä¸Ģåº§": 5186,
      "éĢĬ": 5187,
      "åı¯ä»¥æł¹æį®": 5188,
      "ä¸įå¤ª": 5189,
      "ä½łéľĢè¦ģ": 5190,
      "å¥½äºĨ": 5191,
      "å¤§åŃ¦": 5192,
      "å¤§æµ·": 5193,
      "èĩªèº«": 5194,
      "åħ¶ä¸ŃçļĦ": 5195,
      "è·¨": 5196,
      "æĺŁæĺŁ": 5197,
      "æĺŁç©º": 5198,
      "ï¼Įåı¯ä»¥åľ¨": 5199,
      "å£³": 5200,
      "èĮ¨": 5201,
      "å¸®åĬ©ä½ł": 5202,
      "ä¼ĺéĽħ": 5203,
      "æİ¥è¿ĳ": 5204,
      "åıĭæĥħ": 5205,
      "éĩĬæĶ¾": 5206,
      "å²©": 5207,
      "å¥¹çļĦ": 5208,
      "çģ«è½¦": 5209,
      "çļĦæĹ¶åħī": 5210,
      "---": 5211,
      "åįĹæŀģ": 5212,
      "çģµæ´»": 5213,
      "æľ¨æĺŁ": 5214,
      "ï¼Įå¾Ī": 5215,
      "å°Ĩä»¥ä¸ĭæĸĩæľ¬": 5216,
      "rans": 5217,
      "å±ħæ°ĳ": 5218,
      "çļĦæĹħè¡Į": 5219,
      "å¤§éĩıçļĦ": 5220,
      "çļĦæĻ¯èī²": 5221,
      "ãĢĤéĿŀå¸¸å¥½": 5222,
      "appy": 5223,
      "éĢĤå½ĵçļĦ": 5224,
      "çĬ¯ç½ª": 5225,
      "Ġrange": 5226,
      "çļĦçĬ¶": 5227,
      "ib": 5228,
      "ĠæĬĬ": 5229,
      "ï¼Įä¸ĢäºĽ": 5230,
      "ï¼ĮéļıçĿĢ": 5231,
      "ä¸Ģé¡¹": 5232,
      "ä¹Ŀ": 5233,
      "æľīæľº": 5234,
      "åı¯ä»¥è®©": 5235,
      "çĶ¨éĢĶ": 5236,
      "ä½łä»¬": 5237,
      "åĲĪä½ľçĶ¨": 5238,
      "å®¶åĽŃ": 5239,
      "æ°´åĪĨ": 5240,
      "éĶģ": 5241,
      "ç½Ĳ": 5242,
      "ï¼īãĢģ": 5243,
      "ore": 5244,
      "å¸Ĥä¸Ńå¿ĥ": 5245,
      "ï¼Įè®©äººä»¬": 5246,
      "è¾ĥä¸º": 5247,
      "èįīåľ°ä¸Ĭ": 5248,
      "ï¼ĮåĽłä¸ºå®ĥä»¬": 5249,
      "ç»Īäºİ": 5250,
      "ç»´çĶŁç´ł": 5251,
      "ice": 5252,
      "è¡¨çİ°åĩº": 5253,
      "pple": 5254,
      "è®²è¿°äºĨ": 5255,
      "æ¯ĶèµĽä¸Ń": 5256,
      "æĿİçĻ½": 5257,
      "æļĹç¤º": 5258,
      "å¿ĥçĲĨåŃ¦": 5259,
      "éģµå®Ī": 5260,
      "çĶ³åħĭ": 5261,
      "æĤ£èĢħ": 5262,
      "ï¼Įä¸»é¢ĺæĺ¯": 5263,
      "èĤĸçĶ³åħĭ": 5264,
      "çİ»çĴĥ": 5265,
      "ia": 5266,
      "Ġk": 5267,
      "ï¼Įçī¹åĪ«": 5268,
      "ï¼ĮæĶ¾åħ¥": 5269,
      "çļĦåĲ«ä¹ī": 5270,
      "åĪł": 5271,
      "åĴĮæĮĳæĪĺ": 5272,
      "ãĢģé¦Ļ": 5273,
      "çĽŁ": 5274,
      "çŃīåĽłç´ł": 5275,
      "æĻ¶": 5276,
      "èµİ": 5277,
      "çº¹": 5278,
      "å¤ļçļĦ": 5279,
      "å®ļçĲĨ": 5280,
      "åī²": 5281,
      "ï¼ĮæĪĳå»ºè®®": 5282,
      "å¿ĥåĴĮ": 5283,
      "éĢĤå®ľ": 5284,
      "ä½¿çĶ¨çļĦ": 5285,
      "åĽŀå®¶": 5286,
      "è¢«å¹¿æ³Ľ": 5287,
      "æİ¨åĩº": 5288,
      "åıªèĥ½": 5289,
      "å£ģ": 5290,
      "çĪ±çļĦ": 5291,
      "éªĹ": 5292,
      "ï¼Įä½ĨæĪĳ": 5293,
      "èº«ä»½": 5294,
      "æµģç¨ĭ": 5295,
      "çīĽæİĴ": 5296,
      "ä»Ĭå¹´": 5297,
      "ä½łçļĦåĽŀçŃĶ": 5298,
      "ç¢±": 5299,
      "å¾ĭå¸Ī": 5300,
      "æĶ¶éĽĨ": 5301,
      "ï¼ĮæľīäºĽ": 5302,
      "all": 5303,
      "èĲ¥éĶĢ": 5304,
      "çļĦæĦŁåıĹ": 5305,
      "èĩªåĬ¨é©¾é©¶": 5306,
      "è·³è·ĥ": 5307,
      "ç»ĦæĪĲçļĦ": 5308,
      "æ©Ļèī²": 5309,
      "ç¼ĸç¨ĭè¯Ńè¨Ģ": 5310,
      "çªĹæĪ·": 5311,
      "æĻ´æľĹ": 5312,
      "çļĦç¨ĭåºı": 5313,
      ")ï¼Į": 5314,
      "ace": 5315,
      "iPhone": 5316,
      "ne": 5317,
      "ï¼ĮçĶļèĩ³": 5318,
      "å¼¥": 5319,
      "æľĢåĸľæ¬¢": 5320,
      "ç«¹": 5321,
      "é«ĺè´¨éĩı": 5322,
      "èµ·äºĨ": 5323,
      "è¢«è®¤ä¸ºæĺ¯": 5324,
      "çĮ´": 5325,
      "æ¡ĥ": 5326,
      "anana": 5327,
      "å¤ªæ£Ĵ": 5328,
      "æķ°æį®çļĦ": 5329,
      "å¤ĩåıĹ": 5330,
      "éĩĳæĺŁ": 5331,
      "æºª": 5332,
      "éħįæĸ¹": 5333,
      "æİĴæĶ¾": 5334,
      "Ġworld": 5335,
      "Ġne": 5336,
      "åĨ°åĿĹ": 5337,
      "ï¼Įçİ°åľ¨è¯·": 5338,
      "èīºæľ¯å®¶": 5339,
      "çļĦæĦıå¤§åĪ©": 5340,
      "å®¤æ°Ķä½ĵ": 5341,
      "form": 5342,
      "æľīæīĢä¸įåĲĮ": 5343,
      "çļĦæ¦Ĥçİĩ": 5344,
      "çĩĥçĥ§": 5345,
      "çļĦæīĭæľº": 5346,
      "èªīä¸º": 5347,
      "é½Ĳ": 5348,
      "ç¥ŀç»ıç½ĳç»ľ": 5349,
      "Ġlove": 5350,
      "é¬¼": 5351,
      "å¤ªæ£ĴäºĨ": 5352,
      "ãĤ": 5353,
      "ï¼ĮæĿ¥": 5354,
      "ï¼ĮåĲĳ": 5355,
      "ï¼ĮæĪĲä¸º": 5356,
      "ãĢĤæ¯ı": 5357,
      "æĦŁåĴĮ": 5358,
      "ong": 5359,
      "ãĢĭåĴĮ": 5360,
      "èĬ±è´¹": 5361,
      "ï¼Įåı¯ä»¥å°Ĩ": 5362,
      "æ´»åĬĽ": 5363,
      "å±ķçİ°": 5364,
      "åı¯èĥ½æĢ§": 5365,
      "åħ¨éĿ¢": 5366,
      "æŃ¥è¡Į": 5367,
      "èİī": 5368,
      "æķ´éĻ¤": 5369,
      "æļĤ": 5370,
      "çĥŃéĩı": 5371,
      "ï¼Įä¸įæĸŃ": 5372,
      "åĽ¾ä¹¦": 5373,
      "ï¼ĮæĤ¨éľĢè¦ģ": 5374,
      "åĽĽåŃ£": 5375,
      "ç»´æĮģ": 5376,
      "æĴŀ": 5377,
      "æ¢¦æĥ³": 5378,
      "å¼Ĥå¸¸": 5379,
      "çªģåĩº": 5380,
      "ç»ıåħ¸çļĦ": 5381,
      "ï¼Įå¼ķ": 5382,
      "éģµå¾ª": 5383,
      "ãĢĤéĻ¤æŃ¤ä¹ĭå¤ĸ": 5384,
      "éĻªä¼´": 5385,
      "åĪĿåŃ¦èĢħ": 5386,
      "Ġfloat": 5387,
      "ç»½æĶ¾": 5388,
      "ain": 5389,
      "ï¼Į\"": 5390,
      "ï¼Įåħ·ä½ĵ": 5391,
      "çļĦå·¥ä½ľ": 5392,
      "ãĢĤB": 5393,
      "ãĢĤä¸ĢäºĽ": 5394,
      "åı¯éĿł": 5395,
      "è¿Ļåıª": 5396,
      "å¸Į": 5397,
      "æĹ¶åĪ»": 5398,
      "æľĢæĸ°çļĦ": 5399,
      "ä½ĵèĤ²": 5400,
      "ä¹ŁéľĢè¦ģ": 5401,
      "å¾ĹåĪĨ": 5402,
      "å®¶æĹı": 5403,
      "æ¯Ķä¾ĭ": 5404,
      "çĤ¹åĴĮ": 5405,
      "æĺ¯ä¸Ģåıª": 5406,
      "èĩªçĦ¶çģ¾å®³": 5407,
      "éĩĳé¢Ŀ": 5408,
      "è¡£çī©": 5409,
      "éĺ²æŃ¢": 5410,
      "ç§ĭå¤©çļĦ": 5411,
      "å°¼åħĭ": 5412,
      "æ²³æµģ": 5413,
      "æ²īæµ¸": 5414,
      "ç©ºæ°Ķä¸Ń": 5415,
      "é¢ĳçİĩ": 5416,
      "çļĦçģ«": 5417,
      "result": 5418,
      "çļĦçŁŃæĸĩ": 5419,
      "ç¨įçŃī": 5420,
      "å«©": 5421,
      "dom": 5422,
      "Ĵåħ¥": 5423,
      "ï¼ĮæĢ»": 5424,
      "ï¼Įå¤ªéĺ³": 5425,
      "ï¼Įåıĳçİ°": 5426,
      "çļĦå¿ĥ": 5427,
      "çļĦåĲĮæĹ¶": 5428,
      "çļĦé¤Ĳåİħ": 5429,
      "çļĦåı£æĦŁ": 5430,
      "ãĢĤå°½ç®¡": 5431,
      "ä½©": 5432,
      "çļĦæ¨": 5433,
      "éĢĨ": 5434,
      "ï¼ļ$": 5435,
      "æľĢå°ı": 5436,
      "çĽ¸éģĩ": 5437,
      "ï¼ĮæĪĳæİ¨èįĲ": 5438,
      "çĭĲçĭ¸": 5439,
      "ä¿ĿçķĻ": 5440,
      "ä»¥ä¸ĭéĹ®é¢ĺ": 5441,
      "é»Ľ": 5442,
      "è±¹": 5443,
      "èĬ±æľµ": 5444,
      "åĢ¼ä¸º": 5445,
      "å¼ºå¤§": 5446,
      "æłĩçŃ¾": 5447,
      "Ġby": 5448,
      "ä¸ŃåĽ½åı¤ä»£": 5449,
      "Ġnew": 5450,
      "èµ°åľ¨": 5451,
      "ase": 5452,
      "ĠĠĠĠ": 5453,
      "ä»ĭç»įäºĨ": 5454,
      "ï¼ĮçĦ¶åĲİå°Ĩ": 5455,
      "è¯¦ç»ĨçļĦ": 5456,
      "è¶ħå¸Ĥ": 5457,
      "very": 5458,
      "èĤ¡ç¥¨": 5459,
      "ç¥Ŀç¦ı": 5460,
      "å¯¿åı¸": 5461,
      "ç»¼åĲĪ": 5462,
      "åĶ¯ä¸Ģ": 5463,
      "çº¢çĥ§èĤī": 5464,
      "Ch": 5465,
      "com": 5466,
      "çļĦä»»åĬ¡": 5467,
      "ãĢĤåŁºäºİ": 5468,
      "çĶĺ": 5469,
      "å®´": 5470,
      "æĺ¯ä¸į": 5471,
      "æĺ¯éĢļè¿ĩ": 5472,
      "ï¼ļA": 5473,
      "æĿ¥äºĨ": 5474,
      "è¾ŀ": 5475,
      "æĽ´å®¹æĺĵ": 5476,
      "åħ¬æĸ¤": 5477,
      "çĭ±": 5478,
      "ï¼Įå¹¶æıĲä¾Ľ": 5479,
      "è´¨æķ°": 5480,
      "æĶ¾å¼ĥ": 5481,
      "äººå·¥æĻºèĥ½åľ¨": 5482,
      "æ·±å¤Ħ": 5483,
      "æ¸ħæ¾Ī": 5484,
      "èĭ±å¯¸": 5485,
      "çļĦæĹ©": 5486,
      "åģļä¸Ģä¸ª": 5487,
      "åİŁå§ĭ": 5488,
      "çĻ½äºĳ": 5489,
      "é¢ĦçĥŃ": 5490,
      "é¸¡ç¿ħ": 5491,
      "æľªæĿ¥åıĳå±ķ": 5492,
      "æ¢µ": 5493,
      "äºĮæ°§åĮĸ": 5494,
      "èº«ä½ĵåģ¥åº·": 5495,
      "çļĦæİ¢": 5496,
      "èģĬèģĬ": 5497,
      "çĩ¥": 5498,
      "é«ĺçļĦå±±å³°": 5499,
      "çļĦæµ·æ»©": 5500,
      "çł´åĿı": 5501,
      "åĨ¬åŃ£": 5502,
      "çĽ¸äºĴä½ľçĶ¨": 5503,
      "æ´¾å¯¹": 5504,
      "å¯¿åĳ½": 5505,
      "ç´«èī²": 5506,
      "æ¼Ĥäº®": 5507,
      "æŀ«åı¶": 5508,
      "å¿łè¯ļ": 5509,
      ".âĢĿ": 5510,
      "uc": 5511,
      "¤éħĴ": 5512,
      "ï¼Įæīįèĥ½": 5513,
      "ä¸ªæľĪ": 5514,
      "åŃĶ": 5515,
      "æľīçĶ¨": 5516,
      "ï¼ĮåŁ": 5517,
      "éĢĿ": 5518,
      "çĽ¾": 5519,
      "ï¼Łæ¯Ķå¦Ĥ": 5520,
      "åĩºä¸Ģä¸ª": 5521,
      "æĤī": 5522,
      "æ¸´": 5523,
      "å°ıåŀĭ": 5524,
      "åĬłéĢŁ": 5525,
      "æľ¬è´¨": 5526,
      "æľ¬å°ıè¯´": 5527,
      "çŁ¿": 5528,
      "åĲįåı«": 5529,
      "å®ŀçĶ¨": 5530,
      "åħīçº¿": 5531,
      "åķ¤éħĴ": 5532,
      "èº«è¾¹": 5533,
      "æ¸©æŁĶ": 5534,
      "æĮĩç¤º": 5535,
      "æķ´ä½ĵ": 5536,
      "ç§ĭæĹ¥": 5537,
      "æħĪ": 5538,
      "åı¶åŃĲ": 5539,
      "çĶ»ä½ľ": 5540,
      "ä¸ŃåĽ½çļĦ": 5541,
      "å¥ĩå¦Ļ": 5542,
      "æŀĦå»º": 5543,
      "åĽ¾æ¡Ī": 5544,
      "å¾®ç¬ĳ": 5545,
      "Pythonä»£çłģ": 5546,
      "çļĦä¸Ģéĥ¨åĪĨ": 5547,
      "çĶ·æĢ§": 5548,
      "ãĢĤå¦Ĥæŀľä½łæĥ³": 5549,
      "ä»·åĢ¼è§Ĥ": 5550,
      "åĪĨåĪ«ä¸º": 5551,
      "çļĦçľĭ": 5552,
      "ä¼¦çĲĨ": 5553,
      "çļĦçĥ¤": 5554,
      "çİīç±³": 5555,
      "å°Ĭæķ¬": 5556,
      "éŀĭåŃĲ": 5557,
      "çĶµè§Ĩåī§": 5558,
      "ç²ĴåŃĲ": 5559,
      "èĻļæĭŁçİ°å®ŀ": 5560,
      "ãĢĤè¿Ļç¯ĩæĸĩç«ł": 5561,
      "æī®æ¼Ķ": 5562,
      "æĺĨèĻ«": 5563,
      "sort": 5564,
      "Ġu": 5565,
      "çļĦå¤§å°ı": 5566,
      "ä¸Ģè¾Ĩ": 5567,
      "åĴĮå®īåħ¨": 5568,
      "ãĢģé«ĺ": 5569,
      "äºĨä»Ģä¹Ī": 5570,
      "å¼Ĺ": 5571,
      "æĿ¥çļĦ": 5572,
      "ï¼ŁæĤ¨": 5573,
      "å±ı": 5574,
      "åŃ¦ä¼ļ": 5575,
      "æŀľæ±ģ": 5576,
      "æĪĳä»¬éľĢè¦ģ": 5577,
      "è¿ĩåº¦": 5578,
      "ç¬¼": 5579,
      "æŁľ": 5580,
      "æĺ¯ä¸Ģæ¬¾": 5581,
      "éķ¿æľŁ": 5582,
      "Ġad": 5583,
      "ä¸ŃçļĦåºĶçĶ¨": 5584,
      "çıĤ": 5585,
      "ç¦»åŃĲ": 5586,
      "éļ¾å¿ĺ": 5587,
      "çģ«æĺŁ": 5588,
      "æĺ¯åĲ¦æľī": 5589,
      "Ġhave": 5590,
      "åľŁæĺŁ": 5591,
      "æ°¸ä¸į": 5592,
      "æĸĩåŃ¦ä½ľåĵģ": 5593,
      "èĥľåĪ©": 5594,
      "ä¼ģé¹ħ": 5595,
      "çļĦçº¢": 5596,
      "å°ºå¯¸": 5597,
      "âĦĥï¼Į": 5598,
      "è´§å¸ģ": 5599,
      "æŃ»äº¡": 5600,
      "é½¿": 5601,
      "æĹ¨åľ¨": 5602,
      "åĪłéĻ¤": 5603,
      "äºĮæ°§åĮĸç¢³": 5604,
      "aut": 5605,
      "my": 5606,
      "çĢ": 5607,
      "çĺ": 5608,
      "ï¼Įæ±Ĥ": 5609,
      "ï¼Įè¿ĺæĺ¯": 5610,
      "ï¼ĮåıĪ": 5611,
      "ï¼Įæ°Ķæ¸©": 5612,
      "ãĢĤäººä»¬": 5613,
      "ãĢĤæİ¥çĿĢ": 5614,
      "ï¼ĮåĶ": 5615,
      "çĶŁèıľ": 5616,
      "ä¸ĬäºĨ": 5617,
      "æĤĦ": 5618,
      "æĬµ": 5619,
      "è¯Ńä¹ī": 5620,
      "åĮĸå¦Ĩ": 5621,
      "çĲĨå¿µ": 5622,
      "æ¯ĶèĲ¨": 5623,
      "åħ¬åħĥ": 5624,
      "å¾Īæ£Ĵ": 5625,
      "æĹłäºº": 5626,
      "åŀĭåı·": 5627,
      "çļĦæķĳ": 5628,
      "ï¼Įä½Ĩå®ĥä»¬": 5629,
      "ä¸ļåĬ¡": 5630,
      "å¤Ħäºİ": 5631,
      "åħ¶ä»ĸçļĦ": 5632,
      "æİ¨èįĲä¸Ģæ¬¾": 5633,
      "é¢Ĩå¯¼": 5634,
      "éĵĥ": 5635,
      "ä¼ĺè´¨": 5636,
      "èįīåľ°": 5637,
      "é¾Ł": 5638,
      "é²ľèĬ±": 5639,
      "æ¹Ľ": 5640,
      "èĢģå¸Ī": 5641,
      "ï¼ĮæľĢé«ĺ": 5642,
      "æ¿Ģåıĳ": 5643,
      "æ¸Ĳæ¸Ĳ": 5644,
      "ï¼ļ\"))": 5645,
      "æ¥ļ": 5646,
      "è´ŁéĿ¢å½±åĵį": 5647,
      "èľľèľĤ": 5648,
      "ä¼ĳéĹ²": 5649,
      "æ±īåł¡": 5650,
      "æĹĭå¾ĭ": 5651,
      "éģĹä¼ł": 5652,
      "åĢ¾åĲĳ": 5653,
      "çĽ¸åºĶçļĦ": 5654,
      "çĹĩçĬ¶": 5655,
      "çĸĳéĹ®åı¥": 5656,
      "çļĦçľĭæ³ķ": 5657,
      "day": 5658,
      "ple": 5659,
      "ub": 5660,
      "Ġet": 5661,
      "ä¸Ľ": 5662,
      "ï¼Įç§ĳæĬĢ": 5663,
      "ï¼Įæĭ¥æľī": 5664,
      "çļĦé«ĺ": 5665,
      "çļĦä½ľèĢħ": 5666,
      "å¤¹": 5667,
      "å¤ķ": 5668,
      "æĺ¯åħ³äºİ": 5669,
      "ä¹±": 5670,
      "åľ¨åĵªéĩĮ": 5671,
      "ä¸Ńå¤®": 5672,
      "æŀ¯": 5673,
      "æĥĳ": 5674,
      "æ¯ķ": 5675,
      "çļĦç³": 5676,
      "è¯·ä¸ºæĪĳ": 5677,
      "éĻĮ": 5678,
      "çĥģ": 5679,
      "ç©·": 5680,
      "ç´¯": 5681,
      "ç½©": 5682,
      "åŀ«": 5683,
      "åŀĤ": 5684,
      "æµ·æµª": 5685,
      "æİ¨å¹¿": 5686,
      "å¹¶ä¸įæĺ¯": 5687,
      "æĶ¾ç½®": 5688,
      "åħ¨éĥ¨": 5689,
      "ï¼ĮéĤ£æĪĳ": 5690,
      "åĲ¦å®ļ": 5691,
      "æķ°æį®åĪĨæŀĲ": 5692,
      "æĸ¹éĿ¢çļĦ": 5693,
      "æĶ¯åĩº": 5694,
      "çģ«èħ¿": 5695,
      "æĻļé¤Ĳ": 5696,
      "ç²¾ç¥ŀ": 5697,
      "æĿ¯ä¸Ń": 5698,
      "ï¼ĮåĨĻ": 5699,
      "ç¼ºä¹ı": 5700,
      "åĨĻä¸Ģç¯ĩåħ³äºİäººå·¥æĻºèĥ½": 5701,
      "çļĦæŃĮè¯į": 5702,
      "è®¢åįķ": 5703,
      "éĢıæĺİ": 5704,
      "æĹĭè½¬": 5705,
      "able": 5706,
      "å¡ĳæĸĻ": 5707,
      "pi": 5708,
      "¬éĹ´": 5709,
      "Ġr": 5710,
      "çļĦä¸įåĲĮ": 5711,
      "çļĦè¿ĲåĬ¨": 5712,
      "çļĦè·Ŀç¦»": 5713,
      "ãĢĤæĸĩç«ł": 5714,
      "ä»ª": 5715,
      "åĴĮæĪĳ": 5716,
      "åĴĮäºº": 5717,
      "åĴĮèĪĴéĢĤ": 5718,
      "ãĢģèĬ±": 5719,
      "ä¸ºä¸»": 5720,
      "ï¼ļ[": 5721,
      "ï¼ŁA": 5722,
      "ï¼ŁB": 5723,
      "æĸ°åŀĭ": 5724,
      "åĸ·": 5725,
      "æĺİæ²»": 5726,
      "éĿŀæ´²": 5727,
      "ä¿ĿéĻ©": 5728,
      "æĺ¯ä¸ĢåĲį": 5729,
      "å¦ĤæŀľæĤ¨": 5730,
      "ä»İå°ı": 5731,
      "åħīåĲĪä½ľçĶ¨": 5732,
      "å°±åĥı": 5733,
      "ä¸īæĺİæ²»": 5734,
      "æł·æľ¬": 5735,
      "ï¼ĮæĪĳä»¬å°Ĩ": 5736,
      "Ġso": 5737,
      "åĲ¦åĪĻ": 5738,
      "Ġte": 5739,
      "åĲĦåľ°": 5740,
      "çĥ¤åĪ¶": 5741,
      "çĥ¤çĽĺ": 5742,
      "æľºåĻ¨ç¿»è¯ĳ": 5743,
      "çľŁæĺ¯": 5744,
      "å¦ĩ": 5745,
      "æ¼Ķè®²": 5746,
      "ite": 5747,
      "éĻ¤äºĨ": 5748,
      "åĮ»çĸĹä¿Ŀåģ¥": 5749,
      "çļĦæĿ¡": 5750,
      "çļĦæİĴ": 5751,
      "ï¼Įå¥½": 5752,
      "æĦ¿æĦı": 5753,
      "åŃ©åŃĲä»¬": 5754,
      "èµŀç¾İ": 5755,
      "çĽ¸ä¼¼åº¦": 5756,
      "çļĦæĻ¯è±¡": 5757,
      "éĹªçĥģ": 5758,
      "å°¾å·´": 5759,
      "åĳĪçİ°": 5760,
      "è°ĥåĳ³æĸĻ": 5761,
      "çļĦç®Ĺ": 5762,
      "æ¡ĮåŃĲ": 5763,
      "çļĦæ¯Ķä¾ĭ": 5764,
      "åı¯æĮģç»Ńåıĳå±ķ": 5765,
      "æ³°åĿ¦": 5766,
      "çļĦçĬ¶æĢģ": 5767,
      "vel": 5768,
      "ĠThe": 5769,
      "ï¼ĮçĮ«": 5770,
      "ï¼Įä¸Ķ": 5771,
      "ï¼Įç»Ļåĩº": 5772,
      "çļĦéĩį": 5773,
      "å°ĸ": 5774,
      "ä¼¯": 5775,
      "ä¸Ĭè¿°": 5776,
      "æķ°ç»Ħ": 5777,
      "åľ°åĽ¾": 5778,
      "è´¾": 5779,
      "ç»ĻäºĪ": 5780,
      "éģ¥": 5781,
      "ä¸İåħ¶ä»ĸ": 5782,
      "é£İåĳ³": 5783,
      "æ¯ıä¸Ģä¸ª": 5784,
      "ï¼Įè¿ĻéĩĮ": 5785,
      "ç¿°": 5786,
      "ç²®": 5787,
      "æ¸©å®¤æ°Ķä½ĵ": 5788,
      "æĮĩä»¤": 5789,
      "é¦Ļåĳ³": 5790,
      "åħĭæľį": 5791,
      "èįīåİŁ": 5792,
      "å°½éĩı": 5793,
      "è§ĦèĮĥ": 5794,
      "Ġhe": 5795,
      "æĹ¶éĹ´åĴĮ": 5796,
      "æĦŁåĪ°éĿŀå¸¸": 5797,
      "è¯ģæį®": 5798,
      "ç¾½": 5799,
      "ç©¿è¿ĩ": 5800,
      "æĺ¾å¾Ĺ": 5801,
      "æĽ´å¥½åľ°çĲĨè§£": 5802,
      "æĥĬåı¹": 5803,
      "ç´§å¼ł": 5804,
      "æĳĦåħ¥": 5805,
      "ame": 5806,
      "ä¼¤å®³": 5807,
      "èļģ": 5808,
      "èĤĮèĤ¤": 5809,
      "å¤§æ°Ķå±Ĥ": 5810,
      "çļĦæĻºèĥ½": 5811,
      "å¹½é»ĺ": 5812,
      "ä¼Ļä¼´": 5813,
      "çļĦç¤¼çī©": 5814,
      "/å¥¹": 5815,
      "za": 5816,
      "¼å¾Ĺ": 5817,
      "Ġæĺ¯": 5818,
      "Ĥèļģ": 5819,
      "ĽçĽ¾": 5820,
      "çļĦä¸į": 5821,
      "ãĢĤåĳĬè¯īæĪĳ": 5822,
      "æľīæĦıä¹ī": 5823,
      "é¢Ī": 5824,
      "åį§": 5825,
      "çĲ³": 5826,
      "åİ¦": 5827,
      "å®ļåĪ¶": 5828,
      "æĥ³ä¸ĢäºĽ": 5829,
      "åĲĪåĲĮ": 5830,
      "æľºåĪ¶": 5831,
      "æľºç¥¨": 5832,
      "æīĢè¿°": 5833,
      "ï¼ĮæĪĳéľĢè¦ģ": 5834,
      "äºĭé¡¹": 5835,
      "çĭ¼": 5836,
      "å¾Īå¥½çļĦ": 5837,
      "ä¿¡åı·": 5838,
      "éķ¿æĸ¹å½¢": 5839,
      "æĺŁéĻħ": 5840,
      "è¿Ľè¡ĮæĥħæĦŁ": 5841,
      "æ®ĭ": 5842,
      "å¹³éĿĻ": 5843,
      "æ¼¾": 5844,
      "ï¼ĮæĪĳä»¬åºĶè¯¥": 5845,
      "æľĪä»½": 5846,
      "æİ¨èįĲä¸Ģæľ¬": 5847,
      "æº¢": 5848,
      "ä¸¤ä¸ªæķ°": 5849,
      "æİĴåĲį": 5850,
      "ç¥ŀå¥ĩ": 5851,
      "çļĦæĥħèĬĤ": 5852,
      "éªĮè¯ģ": 5853,
      "èħĬ": 5854,
      "å¥ĩæķ°": 5855,
      "èĵĿå¤©": 5856,
      "èµĦæĸĻ": 5857,
      "åıĳçİ°äºĨ": 5858,
      "éħ±æ²¹": 5859,
      "éĽĨåĲĪ": 5860,
      "èĲ¥éĢł": 5861,
      "ä¸įæĸŃåıĳå±ķ": 5862,
      "ãĢĤå¦ĤæŀľæĤ¨éľĢè¦ģ": 5863,
      "æ°¸æģĴ": 5864,
      "æĻ®éģį": 5865,
      "ç»ĺçĶ»": 5866,
      "èļĤèļģ": 5867,
      "æģĴæĺŁ": 5868,
      "éĻĪè¿°åı¥": 5869,
      "æ¾³": 5870,
      "çº½çº¦å¸Ĥ": 5871,
      "è°·æŃĮ": 5872,
      "æİ¢è®¨äºĨ": 5873,
      "èĳ¡èĲĦéħĴ": 5874,
      "è¯¾ç¨ĭ": 5875,
      "å°¼åħĭåı·": 5876,
      "éĻĮçĶŁ": 5877,
      "ap": 5878,
      "ha": 5879,
      "hi": 5880,
      "Ġâ": 5881,
      "ķèī²": 5882,
      "ï¼Įé¦ĸåħĪ": 5883,
      "ï¼ĮæĹłè®º": 5884,
      "ãĢĤæĺİçĻ½äºĨ": 5885,
      "åĴĮé«ĺ": 5886,
      "åĴĮè¡Įä¸º": 5887,
      "ãĢģæ´ĭèĳ±": 5888,
      "ï¼ļ'": 5889,
      "è¡¬": 5890,
      "æİĪ": 5891,
      "çļĦç´": 5892,
      "å®ĥæĺ¯": 5893,
      "èĩªè½¬": 5894,
      "æľĢå¤§çļĦ": 5895,
      "å¯¹åºĶ": 5896,
      "ä¹ĭç¾İ": 5897,
      "çĽ¸å½ĵ": 5898,
      "éĥ½éĿŀå¸¸": 5899,
      "éĢĤçĶ¨äºİ": 5900,
      "ä¿¡ä»°": 5901,
      "èµ·æºĲ": 5902,
      "é£İæļ´": 5903,
      "æł¼å¼ı": 5904,
      "æŃ£æĸ¹å½¢": 5905,
      "åľºæīĢ": 5906,
      "æľĪçĲĥ": 5907,
      "å¸¦çĿĢ": 5908,
      "è£ģ": 5909,
      "çļĦæĹĭ": 5910,
      "ç»Ĩèħ»": 5911,
      "èĲ½åľ¨": 5912,
      "Ġcat": 5913,
      "çº¦ç¿°": 5914,
      "æ¢°": 5915,
      "å¦»": 5916,
      "é±¼ç±»": 5917,
      "äº§åĵģçļĦ": 5918,
      "ï¼ĮåĮħåĲ«": 5919,
      "äºĶè¨Ģ": 5920,
      "æ²Ļæ¼ł": 5921,
      "èĭ±æĸĩåı¥åŃĲ": 5922,
      "é¼»": 5923,
      "çĳŀ": 5924,
      "ç»Ļå®ļçļĦæĸĩæľ¬": 5925,
      "çļĦæĦŁæĥħ": 5926,
      "å½ĵåľ°çļĦ": 5927,
      "è¿Ļé¦ĸè¯Ĺ": 5928,
      "çļĦçģµæĦŁ": 5929,
      "çļĦæ¶Ī": 5930,
      "è¿ħéĢŁ": 5931,
      "æ³°åĿ¦å°¼åħĭåı·": 5932,
      "$ï¼Į": 5933,
      ":-": 5934,
      "?čĊ": 5935,
      "bers": 5936,
      "ĠåĬłåħ¥": 5937,
      "ï¼ĮçĭĹ": 5938,
      "ï¼Įå¤©ç©º": 5939,
      "çļĦè¡ĮæĺŁ": 5940,
      "ãĢĤæĸĩæľ¬": 5941,
      "åĴĮå°ı": 5942,
      "ä¹Ķ": 5943,
      "ç»³": 5944,
      "è¿Ļæ¬¾": 5945,
      "ä¸ºä»¥ä¸ĭ": 5946,
      "ä¸įåĨį": 5947,
      "åĮ¹": 5948,
      "åĮĻ": 5949,
      "æĪĲç»©": 5950,
      "åĪ°æĿ¥": 5951,
      "åĩºçīĪ": 5952,
      "åľ°éĿ¢": 5953,
      "è¯·çĶ¨": 5954,
      "çº¤": 5955,
      "æıĲåīį": 5956,
      "æĦŁæ¿Ģ": 5957,
      "è¯Ńå¢ĥ": 5958,
      "æĥħå¢ĥ": 5959,
      "å¾Īä¸įéĶĻ": 5960,
      "æ¬¢å¿«": 5961,
      "å¹¶ç»Ļåĩº": 5962,
      "çļĦæķ´": 5963,
      "çĶµå½±çļĦ": 5964,
      "ç©ºä¸Ń": 5965,
      "èĮĤ": 5966,
      "éĩĳé»Ħ": 5967,
      "äººä»¬çļĦ": 5968,
      "é¢Ħéĺ²": 5969,
      "æ£µ": 5970,
      "åķĨåĬ¡": 5971,
      "çŁŃæĸĩ": 5972,
      "éĿĻéĿĻ": 5973,
      "éļ¾åº¦": 5974,
      "åĪĩç¢İ": 5975,
      "çĵ¦": 5976,
      "ç²¾åĩĨ": 5977,
      "æĴĳ": 5978,
      "ä¸Ńæĸĩç¿»è¯ĳ": 5979,
      "å¹¿æ³ĽçļĦåºĶçĶ¨": 5980,
      "åĩĨå¤ĩå¥½": 5981,
      "éĢīé¡¹ä¸ŃéĢīæĭ©": 5982,
      "æķ°åŃ¦éĹ®é¢ĺ": 5983,
      "çļĦæİ¨èįĲ": 5984,
      "çļĦæĦıæĢĿæĺ¯": 5985,
      "è¶³å¤ŁçļĦ": 5986,
      "æĭ¼åĨĻ": 5987,
      "ï¼Įåĵª": 5988,
      "çļĦæķĳèµİ": 5989,
      ")print": 5990,
      ".å°Ĩ": 5991,
      "ial": 5992,
      "Ġel": 5993,
      "ï¼ĮæľºåĻ¨åŃ¦ä¹ł": 5994,
      "ï¼Įäºİæĺ¯": 5995,
      "çļĦå¤©": 5996,
      "çļĦä½ľçĶ¨": 5997,
      "çļĦåķĨåĵģ": 5998,
      "ãĢĤæķħäºĭ": 5999,
      "ãĢĤæľºåĻ¨åŃ¦ä¹ł": 6000,
      "çļĦæ¡": 6001,
      "æľīä¸ĢäºĽ": 6002,
      "å¥ĳ": 6003,
      "ï¼ļ\\": 6004,
      "å¼Ł": 6005,
      "æĢĴ": 6006,
      "æ³¥": 6007,
      "æĿ¥åĪ°": 6008,
      "æĿ¥çľĭ": 6009,
      "ä¸Ĭåįĩ": 6010,
      "å°Ĩåľ¨": 6011,
      "å°Ĩä¸ĭéĿ¢": 6012,
      "æĽ´å¿«": 6013,
      "å·¥èīº": 6014,
      "ï¼ĮæĪĳæ²¡æľī": 6015,
      "å¸®ä½ł": 6016,
      "Ġat": 6017,
      "æ¬¢ä¹Ĳ": 6018,
      "ãĢĭ-": 6019,
      "ä¿¡æģ¯åĴĮ": 6020,
      "æķ´çĲĨ": 6021,
      "éĩįè¦ģçļĦæĺ¯": 6022,
      "å¼ºåº¦": 6023,
      "åŁİåł¡": 6024,
      "éħįèıľ": 6025,
      "è¿ĳæľŁ": 6026,
      "å¼ķè¿°": 6027,
      "Ġdo": 6028,
      "åķĨåºĹ": 6029,
      "è®°å¾Ĺ": 6030,
      "æ¶ĪèĢĹ": 6031,
      "å¯Ĩåº¦": 6032,
      "åħ³éĶ®åŃĹ": 6033,
      "ç®Ģåįķæĺĵ": 6034,
      "éħ±æ±ģ": 6035,
      "å¹²åĩĢ": 6036,
      "ç§ĺå¯Ĩ": 6037,
      "åľŁåľ°": 6038,
      "Ġgo": 6039,
      "çĻ¾å¹´": 6040,
      "ï¼Įå¼º": 6041,
      "éĹªèĢĢ": 6042,
      "æ¹¿åº¦": 6043,
      "æĦıè¯ĨåĪ°": 6044,
      "çļĦæķĪæŀľ": 6045,
      "èµ¢å¾Ĺ": 6046,
      "cat": 6047,
      "ng": 6048,
      "èŁ": 6049,
      "Ġå°ı": 6050,
      "çļĨ": 6051,
      "ï¼Įä»¤äºº": 6052,
      "ä»ĩ": 6053,
      "åĴĮæ²»çĸĹ": 6054,
      "è¿Ļéģĵ": 6055,
      "ï¼Įåī": 6056,
      "åľ°éľĩ": 6057,
      "æİĺ": 6058,
      "åĬ¨åĬĽ": 6059,
      "æ¬º": 6060,
      "âĢĿæĪĸ": 6061,
      "åĲĪæ³ķ": 6062,
      "å®¶ä¸Ń": 6063,
      "æĦıå¤ĸ": 6064,
      "å·¥ä¸ļ": 6065,
      "äºĭæķħ": 6066,
      "éģĵè·¯": 6067,
      "ä¹Ĳè¶£": 6068,
      "ï¼Įåı¯ä»¥éĢļè¿ĩ": 6069,
      "ä½įæķ°": 6070,
      "èĭ±éĩĮ": 6071,
      "ï¼Įä½łä¼ļ": 6072,
      "æĺ¯ä¸Ģä¸ªéĿŀå¸¸": 6073,
      "Ġsome": 6074,
      "åĽŀçŃĶè¿Ļä¸ªéĹ®é¢ĺ": 6075,
      "çļĦæĹł": 6076,
      "åĲ«éĩı": 6077,
      "çıĬ": 6078,
      "æĿĲè´¨": 6079,
      "å°½å¿«": 6080,
      "èħ¾": 6081,
      "çļĦäººæķ°": 6082,
      "æľįåĬ¡åĳĺ": 6083,
      "çĶ¨æĪ·è¾ĵåħ¥": 6084,
      "éĹ»åĲį": 6085,
      "ï¼ĮæľĢå¥½": 6086,
      "æĪĳä»¬çļĦçĶŁæ´»": 6087,
      "è®¡ç®Ĺæľºç§ĳåŃ¦": 6088,
      "éĿĴèıľ": 6089,
      "import": 6090,
      "ä¾Ŀèµĸ": 6091,
      "çļĦæĹ¥æľŁ": 6092,
      "æľīæīĢå¸®åĬ©": 6093,
      "åĪĩæĪĲå°ıåĿĹ": 6094,
      "ï¼Įå·²": 6095,
      "è½¨éģĵ": 6096,
      "éĹ°å¹´": 6097,
      "å¼¥æ¼«": 6098,
      "çļĦæ¨¡": 6099,
      ".å¥½çļĦ": 6100,
      "ies": 6101,
      "Ġ\\\\": 6102,
      "ä¸¹": 6103,
      "ï¼ĮåĴĮ": 6104,
      "çļĦç»ıåħ¸": 6105,
      "çļĦçĽ®æłĩ": 6106,
      "çļĦå½¢çĬ¶": 6107,
      "ãĢĤä¸Ģ": 6108,
      "ãĢĤåĪ¶ä½ľ": 6109,
      "ãĢĤç§ĳæĬĢ": 6110,
      "ãĢĤè®©æĪĳä»¬": 6111,
      "ãĢĤä¸ĢèĪ¬": 6112,
      "æĺ¯åĵª": 6113,
      "æĪĳåľ¨": 6114,
      "æĦģ": 6115,
      "æ³ª": 6116,
      "ï¼Łè¿Ļä¸ª": 6117,
      "åľ°éĵģ": 6118,
      "å¯¹æīĭ": 6119,
      "èĬ½": 6120,
      "èī²è°ĥ": 6121,
      "èĢĮå¼Ĥ": 6122,
      "æľºåľº": 6123,
      "çĤ¹åĩ»": 6124,
      "åŃĹä½ĵ": 6125,
      "æµ·æĬ¥": 6126,
      "ork": 6127,
      "reat": 6128,
      "ange": 6129,
      "ç²¼": 6130,
      "ä»»æĦı": 6131,
      "æ¸ħåĩī": 6132,
      "æ¸ħæĻ¨": 6133,
      "æ¸ħçĪ½": 6134,
      "çĬ¹": 6135,
      "ç¢į": 6136,
      "åĬłåħ¥ä¸ĢäºĽ": 6137,
      "èµ°è¿ĩ": 6138,
      "çļĦæĢģ": 6139,
      "è¡£è£Ļ": 6140,
      "ä¸ĵæ³¨": 6141,
      "åľĨçļĦéĿ¢ç§¯": 6142,
      "ï¼Įå¸¸": 6143,
      "ä¼łç»ŁçļĦ": 6144,
      "å¹ħçĶ»": 6145,
      "çļĦæıĲ": 6146,
      "èĸĦèį·": 6147,
      "èĤĸçĶ³åħĭçļĦæķĳèµİ": 6148,
      "per": 6149,
      "so": 6150,
      "»çĸĹ": 6151,
      "ðŁ": 6152,
      "ï¼Įé«ĺ": 6153,
      "ï¼ĮæĲŃéħį": 6154,
      "ï¼Įä¸ĩçī©": 6155,
      "çļĦå½¢å¼ı": 6156,
      "çļĦè¿ĩç¨ĭä¸Ń": 6157,
      "æľīåĲį": 6158,
      "äººæķ°ä¸º": 6159,
      "å¾Ĵ": 6160,
      "åĨ¥": 6161,
      "åįī": 6162,
      "åĮĨ": 6163,
      "æĸĩèīº": 6164,
      "ä¸Ĭæĺł": 6165,
      "æĦŁçŁ¥": 6166,
      "æĽ´ä¸º": 6167,
      "åĬłéĢŁåº¦": 6168,
      "ä½ĵç§¯": 6169,
      "æľ¬èº«": 6170,
      "èĤ©": 6171,
      "æĺİäºĨ": 6172,
      "æ·Į": 6173,
      "ä¿Ŀæļĸ": 6174,
      "ãĢĤè¿Ļæĺ¯åĽłä¸º": 6175,
      "åĸľæĤ¦": 6176,
      "åĪĽä¸ļ": 6177,
      "ï¼Įåı¯ä»¥å¸®åĬ©": 6178,
      "æ¼ı": 6179,
      "çĻ½å¤©": 6180,
      "è®¤çŁ¥": 6181,
      "è§£éĩĬä»Ģä¹Īæĺ¯": 6182,
      "æĪ¿å±ĭ": 6183,
      "å¤±åİ»": 6184,
      "åĨ°ç®±": 6185,
      "å¹²çĩ¥": 6186,
      "èīºæľ¯åĵģ": 6187,
      "åĪĽéĢłåĬĽ": 6188,
      "è¿ŀè¡£è£Ļ": 6189,
      "ï¼Įäººå·¥æĻºèĥ½æĬĢæľ¯": 6190,
      "ç´§å¯Ĩ": 6191,
      "æł¸å¿ĥ": 6192,
      "ç»¼ä¸Ĭ": 6193,
      "æ²¿çĿĢ": 6194,
      "ï¼Įå¢ŀåĬł": 6195,
      "çļĦæĿ¡ä»¶": 6196,
      "\"čĊ": 6197,
      "%ï¼Į": 6198,
      "ful": 6199,
      "ï¼Įåı¯èĥ½": 6200,
      "ï¼Įè¡¨è¾¾": 6201,
      "ï¼Įèĥ½åĲ¦": 6202,
      "çļĦåĴĮ": 6203,
      "è¯¸": 6204,
      "ãĢģçĽĲ": 6205,
      "ãĢģèĩªçĦ¶è¯Ńè¨Ģå¤ĦçĲĨ": 6206,
      "åľ¨è¿ĻéĩĮ": 6207,
      "è¡«": 6208,
      "âĢĻ": 6209,
      "ä¸įåĪ°": 6210,
      "å¿½": 6211,
      "å¤§äºİ": 6212,
      "å°ıç»Ħ": 6213,
      "æľĢå¤ļ": 6214,
      "å¤ļæķ°": 6215,
      "åĬ¨æľº": 6216,
      "æ²¸": 6217,
      "æĽ´é«ĺ": 6218,
      "éľĢè¦ģèĢĥèĻĳ": 6219,
      "åĲĮäºĭ": 6220,
      "éĺĲ": 6221,
      "éĤĢ": 6222,
      "æĢ§æł¼": 6223,
      "æģ¤": 6224,
      "å½±çīĩ": 6225,
      "æ¯Ķäºļ": 6226,
      "éĩįå¤§": 6227,
      "ä½Ĩæĺ¯": 6228,
      "å°ĳéĩı": 6229,
      "çĽ®çļĦæĺ¯": 6230,
      "ç»ĻæĪĳè®²ä¸Ģä¸ª": 6231,
      "ï¼ĮéĤ£è¯·ä½ł": 6232,
      "ä¼łè¯´": 6233,
      "èĦı": 6234,
      "ï¼Įè¯·éļıæĹ¶": 6235,
      "ãĢĤæĪĳéľĢè¦ģ": 6236,
      "ä¹ĭä¸Ģæĺ¯": 6237,
      "çĽ´è§Ĵ": 6238,
      "çīĽä»Ķ": 6239,
      "å§ĭç»Ī": 6240,
      "å¥ĩæĢª": 6241,
      "ï¼ĮæľīçĿĢ": 6242,
      "éľĢæ±ĤåĴĮ": 6243,
      "èĿī": 6244,
      "çļĦæĥħæĦŁåĴĮ": 6245,
      "é¹°": 6246,
      "éĩİé¤Ĳ": 6247,
      "æĬĺæī£": 6248,
      "ï¼Įä»¥ä¸ĭæĺ¯æĪĳ": 6249,
      "æµģè¡ĮçļĦ": 6250,
      "åĲ¯åıĳ": 6251,
      "åĲ¯ç¤º": 6252,
      "åıĸå¾ĹäºĨ": 6253,
      "æĭĽèģĺ": 6254,
      "çļĦæ³ķå¾ĭ": 6255,
      "(n": 6256,
      "fer": 6257,
      "ox": 6258,
      "rue": 6259,
      "½åŃĲ": 6260,
      "ï¼ĮæŃ¤": 6261,
      "ï¼Įè®¸å¤ļ": 6262,
      "ï¼Įåı¯èĥ½ä¼ļ": 6263,
      "çļĦå»ºçŃĳ": 6264,
      "çļĦè¡£æľį": 6265,
      "çļĦå¤ľæĻļ": 6266,
      "ãĢĤI": 6267,
      "ãĢĤåı¥åŃĲ": 6268,
      "ãĢĤæľĢè¿ĳ": 6269,
      "å®¿": 6270,
      "æĪĳæĥ³è¦ģ": 6271,
      "çļĦæ½": 6272,
      "äººåĴĮ": 6273,
      "åı¯ä»¥éĢīæĭ©": 6274,
      "éĹ¹": 6275,
      "åį¢": 6276,
      "å¤§çĨĬçĮ«": 6277,
      "å¯¹çİ¯å¢ĥ": 6278,
      "æĶĢ": 6279,
      "è¿ĩäºİ": 6280,
      "è¿ĩæ»¤": 6281,
      "åĢº": 6282,
      "å¹´æĿ¥": 6283,
      "çī¹æĢ§": 6284,
      "çķĶ": 6285,
      "å¤ĸå¥Ĺ": 6286,
      "æŁ³": 6287,
      "è¯¥æĸĩæľ¬": 6288,
      "è¿Ľè¡ĮæİĴåºı": 6289,
      "æ¡Ĩ": 6290,
      "ï¼Īä¾ĭå¦Ĥ": 6291,
      "åĪ©çĽĬ": 6292,
      "æ¸¸å®¢": 6293,
      "åĸľæ¬¢åľ¨": 6294,
      "ç»ĻæĪĳä¸ĢäºĽ": 6295,
      "æ¸ħæ´Ĺ": 6296,
      "æ¸ħæ¥ļ": 6297,
      "åĲĳä¸Ĭ": 6298,
      "æĮĩåįĹ": 6299,
      "åģļæ³ķ": 6300,
      "ï¼Įè¯·ç¨įçŃī": 6301,
      "æ¡Īä¾ĭ": 6302,
      "æº¶": 6303,
      "å¼ºå¤§çļĦ": 6304,
      "åĳ½é¢ĺ": 6305,
      "å¼ķäºº": 6306,
      "é²¨": 6307,
      "åįķè¯įçļĦ": 6308,
      "Ġmo": 6309,
      "ï¼Įä¸įè¿ĩ": 6310,
      "æ¶Īå¤±": 6311,
      "å¼łä¸ī": 6312,
      "éĽĨä¸Ń": 6313,
      "éĿĴæ¤Ĵ": 6314,
      "entence": 6315,
      "çĶŁçī©åŃ¦": 6316,
      "ĠSt": 6317,
      "åłĨ": 6318,
      "ãĢĤå½ĵçĦ¶åı¯ä»¥": 6319,
      "éķ¿åº¦ä¸º": 6320,
      "ä¸Ģå®ļçļĦ": 6321,
      "ä¸įä»ħä»ħ": 6322,
      "ãĢĤè¯·éĹ®æĤ¨": 6323,
      "æķĪçİĩåĴĮ": 6324,
      "åıĺæĪĲäºĨ": 6325,
      "å°ģéĹŃ": 6326,
      "ï¼ĮåĢ¼å¾Ĺ": 6327,
      "è°ľè¯Ń": 6328,
      "éĺ¶æ®µ": 6329,
      "åĨłåĨĽ": 6330,
      "è®¿éĹ®": 6331,
      "Le": 6332,
      "cri": 6333,
      "ien": 6334,
      "ide": 6335,
      "ä¸§": 6336,
      "ï¼Įå¤ļ": 6337,
      "ï¼Įæ·±": 6338,
      "çļĦçĶŁåĳ½": 6339,
      "çļĦåĵģçīĮ": 6340,
      "çļĦåĬŁèĥ½": 6341,
      "çļĦå¤©ç©º": 6342,
      "ãĢĤæ¯ıä¸ª": 6343,
      "ãĢĤæķ´ä¸ª": 6344,
      "è¯Ī": 6345,
      "åĲĽ": 6346,
      "åĴĮå»ºè®®": 6347,
      "åĴĮèĶ¬èıľ": 6348,
      "ï¼ļx": 6349,
      "ä¸ĭä¸Ģä¸ª": 6350,
      "ä¸ĭéĻį": 6351,
      "å¥½åĲĥ": 6352,
      "æĿ¥è¿Ľè¡Į": 6353,
      "æµĩ": 6354,
      "éľŀ": 6355,
      "åĪĨè§£": 6356,
      "å°ıéķĩ": 6357,
      "æľĢéĢĤåĲĪ": 6358,
      "æľĢä½İ": 6359,
      "å°Ĩå®ĥä»¬": 6360,
      "åŃ¦ç§ĳ": 6361,
      "å¯¹ä½ł": 6362,
      "æĮĳ": 6363,
      "éĻ¶": 6364,
      "éģ®": 6365,
      "éĤ¦": 6366,
      "åĲİæŀľ": 6367,
      "å½±åĥı": 6368,
      "åĽłæĸ¯åĿ¦": 6369,
      "æ·Ģ": 6370,
      "ä¿Ŀéļľ": 6371,
      "ä»¥ä¸ĭæĸĩæľ¬": 6372,
      "åĽŀåĪ°": 6373,
      "çľĭçĶµå½±": 6374,
      "ç¡®å®ŀ": 6375,
      "åıªéľĢè¦ģ": 6376,
      "è®¾å®ļ": 6377,
      "æľŁæľĽ": 6378,
      "åİŁåĪĻ": 6379,
      "æ¤°": 6380,
      "åıįæĺł": 6381,
      "ese": 6382,
      "é£ŀèĪŀ": 6383,
      "Ġno": 6384,
      "ï¼Įä¸įä»ħ": 6385,
      "æĺ¯åĲ¦ä¸º": 6386,
      "ç¿»è¯ĳæĪĲè¥¿çıŃçīĻè¯Ń": 6387,
      "è®¡ç®Ĺæľºè§Ĩè§ī": 6388,
      "å¤§åĪ©äºļ": 6389,
      "é£İæł¼åĴĮ": 6390,
      "å³¦": 6391,
      "ï¼Įåį³åı¯": 6392,
      "ï¼Įåį³ä½¿": 6393,
      "ä¼łç»ŁæĸĩåĮĸ": 6394,
      "ä¼Ĺå¤ļ": 6395,
      "å®ĩå®Ļä¸Ń": 6396,
      "ï¼Łå¦Ĥæŀľä½ł": 6397,
      "çļĦæľĢå¤§": 6398,
      "æľīæķĪåľ°": 6399,
      "æĭĤéĿ¢": 6400,
      "çļĦæĢĿèĢĥ": 6401,
      "Ġstr": 6402,
      "çļĦçĭ¬": 6403,
      "çĿ¡çľł": 6404,
      "èį¡æ¼¾": 6405,
      "èĬĴæŀľ": 6406,
      "é²¸é±¼": 6407,
      "æ¤ħåŃĲ": 6408,
      "æıŃç¤º": 6409,
      "æ¾³å¤§åĪ©äºļ": 6410,
      "ĠÂ": 6411,
      "Ġåħĥ": 6412,
      "Ġes": 6413,
      "ï¼ĮæĪĸ": 6414,
      "ï¼Įæīĵ": 6415,
      "ï¼Įåľ°çĲĥ": 6416,
      "çļĦåĲĹ": 6417,
      "çļĦèī²å½©": 6418,
      "çļĦé£İéĻ©": 6419,
      "ãĢĤæį®": 6420,
      "ãĢĤä¸İ": 6421,
      "ãĢĤæĦŁè°¢": 6422,
      "ãĢĤèĥ½ä¸įèĥ½": 6423,
      "åħ½": 6424,
      "æĺ¯å¦Ĥä½ķ": 6425,
      "ãĢģé¸¡èĽĭ": 6426,
      "ãĢģéĩĳèŀį": 6427,
      "è¿Ļç»Ħ": 6428,
      "ä¸Ńåįİ": 6429,
      "å¹¼": 6430,
      "çŃīæĸ¹å¼ı": 6431,
      "èµ«": 6432,
      "å°ıæķ°": 6433,
      "æĦŁåı¹": 6434,
      "ä½ĵçļĦ": 6435,
      "å®ļä½į": 6436,
      "ä¹Łåľ¨": 6437,
      "æĥ³åĪ°": 6438,
      "åĿĽ": 6439,
      "éķ¿çļĦ": 6440,
      "Ġ==": 6441,
      "åıĺéĿ©": 6442,
      "å¹³éĿ¢ä¸Ĭ": 6443,
      "èĩªçĦ¶é£İåħī": 6444,
      "æµģæ·Į": 6445,
      "åĲĳæĪĳ": 6446,
      "è°ĥèĬĤ": 6447,
      "ç´łé£Ł": 6448,
      "åħĪå°Ĩ": 6449,
      "ç»Ļå®ļä¸Ģç»Ħ": 6450,
      "è¯Ħå®ļ": 6451,
      "æĢģåº¦": 6452,
      "çħ§èĢĢ": 6453,
      "ä¹°äºĨ": 6454,
      "çģ«å±±": 6455,
      "ĠĠčĊ": 6456,
      "ä½ľä¸ºä¸Ģä¸ª": 6457,
      "ãĢĤâĢĿâĢľ": 6458,
      "å¤±èĲ½": 6459,
      "èĢģèĻİ": 6460,
      "ãĢĤå½ĵä½ł": 6461,
      "ä¸¾è¡Į": 6462,
      "çĶľèľľ": 6463,
      "åı£åĳ³åĴĮ": 6464,
      "åĸĦèī¯": 6465,
      "èĨľ": 6466,
      "æĽ¿ä»£": 6467,
      "è¿Ļç¯ĩæĸĩç«łä¸Ń": 6468,
      "å¿ĺè®°": 6469,
      "çļĦæĶ¶": 6470,
      "è½¬æį¢æĪĲ": 6471,
      "çĽ¸å¯¹è®º": 6472,
      "æµ·æ»©ä¸Ĭ": 6473,
      "çĽĽå¼Ģ": 6474,
      "èŃ¦å¯Ł": 6475,
      "ç±»ä¼¼äºİ": 6476,
      "ç»ķçĿĢ": 6477,
      "åħ¬åħ±äº¤éĢļ": 6478,
      "izza": 6479,
      "çĪ¶æ¯į": 6480,
      "åı¤åħ¸éŁ³ä¹Ĳ": 6481,
      "é»Ľçİī": 6482,
      "çļĦæĹĭå¾ĭ": 6483,
      "Tom": 6484,
      "ais": 6485,
      "ep": 6486,
      "µå£«": 6487,
      "Ġè¿Ļä¸ª": 6488,
      "ï¼Įè¾ĵåĩº": 6489,
      "ï¼Įä¿ĥè¿Ľ": 6490,
      "çļĦè¯Ħè®º": 6491,
      "çļĦçī¹å¾ģ": 6492,
      "ãĢĤçĪ±æĥħ": 6493,
      "ãĢĤåģĩè®¾": 6494,
      "åıĻ": 6495,
      "åĪĺ": 6496,
      "åĴĮä»·æł¼": 6497,
      "ãĢģå¤©": 6498,
      "ãĢģæĽ´": 6499,
      "çļĦæĤ": 6500,
      "äººéĥ½": 6501,
      "çĶ¨é¤Ĳ": 6502,
      "ä¸ĭè½½": 6503,
      "å¥½åıĭ": 6504,
      "ï¼Łè¯·": 6505,
      "æ¯ģ": 6506,
      "å¯¹åħ¶": 6507,
      "æ³ķè§Ħ": 6508,
      "çĥĺ": 6509,
      "è®©äººä»¬": 6510,
      "åī¯": 6511,
      "å¾Īé«ĺåħ´": 6512,
      "æıĲä¾ĽçļĦä¿¡æģ¯": 6513,
      "èĲ§": 6514,
      "ãĢĭä¸Ń": 6515,
      "æ¡Ĥ": 6516,
      "ï¼īãĢĤčĊ": 6517,
      "å®ĥä»¬ä¹ĭéĹ´çļĦ": 6518,
      "äº§ä¸ļ": 6519,
      "èıľè°±": 6520,
      "çļĦæķĻ": 6521,
      "æ²¡éĹ®é¢ĺ": 6522,
      "çīĩåĪ»": 6523,
      "ä¸ĸçķĮçļĦ": 6524,
      "åħĭæĸ¯": 6525,
      "è¾ĥé«ĺ": 6526,
      "åıĭå¥½": 6527,
      "èĩ³åħ³": 6528,
      "ï¼ĮéĤ£ä¹Īè¯·ä½ł": 6529,
      "è®²è§£": 6530,
      "æħ¨": 6531,
      "éļ¾é¢ĺ": 6532,
      "åĭ¾": 6533,
      "âĢĿï¼ĮâĢľ": 6534,
      "éĨĩ": 6535,
      "å±Ĥæ¬¡": 6536,
      "éĿĴæĺ¥": 6537,
      "åĨ·åį´": 6538,
      "çļĦæ¯Ľ": 6539,
      "å©Ĩ": 6540,
      "èģĮä½į": 6541,
      "æ··åĲĪçī©": 6542,
      "æ··åĲĪåľ¨ä¸Ģèµ·": 6543,
      "è®©äººæĦŁåĪ°": 6544,
      ".\"čĊ": 6545,
      "ack": 6546,
      "å£®è§Ĥ": 6547,
      "å®ĺæĸ¹": 6548,
      "åī©ä½Ļ": 6549,
      "max": 6550,
      "çļĦä½ĵç§¯": 6551,
      "string": 6552,
      "ï¼Įå¾®é£İ": 6553,
      "çļĦæ¢¦æĥ³": 6554,
      "è¾ħåĬ©": 6555,
      "ransl": 6556,
      "ï¼Įå¼ºè°ĥ": 6557,
      "Ġä½ł": 6558,
      "ĠçīĽå¥¶": 6559,
      "ï¼ĮA": 6560,
      "ï¼Įäºº": 6561,
      "ï¼Įå¤ıå¤©": 6562,
      "ï¼Įä½įäºİ": 6563,
      "çļĦå¸®åĬ©": 6564,
      "çļĦè¯¦ç»Ĩ": 6565,
      "çļĦå®īåħ¨": 6566,
      "çļĦåĩĨç¡®": 6567,
      "ãĢĤè¦ģ": 6568,
      "æĺı": 6569,
      "å¤º": 6570,
      "æĺ¯ä¸ĸçķĮä¸ĬæľĢ": 6571,
      "æĸĲ": 6572,
      "ä¸ŃéĹ´": 6573,
      "ä¸įéľĢè¦ģ": 6574,
      "æ°Ľ": 6575,
      "ä¾£": 6576,
      "äºĽä»Ģä¹Ī": 6577,
      "éľį": 6578,
      "æĽ´åĸľæ¬¢": 6579,
      "çĤĸ": 6580,
      "ä¹ĭä½ľ": 6581,
      "éģŃ": 6582,
      "èĢĮæĪĲ": 6583,
      "æģ°": 6584,
      "èį«": 6585,
      "å¤ĸæĺŁ": 6586,
      "Ġab": 6587,
      "ãĢĤè¿Ļæĺ¯": 6588,
      "åĸľåī§": 6589,
      "åīįè¡Į": 6590,
      "éŁ©": 6591,
      "æŃ£å¸¸": 6592,
      "çĶŁæĪĲçļĦ": 6593,
      "å±ķè§Ī": 6594,
      "èĩªçĦ¶æĻ¯è§Ĥ": 6595,
      "åģļå¥½": 6596,
      "åĲ¬éŁ³ä¹Ĳ": 6597,
      "åĨįçĶŁ": 6598,
      "å®¢æľį": 6599,
      "çİĩåĴĮ": 6600,
      "å¢ŀæ·»": 6601,
      "ä»Ĭå¤©çļĦå¤©æ°Ķ": 6602,
      "ä¿®å¤į": 6603,
      "èĥ½åĬĽåĴĮ": 6604,
      "è´Łè´£": 6605,
      "å°¼äºļ": 6606,
      "ç»ĵæŀĦåĴĮ": 6607,
      "ï¼ļ\")": 6608,
      "åĩīçĪ½": 6609,
      "ï¼Įå°ıæĺİ": 6610,
      "çļĦæµ·æ´ĭ": 6611,
      "çī¹å®ļçļĦ": 6612,
      "çļĦæľĢä½³": 6613,
      "çĽĳæµĭ": 6614,
      "è¸ı": 6615,
      "æĴŃæĶ¾": 6616,
      "å¥Ķè·ĳ": 6617,
      "çļĦæĶ¯æĮģ": 6618,
      "çĮ´åŃĲ": 6619,
      "åĮĸå¦Ĩåĵģ": 6620,
      "çº¤ç»´": 6621,
      "ire": 6622,
      "Ġè®¡ç®Ĺ": 6623,
      "ĠPython": 6624,
      "ï¼Įéĥ½": 6625,
      "ï¼Įéħį": 6626,
      "ï¼Įæĺ¯ä¸Ģç§į": 6627,
      "ï¼ĮäºĨè§£": 6628,
      "çļĦè¯Ħä»·": 6629,
      "ãĢĤé»ĳæ´ŀ": 6630,
      "ãĢĤåĲ¬èµ·æĿ¥": 6631,
      "è¯ŀ": 6632,
      "åĴĮåĪĨæŀĲ": 6633,
      "æľīä¸Ģ": 6634,
      "æĿī": 6635,
      "åı¯ä»¥æıĲé«ĺ": 6636,
      "åĨĮ": 6637,
      "ä¸Ģä¸ªéĹ®é¢ĺ": 6638,
      "åįĵ": 6639,
      "ä¸įè¶³": 6640,
      "æī«": 6641,
      "æŀļ": 6642,
      "æĢ¡": 6643,
      "çĽĹ": 6644,
      "æĪĲæŀľ": 6645,
      "çŃīä¿¡æģ¯": 6646,
      "åĩºèī²çļĦ": 6647,
      "æĽ³": 6648,
      "çļĦçĤ": 6649,
      "ä»ĸåľ¨": 6650,
      "éĿ¢è¯ķ": 6651,
      "éĹ®çŃĶ": 6652,
      "å¸¸çĶ¨": 6653,
      "è¿Ľå±ķ": 6654,
      "æ°ĶçĲĥ": 6655,
      "å®¶ä¹¡": 6656,
      "æĦıå¼ı": 6657,
      "æģ¢": 6658,
      "æĺİæľĪ": 6659,
      "æ°´åĴĮ": 6660,
      "éĽķ": 6661,
      "æĻºèĥ½åĮĸ": 6662,
      "ãĢĭç³»åĪĹ": 6663,
      "ç¼ł": 6664,
      "çģ¿": 6665,
      "çĸ²": 6666,
      "ç©ºæł¼": 6667,
      "ä¸ĸçķĮä¸Ĭ": 6668,
      "ç§¯åĪĨ": 6669,
      "å¼ķåıĳ": 6670,
      "æłĩè®°": 6671,
      "çİ¯å¢ĥä¸Ń": 6672,
      "ãĢĤéĤ£ä½ł": 6673,
      "ç¢ĳ": 6674,
      "è®°æľ¬": 6675,
      "èµ°äºĨ": 6676,
      "é²ľèī³": 6677,
      "æĿ¾é¼ł": 6678,
      "éĺ³åħīä¸ĭ": 6679,
      "é©¬éĢĬ": 6680,
      "ç²¾ç¡®": 6681,
      "ç¤¾ä¼ļçļĦ": 6682,
      "èĭ±æĸĩæĸĩæľ¬": 6683,
      "Ġover": 6684,
      "ï¼ĮåĨħ": 6685,
      "äºļé©¬éĢĬ": 6686,
      "çļĦæĻļ": 6687,
      "ä¸¾åĬŀ": 6688,
      "æĢİä¹ĪåĬŀ": 6689,
      "èŀįåĮĸ": 6690,
      "ĠIt": 6691,
      "æµĵç¼©": 6692,
      "é¢Ŀå¤ĸ": 6693,
      "ç»Ŀå¯¹": 6694,
      "é£ĺèĲ½": 6695,
      "æĲľç´¢å¼ķæĵİ": 6696,
      "éĵ¶æ²³": 6697,
      "å¯¹è¯ĿåĨħå®¹": 6698,
      "æĩĴ": 6699,
      "æ²Ļæ»©ä¸Ĭ": 6700,
      "ï¼ĮéĿŀå¸¸éĢĤåĲĪ": 6701,
      "åĹ¯": 6702,
      "):čĊ": 6703,
      "åī©ä¸ĭ": 6704,
      "æ½ľåľ¨": 6705,
      "çĥ¤ç®±ä¸Ń": 6706,
      "åŁ¹åħ»": 6707,
      "æ¯«åįĩ": 6708,
      "çļĦç®Ĺæ³ķ": 6709,
      "ç»¼ä¸ĬæīĢè¿°": 6710,
      "\"åĴĮ": 6711,
      "Tæģ¤": 6712,
      "qrt": 6713,
      "åļ": 6714,
      "ıè§Ī": 6715,
      "ï¼Įå¤©": 6716,
      "ï¼ĮæľªæĿ¥": 6717,
      "ï¼Įç»¿": 6718,
      "ï¼Įä¸ĭéĿ¢": 6719,
      "ï¼ĮèĻ½çĦ¶": 6720,
      "çļĦé¢ĨåŁŁ": 6721,
      "çļĦåħĥç´ł": 6722,
      "ãĢĤ'": 6723,
      "ãĢĤæĺ¥": 6724,
      "ãĢĤæĺ¥å¤©": 6725,
      "åĪĳ": 6726,
      "åĴĮéģĵå¾·": 6727,
      "åŃĻ": 6728,
      "äººéĻħ": 6729,
      "åĩ¯": 6730,
      "æīĩ": 6731,
      "ä¸ĭåİ»": 6732,
      "æĪĲçĨŁ": 6733,
      "æĬĳ": 6734,
      "ä¿Ħ": 6735,
      "å¤§åĨĻ": 6736,
      "å¤§æķ°æį®": 6737,
      "æĦŁæŁĵ": 6738,
      "æ²Ĳ": 6739,
      "ç»ĻæĪĳä»¬": 6740,
      "æĢ§éĹ®é¢ĺ": 6741,
      "æĦıè§ģ": 6742,
      "æ°´æĺŁ": 6743,
      "ãĢĤè¿Ļæ¬¾": 6744,
      "æ¯ıæ¬¡": 6745,
      "ç¼Ģ": 6746,
      "æ±Ĥåĩº": 6747,
      "éĢīæĭ©ä¸Ģä¸ª": 6748,
      "ï¼ĮéĤ£è¯·éĹ®": 6749,
      "çħ¸": 6750,
      "æµģæµª": 6751,
      "åĲĳåīį": 6752,
      "æ»¡äºĨ": 6753,
      "åıįå°Ħ": 6754,
      "é©±": 6755,
      "é¦Ļèįī": 6756,
      "è¶£åĳ³": 6757,
      "çİ¯å¢ĥä¿ĿæĬ¤": 6758,
      "äºĶç§į": 6759,
      "çļĦäººçī©": 6760,
      "åįĩé«ĺ": 6761,
      "æĪ¿åŃĲ": 6762,
      "åģ¥åº·çļĦ": 6763,
      "å¤±è´¥": 6764,
      "æĤ¨çļĦéľĢæ±Ĥ": 6765,
      "çļĦä¿¡æģ¯åĴĮ": 6766,
      "çļĦæĬ«èĲ¨": 6767,
      "å¾Ģå¾Ģ": 6768,
      "åĩºçİ°äºĨ": 6769,
      "ç½Ĺé©¬": 6770,
      "èĥľåľ°": 6771,
      "ç¹ģæ®ĸ": 6772,
      "èµŀæī¬": 6773,
      "æĶ¾æĿ¾èº«å¿ĥ": 6774,
      "è¡Ĺéģĵ": 6775,
      "ãĢĤæľīä¸Ģå¤©": 6776,
      "éģĹäº§": 6777,
      "æŁłæª¬æ±ģ": 6778,
      "Ġall": 6779,
      "æĳĩæĽ³": 6780,
      "ä¼ĺç§ĢçļĦ": 6781,
      "å¿ħè¦ģçļĦ": 6782,
      "ï¼Įåĸľ": 6783,
      "æĲºå¸¦": 6784,
      "çļĦç¼ĸç¨ĭè¯Ńè¨Ģ": 6785,
      "çŁ©éĺµ": 6786,
      "ach": 6787,
      "ather": 6788,
      "ip": 6789,
      "ĠK": 6790,
      "ĠV": 6791,
      "ï¼ĮB": 6792,
      "çļĦå±±": 6793,
      "çļĦå®ļä¹ī": 6794,
      "ãĢĤéľĢè¦ģæ³¨æĦıçļĦæĺ¯": 6795,
      "ä¸Ģåħ±": 6796,
      "ä¸Ģç³»åĪĹ": 6797,
      "ä¸Ģåħ±æľī": 6798,
      "åĴĮæµ·": 6799,
      "ä¸ªåįķè¯į": 6800,
      "ç»ļ": 6801,
      "ãĢģçĻ½": 6802,
      "çļĦæ»": 6803,
      "ä¸įå°ĳ": 6804,
      "æĥ§": 6805,
      "ï¼Łä½ł": 6806,
      "çŃīå¤ļç§į": 6807,
      "åĩºè¡Į": 6808,
      "æĬĴ": 6809,
      "æµıè§Ī": 6810,
      "æĤ¨åľ¨": 6811,
      "æĽ´æĶ¹": 6812,
      "è°¨": 6813,
      "ä¹Łä¸į": 6814,
      "è¿Ļä¸ªè¡¨æł¼": 6815,
      "æĢ§åĪ«": 6816,
      "æľºéģĩ": 6817,
      "çŁ¶": 6818,
      "çŁĽçĽ¾": 6819,
      "çĶµåĻ¨": 6820,
      "å¾Īæľī": 6821,
      "å¾Īåĸľæ¬¢": 6822,
      "ï¼Įå¹¶ä¸º": 6823,
      "éķ¿åŁİ": 6824,
      "éķ¿æĹ¶éĹ´": 6825,
      "éĿŀå¸¸åĸľæ¬¢": 6826,
      "éĿŀå¸¸éĩįè¦ģ": 6827,
      "é¥±": 6828,
      "éŁ§": 6829,
      "çłĸ": 6830,
      "å®¹åĻ¨": 6831,
      "çİ°åľ¨è¯·ä½ł": 6832,
      "æļĳ": 6833,
      "æĲ¬": 6834,
      "ä¸¤ä¸ªæķ°åŃĹ": 6835,
      "å¤´åıĳ": 6836,
      "å¹¿éĺĶ": 6837,
      "Ġpr": 6838,
      "è¡¨è¾¾å¼ı": 6839,
      "æĬ¥è¡¨": 6840,
      "çĶ»åį·": 6841,
      "å¤įåĪ¶": 6842,
      "ï¼Įä»ĸåľ¨": 6843,
      "æķħäºĭæĥħèĬĤ": 6844,
      "å¤ļå°ĳéĴ±": 6845,
      "èĵĿèİĵ": 6846,
      "ãĢĤå®ĥçļĦ": 6847,
      "ased": 6848,
      "åıĳçİ°èĩªå·±": 6849,
      "å®ĿçŁ³": 6850,
      "äºļæ´²": 6851,
      "åŃ£èĬĤéĩĮ": 6852,
      "åĮħåĲ«äºĨ": 6853,
      "çĶ·åŃĲ": 6854,
      "ä¹ĺæ³ķ": 6855,
      "ï¼Įä¸ºäºĨ": 6856,
      "Ġres": 6857,
      "åĮĹäº¬å¸Ĥ": 6858,
      "ç¾¤ä½ĵ": 6859,
      "èĦļæŃ¥": 6860,
      "å¥ĸåĬ±": 6861,
      "ä¸īè§Ĵå½¢çļĦ": 6862,
      "éĿłè¿ĳ": 6863,
      "çĹĽèĭ¦": 6864,
      "ï¼Įè¿Ļæł·åı¯ä»¥": 6865,
      "å§Ĩæĸ¯": 6866,
      "å¦Īå¦Ī": 6867,
      "çļĦçľ¼çĿĽ": 6868,
      "åĵĪåĪ©æ³¢çī¹": 6869,
      "æ·±è¿ľçļĦå½±åĵį": 6870,
      "å°Ĭæķ¬çļĦ": 6871,
      "éĤĢè¯·": 6872,
      "æĿīçŁ¶": 6873,
      "ºåŃĲ": 6874,
      "ï¼Įæĺ¯ä¸Ģ": 6875,
      "ï¼Įé»Ħ": 6876,
      "çļĦåĬ¨ä½ľ": 6877,
      "çļĦå¹´é¾Ħ": 6878,
      "ãĢĤçĮ«": 6879,
      "ãĢĤæıĲåıĸ": 6880,
      "åıī": 6881,
      "æĺĤ": 6882,
      "ãĢģä¸į": 6883,
      "è®¯": 6884,
      "åı¯åĨįçĶŁ": 6885,
      "ï¼Įåķ": 6886,
      "ï¼ĮåĿ": 6887,
      "äººå£«": 6888,
      "æĹĹ": 6889,
      "ä¸ºx": 6890,
      "ï¼ļä½ł": 6891,
      "ï¼ļè¿Ļä¸ª": 6892,
      "ï¼ļå¦Ĥæŀľ": 6893,
      "çĶŁåĬ¨çī©": 6894,
      "çĽİ": 6895,
      "å¥½çİ©": 6896,
      "æĪĲç«ĭ": 6897,
      "æĿ¥æııè¿°": 6898,
      "æĭĸ": 6899,
      "åĩºçİ°åľ¨": 6900,
      "åĩºéĹ¨": 6901,
      "èµ¶": 6902,
      "æĤ¨æĥ³è¦ģ": 6903,
      "è¯·æ±Ĥ": 6904,
      "å¯¹æ¯Ķ": 6905,
      "å¯¹æľªæĿ¥": 6906,
      "æĦŁæĥħ": 6907,
      "åħ¶å®ĥ": 6908,
      "ç»Ļäºº": 6909,
      "éľĢè¦ģçļĦ": 6910,
      "åĬłæ³ķ": 6911,
      "èĤº": 6912,
      "çĽ¸æ¯Ķ": 6913,
      "çķı": 6914,
      "å¤ĸè§Ĥ": 6915,
      "å¾Īå¤§": 6916,
      "æł¹æį®æīĢ": 6917,
      "é£İéĽ¨": 6918,
      "æĹłæ¯Ķ": 6919,
      "èĭĹ": 6920,
      "æĻºèĥ½å®¶å±ħ": 6921,
      "çľĭçĿĢ": 6922,
      "èĬ±å¼Ģ": 6923,
      "èĬ±é¦Ļ": 6924,
      "çĸ¯": 6925,
      "æīĭæ³ķ": 6926,
      "åıĸä»£": 6927,
      "ãĢĤè¯·ä½ł": 6928,
      "åİŁæĸĩ": 6929,
      "Ġ->": 6930,
      "éĩĳèī²": 6931,
      "æº¯": 6932,
      "è§ĴèĲ½": 6933,
      "ä¸Ģç¯ĩæĸĩç«ł": 6934,
      "å¹¿åľº": 6935,
      "é¸¡ä¸ģ": 6936,
      "çĭ¬èĩª": 6937,
      "åħ±äº«": 6938,
      "åĩłä½ķ": 6939,
      "éĢļå¸¸ä¼ļ": 6940,
      "è®¤åı¯": 6941,
      "æ¢¯": 6942,
      "å®¢è§Ĥ": 6943,
      "å®¢åİħ": 6944,
      "æĶ¶èİ·": 6945,
      "åįĩèµ·": 6946,
      "åĵģçīĮçļĦ": 6947,
      "çĽ¸åħ³ä¿¡æģ¯": 6948,
      "ç«Ļåľ¨": 6949,
      "ãĢĤå½ĵæĪĳä»¬": 6950,
      "ä¿ĿæĬ¤çİ¯å¢ĥ": 6951,
      "çĤĴé¥Ń": 6952,
      "çĶ·çĶŁ": 6953,
      "æĥĬåĸľ": 6954,
      "ays": 6955,
      "ç»ĦæĪĲéĥ¨åĪĨ": 6956,
      "çļĦæ²³": 6957,
      "éĢıè¿ĩ": 6958,
      "åĮ»åŃ¦é¢ĨåŁŁ": 6959,
      "çļĦæĬĢå·§": 6960,
      "åĿĲåľ¨": 6961,
      "åįıä½ľ": 6962,
      "ress": 6963,
      "åĸľå¥½åĴĮ": 6964,
      "æĦıæĢĿæĺ¯": 6965,
      "çĿ¡è§ī": 6966,
      "...": 6967,
      "å¦Ĥæŀľä½łåĸľæ¬¢": 6968,
      "çĮªèĤī": 6969,
      "çļĦæģĲ": 6970,
      "çļĦçĻ½": 6971,
      "çļĦç½ĳç«Ļ": 6972,
      "æĴ°åĨĻ": 6973,
      "æ¶µçĽĸ": 6974,
      "çļĦæ½ľ": 6975,
      "é²¨é±¼": 6976,
      "cript": 6977,
      "act": 6978,
      "ff": 6979,
      "gle": 6980,
      "ï¼Įæ³¨æĦı": 6981,
      "ï¼Įæ¸©åº¦": 6982,
      "ï¼Įæİ¥ä¸ĭæĿ¥": 6983,
      "ï¼ĮæĪĲä¸ºäºĨ": 6984,
      "ãĢĤç§ĭå¤©": 6985,
      "åħµ": 6986,
      "ãĢģæľī": 6987,
      "ãĢģéŁ³ä¹Ĳ": 6988,
      "ãĢģæķĻèĤ²": 6989,
      "è¿Ļä»½": 6990,
      "äºĨè¿Ļä¸ª": 6991,
      "æ³½": 6992,
      "æĿ¥è§£åĨ³": 6993,
      "ï¼Łä¸į": 6994,
      "æĬļ": 6995,
      "çİ°éĩĳ": 6996,
      "æ²«": 6997,
      "åĲĮåŃ¦": 6998,
      "è¡¨è¿°": 6999,
      "è¿ĽçĲĥ": 7000,
      "èĢĮåıĪ": 7001,
      "ä¸»æ¼Ķ": 7002,
      "æģ¼": 7003,
      "æĸ°äº§åĵģ": 7004,
      "æ¯Ķåĸ»": 7005,
      "æ°´çļĦ": 7006,
      "çĤ¹ç¬¦åı·": 7007,
      "åħ¬å¯ĵ": 7008,
      "ãĢĭæĺ¯ä¸Ģéĥ¨": 7009,
      "ãĢĬçº¢æ¥¼æ¢¦": 7010,
      "ç¿¼": 7011,
      "èĬĤçĽ®": 7012,
      "çĪ±åĽłæĸ¯åĿ¦": 7013,
      "åı¯èĥ½çļĦ": 7014,
      "åı¯èĥ½å¯¼èĩ´": 7015,
      "åħ³äºİçĪ±æĥħ": 7016,
      "ç»ĻæĪĳè®²": 7017,
      "æııè¿°ä¸Ģç§į": 7018,
      "ount": 7019,
      "ï¼Įä½łä¹Łåı¯ä»¥": 7020,
      "Ġsh": 7021,
      "è°ĥçĶ¨": 7022,
      "è£Ĥ": 7023,
      "ï¼Įå®ĥæĺ¯": 7024,
      "è½»ä¾¿": 7025,
      "é¢Ħè®¡": 7026,
      "åĲĦèĩª": 7027,
      "ä¸½èİİ": 7028,
      "å°½æĥħ": 7029,
      "åı¦ä¸Ģç§į": 7030,
      "æĮīåŃĹæ¯įé¡ºåºı": 7031,
      "è¾ĵåħ¥çļĦ": 7032,
      "å±ŀæĢ§": 7033,
      "å¨ĺ": 7034,
      "åħįçĸ«": 7035,
      "åįģå¹´": 7036,
      "ï¼ĮæľĢä½İ": 7037,
      "æ©¡": 7038,
      "å®Ŀå®Ŀ": 7039,
      "ï¼Įä¸Ģåıª": 7040,
      "çªģçł´": 7041,
      "ãĢĤå¦ĤæŀľæĤ¨æĥ³": 7042,
      "è¢ĭé¼ł": 7043,
      "ĠWorld": 7044,
      "åĺ´": 7045,
      "æľĢå¤§åĢ¼": 7046,
      "çļĦæĳĺè¦ģ": 7047,
      "æħ¢æħ¢åľ°": 7048,
      "äººæ°ĳå¸ģ": 7049,
      "æ´ĽæĿīçŁ¶": 7050,
      "èı²å°Ķ": 7051,
      "éī´åĪ«": 7052,
      "æ²Ĳæµ´": 7053,
      "çħ¸çĤĴ": 7054,
      "GB": 7055,
      "ake": 7056,
      "eb": 7057,
      "now": 7058,
      "zy": 7059,
      "®æŀĹ": 7060,
      "Ã¡": 7061,
      "ĠX": 7062,
      "ï¼Įä¸įåĲĮ": 7063,
      "ï¼Įæĺİå¤©": 7064,
      "ï¼Įä¼¼ä¹İ": 7065,
      "ï¼ĮåĲ¦åĪĻ": 7066,
      "çļĦåīį": 7067,
      "ãĢĤéĢļå¸¸": 7068,
      "ãĢĤçĽ®åīį": 7069,
      "åĴĮæľĭåıĭ": 7070,
      "ä¸ªåŃĹ": 7071,
      "ç»¸": 7072,
      "åı¯åı¯": 7073,
      "çļĦæĲ": 7074,
      "çīµ": 7075,
      "äººèĬĤ": 7076,
      "æŃī": 7077,
      "ä¸įåģľ": 7078,
      "å¯º": 7079,
      "æĿ¥ç¡®å®ļ": 7080,
      "æĭĵ": 7081,
      "çļĦçĿ": 7082,
      "å¤ļæ¬¡": 7083,
      "æ²ĥ": 7084,
      "âĢĿçŃī": 7085,
      "çĤī": 7086,
      "è¿ĽåĪ¶": 7087,
      "æ°Ķè±¡": 7088,
      "éĹ®é¢ĺçļĦ": 7089,
      "èĤ¢": 7090,
      "ä¸»åĬ¨": 7091,
      "ä¾ĽåºĶ": 7092,
      "ä»¥ä¸ĭåĩłä¸ª": 7093,
      "ï¼Įå¹¶å°Ĩåħ¶": 7094,
      "ä»Ģä¹Īæł·çļĦ": 7095,
      "åĽ½åĨħ": 7096,
      "åħīèĬĴ": 7097,
      "æµ·å²¸": 7098,
      "èĩªçĦ¶çķĮ": 7099,
      "ãĢĤè¯·ä¸ºæĪĳ": 7100,
      "æ¬¡æķ°": 7101,
      "æŀģåľ°": 7102,
      "ãĢĤæĪĳåı¯ä»¥": 7103,
      "åİĨç¨ĭ": 7104,
      "å¼ķçĶ¨": 7105,
      "ä¼ĺçĤ¹": 7106,
      "å®Įç¾İçļĦ": 7107,
      "è¥¿åħ°": 7108,
      "Ġdes": 7109,
      "çº¿ä¸Ĭ": 7110,
      "æ¯ıä¸ªæľĪ": 7111,
      "æħ°": 7112,
      "æħİ": 7113,
      "æ¼Ķå¥ı": 7114,
      "Ġnot": 7115,
      "é©¬æĭī": 7116,
      "é©¬å°Ķ": 7117,
      "æĤ¨çļĦè¦ģæ±Ĥ": 7118,
      "æ¿ĢåĬ±": 7119,
      "éħ¸å¥¶": 7120,
      "æĹ©æĻ¨": 7121,
      "ä»ĺåĩº": 7122,
      "è¿Ļç§įæĥħåĨµä¸ĭ": 7123,
      "æĿİåįİ": 7124,
      "çıŃçº§": 7125,
      "çļĦæ²¹": 7126,
      "åı¯ä»¥å¸®åĬ©ä½ł": 7127,
      "ĠPro": 7128,
      "çļĦçº¿": 7129,
      "è·ŁæĪĳ": 7130,
      "éĢĶä¸Ń": 7131,
      "ä¸ĸçķĮä¸ĬæľĢé«ĺçļĦå±±å³°": 7132,
      "ãĢĤæ¯Ķå¦Ĥè¯´": 7133,
      "çļĦå¹³åĿĩåĢ¼": 7134,
      "çļĦç©ºéĹ´": 7135,
      "çĶ³è¯·": 7136,
      "éĢĥèĦ±": 7137,
      "çŀ¬éĹ´": 7138,
      "çļĦæ£®æŀĹ": 7139,
      "çĩķéº¦": 7140,
      "rown": 7141,
      "ä»İå°ıåĪ°": 7142,
      "ç¾½æ¯Ľ": 7143,
      "ï¼ĮåķĨ": 7144,
      "ĠçĶ¨": 7145,
      "ï¼Įåħ³äºİ": 7146,
      "çļĦè§£": 7147,
      "çļĦè®¡ç®Ĺ": 7148,
      "çļĦåŃĺåľ¨": 7149,
      "çļĦé«ĺåº¦": 7150,
      "çļĦå¼Ģå¤´": 7151,
      "ãĢĮ": 7152,
      "ãĢį": 7153,
      "ãĢĤéľĢè¦ģ": 7154,
      "ãĢĤå¤ªéĺ³": 7155,
      "æĺ¯æŃ£ç¡®çļĦ": 7156,
      "ãĢģC": 7157,
      "ãĢģåĮ»çĸĹ": 7158,
      "ä¼į": 7159,
      "ä¸įç¡®å®ļ": 7160,
      "åĵĢ": 7161,
      "å¤§èĦĳ": 7162,
      "å¤§å¤ļæķ°": 7163,
      "æįī": 7164,
      "å¸¸çĶ¨çļĦ": 7165,
      "æĥ³çŁ¥éģĵ": 7166,
      "éĤ£å¥ĳ": 7167,
      "åģ·": 7168,
      "ä¸»è§Ĥ": 7169,
      "çĶµåĬ¨": 7170,
      "åħ¬æŃ£": 7171,
      "éĿŀå¸¸æĦŁè°¢": 7172,
      "æĺŁç³»": 7173,
      "èıł": 7174,
      "ãĢĤè¿Ļæ®µæĸĩæľ¬": 7175,
      "ï¼Įåı¯ä»¥å°Ŀè¯ķ": 7176,
      "éĢīæĭ©éĢĤåĲĪ": 7177,
      "åı£çº¢": 7178,
      "æĮĩæĺİ": 7179,
      "ç®Ģçº¦": 7180,
      "åħ¶ä»ĸäºº": 7181,
      "ï¼ģæĪĳ": 7182,
      "ç»ĨèıĮ": 7183,
      "åĮ»éĻ¢": 7184,
      "åĳĬè¯īæĪĳä»¬": 7185,
      "é¦ĻæĸĻ": 7186,
      "åĶ¤": 7187,
      "Ġbook": 7188,
      "Ġpe": 7189,
      "é¸¡èĥ¸": 7190,
      "çŁŃæļĤ": 7191,
      "æĬĬè¿Ļä¸ª": 7192,
      "çľŁå¥½": 7193,
      "è¿ľæĸ¹": 7194,
      "åľ°çĲĥä¸Ĭ": 7195,
      "èģĶåĲĪ": 7196,
      "ç²¾å½©": 7197,
      "åįĹäº¬": 7198,
      "rain": 7199,
      "æ³¢éĤ£å¥ĳ": 7200,
      "å®ĿèĹı": 7201,
      "å®³æĢķ": 7202,
      "ãĢĤå¦ĤæŀľæĤ¨åĸľæ¬¢": 7203,
      "å¤©ç©ºä¸Ń": 7204,
      "oogle": 7205,
      "è´¢å¯Į": 7206,
      "riend": 7207,
      "è½»è½»åľ°": 7208,
      "çļĦæ¸©æļĸ": 7209,
      "çĩĥæĸĻ": 7210,
      "çĶ°éĩİ": 7211,
      "Ġquick": 7212,
      "åĨ²çªģ": 7213,
      "ï¼Įè®²è¿°äºĨ": 7214,
      "çģ°èī²": 7215,
      "å·¥ç¨ĭå¸Ī": 7216,
      "æ½ºæ½º": 7217,
      "çļĦç¤¾ä¼ļ": 7218,
      "Ġadd": 7219,
      "æĸĲæ³¢éĤ£å¥ĳ": 7220,
      "'a": 7221,
      "><": 7222,
      "hello": 7223,
      "ux": 7224,
      "ĠçĮ«": 7225,
      "ĠéĿ¢åĮħ": 7226,
      "ä¸ĺ": 7227,
      "ï¼Įä»Ĭå¤©": 7228,
      "ï¼ĮæĮīçħ§": 7229,
      "ï¼Įé¢ĺçĽ®": 7230,
      "ï¼ĮåĲ¸å¼ķ": 7231,
      "çļĦè·¯": 7232,
      "ãĢĤç§ĭ": 7233,
      "ä¸Ģå±Ĥ": 7234,
      "åĲŀ": 7235,
      "åĬ£": 7236,
      "åľ¨å®¶éĩĮ": 7237,
      "äººä½ĵ": 7238,
      "åºŀ": 7239,
      "è¦ģæ³¨æĦı": 7240,
      "ä¸įèµ·": 7241,
      "å·¢": 7242,
      "æĦĪ": 7243,
      "æłĸ": 7244,
      "ä½łæĥ³è¦ģ": 7245,
      "æĿ¥è¡¨è¾¾": 7246,
      "ï¼ŁåĽłä¸º": 7247,
      "è¾Ľ": 7248,
      "ä¾ł": 7249,
      "çļĦç¡": 7250,
      "å¯¹äººç±»": 7251,
      "æĮĸ": 7252,
      "åıĳåħī": 7253,
      "åĲĮä¸Ģ": 7254,
      "æ´ª": 7255,
      "é«ĺéĢŁ": 7256,
      "éħµ": 7257,
      "éĢīåĩº": 7258,
      "ï¼Įå¹¶è§£éĩĬ": 7259,
      "ä»£æĽ¿": 7260,
      "æł¹æį®æıĲä¾Ľ": 7261,
      "å¸®å¿Ļ": 7262,
      "æĹłç©·": 7263,
      "ä¸¤æĿ¡": 7264,
      "èĬ±åįī": 7265,
      "ä¹ĲæĦı": 7266,
      "æ¼Ĩ": 7267,
      "èºº": 7268,
      "ï¼Įä»¥åħį": 7269,
      "éĴ®": 7270,
      "æµģæ°´": 7271,
      "æĢĿç»ª": 7272,
      "æĬĢæľ¯åĴĮ": 7273,
      "é¦ĻèĤł": 7274,
      "è¾ĥå¤§": 7275,
      "è¿ĻäºĽä¿¡æģ¯": 7276,
      "art": 7277,
      "æīĵç®Ĺ": 7278,
      "è¾¹ç¼ĺ": 7279,
      "Ġwould": 7280,
      "åĲĥäºĨ": 7281,
      "ï¼Įå°Ĩå®ĥä»¬": 7282,
      "é¢ľèī²çļĦ": 7283,
      "æĹłæ³ķç¡®å®ļ": 7284,
      "èµ°è¿Ľ": 7285,
      "ç«ĭåį³": 7286,
      "ass": 7287,
      "éĺ³åħīæĺİåªļ": 7288,
      "ä¸Ģæ®µæĸĩæľ¬": 7289,
      "ä¸ĩåħĥ": 7290,
      "æĵħ": 7291,
      "å®Ŀçİī": 7292,
      "éĿĴå±±": 7293,
      "çļĦæĿĥ": 7294,
      "æĽ´å¥½åľ°äºĨè§£": 7295,
      "ä¹ĺåĿĲ": 7296,
      "ä»ĺæ¬¾": 7297,
      "å¤§èĩªçĦ¶çļĦ": 7298,
      "åĵĪåĵĪ": 7299,
      "ï¼Įåĩº": 7300,
      "èķ´": 7301,
      "è¯Ńæ³ķéĶĻè¯¯": 7302,
      "è§£éĩĬä¸Ģä¸ĭä»Ģä¹Īæĺ¯": 7303,
      "æĸ°é²ľçļĦ": 7304,
      "æ·±åĪ»çļĦ": 7305,
      "æĻ´å¤©": 7306,
      "å¹´è½»äºº": 7307,
      "ãĢĤè°¢è°¢ä½ł": 7308,
      "å¡«åĨĻ": 7309,
      "çļĦæłĩå¿Ĺ": 7310,
      "éĿ©åĳ½": 7311,
      "ãĢĤéĻ¤äºĨ": 7312,
      "éĻ·åħ¥": 7313,
      "çļĦæĬ¥åĳĬ": 7314,
      "åĽ¾ä¹¦é¦Ĩ": 7315,
      "å±ıå¹ķ": 7316,
      "è¡¬è¡«": 7317,
      "æģ¢å¤į": 7318,
      "æµĵç¼©åĴĸåķ¡": 7319,
      "ect": 7320,
      "ft": 7321,
      "gh": 7322,
      "happy": 7323,
      "Ġæ´Ĺ": 7324,
      "ï¼Įæī¾åĪ°": 7325,
      "ï¼ĮæĲħæĭĮåĿĩåĮĢ": 7326,
      "çļĦäººä»¬": 7327,
      "çļĦçī©è´¨": 7328,
      "åĴĮæķ°æį®": 7329,
      "åĴĮçĽ®æłĩ": 7330,
      "æĺ¯ä¸ª": 7331,
      "è¿Ļæĺ¯ä¸Ģéĥ¨": 7332,
      "æľīä¸įåĲĮçļĦ": 7333,
      "æľīçĽĬ": 7334,
      "éĢĹ": 7335,
      "ä¸Ńä½¿çĶ¨": 7336,
      "åºĻ": 7337,
      "åĩĳ": 7338,
      "æŃ¦": 7339,
      "ï¼Łæĺ¯": 7340,
      "ï¼Łåı¯ä»¥": 7341,
      "çļĦç¾": 7342,
      "çļĦçı": 7343,
      "çļĦçĸ": 7344,
      "ç®Ń": 7345,
      "æĦŁåĬ¨": 7346,
      "éľĢè¦ģè¿Ľè¡Į": 7347,
      "è°ĭ": 7348,
      "åĮĸç®Ģ": 7349,
      "åĮĸçŁ³": 7350,
      "æ°Ķæģ¯": 7351,
      "çĲĨçĶ±": 7352,
      "å½ĵæĹ¶": 7353,
      "å½ĵä»Ĭ": 7354,
      "ï¼ĮæĪĳä¸įèĥ½": 7355,
      "åħ¬äº¤": 7356,
      "ä¸İèĩªçĦ¶": 7357,
      "æĹłè¾¹": 7358,
      "èĭį": 7359,
      "åĽ½çİĭ": 7360,
      "è¿Ľè¡ĮäºĨ": 7361,
      "ä»İä¸Ń": 7362,
      "è¢«è§Ĩä¸º": 7363,
      "ä¸¤åıª": 7364,
      "ï¼Įè¿Ļåı¥è¯Ŀ": 7365,
      "èĪį": 7366,
      "ï¼Įä½Ĩåľ¨": 7367,
      "æĸĻéħĴ": 7368,
      "èº«ä¸Ĭ": 7369,
      "ç»ĻæĪĳæİ¨èįĲä¸ĢäºĽ": 7370,
      "æīĭæ®µ": 7371,
      "èĥĥ": 7372,
      "æĢ»é¢Ŀ": 7373,
      "çº¢çĲĥ": 7374,
      "å®¹éĩı": 7375,
      "èĥ½å¤Łåľ¨": 7376,
      "è£¹": 7377,
      "è½»çĽĪ": 7378,
      "æŀģæĢ§": 7379,
      "ä¸ĸçķĮåĲĦåľ°": 7380,
      "åĳ½è¿Ĳ": 7381,
      "Ġcl": 7382,
      "å¤´èĦĳ": 7383,
      "è¯»ä¹¦": 7384,
      "Ġfrom": 7385,
      "çĥ¤èĤī": 7386,
      "ï¼ĮåĮĹ": 7387,
      "æħķ": 7388,
      "ä¾¿æį·": 7389,
      "ï¼ĮæĤ¨åı¯ä»¥åľ¨": 7390,
      "éĽ¨æ°´": 7391,
      "ally": 7392,
      "çļĦç¾İå¦Ļ": 7393,
      "åĨĻä¸Ģç¯ĩæĸĩç«ł": 7394,
      "åħ¸åŀĭ": 7395,
      "åģ¥åº·åĴĮ": 7396,
      "çĹħäºº": 7397,
      "çĹħæ¯Ĵ": 7398,
      "rac": 7399,
      "çļĦä¸Ģç»Ħ": 7400,
      "è¶ħçº§": 7401,
      "ï¼ĮæĪĳä»¬åı¯ä»¥ä½¿çĶ¨": 7402,
      "æĺ¾èĳĹ": 7403,
      "å¹¿æ³ĽåºĶçĶ¨": 7404,
      "low": 7405,
      "å¯¼èĩ´äºĨ": 7406,
      "ç¼ĸåĨĻä¸Ģæ®µ": 7407,
      "è®²è¿°äºĨä¸Ģä¸ª": 7408,
      "å¿«ä¹ĲåĴĮ": 7409,
      "é¡ºåºıæİĴåĪĹ": 7410,
      "æĺŁæľŁäºĶ": 7411,
      "ï¼Įè®©æĪĳæĿ¥": 7412,
      "çļĦæ³¢": 7413,
      "é¢Ĺè¡ĮæĺŁ": 7414,
      "èĢ³æľµ": 7415,
      "çļĦæĢĿæĥ³": 7416,
      "é£İåĲ¹æĭĤ": 7417,
      "ï¼Įè¢«èªīä¸º": 7418,
      "æĤłä¹ħ": 7419,
      "èĬ¬å¥ĩ": 7420,
      "åŁ¹è®Ń": 7421,
      "å§¿åĬ¿": 7422,
      "æī¹è¯Ħ": 7423,
      "åĬŀåħ¬å®¤": 7424,
      "åĨ¥æĥ³": 7425,
      "éĺĲè¿°": 7426,
      "çļĦçĭ¬çī¹": 7427,
      "\"\"": 7428,
      "\"æĺ¯": 7429,
      "%ãĢĤ": 7430,
      "Wh": 7431,
      "word": 7432,
      "ªåŃĲ": 7433,
      "¯æķĳ": 7434,
      "ĠåĩĨå¤ĩ": 7435,
      "ï¼Įè¯´æĺİ": 7436,
      "çļĦç§ĳåŃ¦": 7437,
      "ãĢĤçĭĹ": 7438,
      "ãĢĤä»Ĭå¤©": 7439,
      "æĪĴ": 7440,
      "åĴĮä½¿çĶ¨": 7441,
      "æĺ¯äººç±»": 7442,
      "åľ¨æĪĳ": 7443,
      "çļĦæ¹": 7444,
      "æľīäºº": 7445,
      "äººæĢ§": 7446,
      "ä¸įåıĺ": 7447,
      "æ³Ħ": 7448,
      "æıĴ": 7449,
      "çŃīå¤ļä¸ª": 7450,
      "æĹ¶ç©º": 7451,
      "æĤ¨æīĢåľ¨": 7452,
      "åĬ¨æĢģ": 7453,
      "çĦ°": 7454,
      "å¯¹æĤ¨": 7455,
      "å¯¹èĩªçĦ¶": 7456,
      "å¯¹ç¤¾ä¼ļ": 7457,
      "ç§įåŃĲ": 7458,
      "æĽ´åħ·": 7459,
      "æĽ´å¤§çļĦ": 7460,
      "è°§": 7461,
      "åº¦çļĦ": 7462,
      "çĿ£": 7463,
      "è§£é¢ĺ": 7464,
      "ç³Ł": 7465,
      "æľºæ¢°": 7466,
      "æĺ¯ä¸Ģå¹´": 7467,
      "å®ŀä¾ĭ": 7468,
      "ãĢĭä¸ŃçļĦ": 7469,
      "ï¼Įåı¯ä»¥åİ»": 7470,
      "ï¼īåĴĮ": 7471,
      "ï¼Įä½Ĩä¹Ł": 7472,
      "ouse": 7473,
      "èİ²": 7474,
      "ï¼ģå¥½çļĦ": 7475,
      "åıįè½¬": 7476,
      "å¼ºçļĦ": 7477,
      "Ġthis": 7478,
      "è®¤çľŁ": 7479,
      "æ¬¾å¼ı": 7480,
      "çĶ»å®¶": 7481,
      "èħ°": 7482,
      "å¤įä»ĩ": 7483,
      "éĿĻè°§": 7484,
      "å¥ĩå¹»": 7485,
      "æĥħæĦŁåĴĮ": 7486,
      "åĽ¾å½¢": 7487,
      "ç²¾èĩ´": 7488,
      "å¸¦æĿ¥çļĦ": 7489,
      "èĭ±æĸĩåįķè¯į": 7490,
      "åĨ°å·Ŀ": 7491,
      "----": 7492,
      "çĳļ": 7493,
      "ä¸ľäº¬": 7494,
      "æ¦Ĥçİĩ": 7495,
      "åĪĽéĢłåĩº": 7496,
      "èŀįåħ¥": 7497,
      "ï¼Įæ¯ıå¤©": 7498,
      "äºīè®®": 7499,
      "çľ¼åīį": 7500,
      "ç´§æĢ¥": 7501,
      "ç»Ŀåı¥": 7502,
      "éĩıåŃĲè®¡ç®Ĺæľº": 7503,
      "éĩĩçĶ¨äºĨ": 7504,
      "çļĦæĬĢèĥ½": 7505,
      "çªĹå¤ĸ": 7506,
      "çĽĽé¡¿": 7507,
      "æ±¤å§Ĩ": 7508,
      "å¾Ĺåĩºç»ĵè®º": 7509,
      "æķ°çļĦåĴĮ": 7510,
      "è°Īè®º": 7511,
      "çĪ¬è¡Į": 7512,
      "ï¼ĮåİŁ": 7513,
      "é¡µéĿ¢": 7514,
      "çļĦæłĩåĩĨ": 7515,
      "æııç»ĺäºĨ": 7516,
      "ãĢĤåħ·ä½ĵæĿ¥è¯´": 7517,
      "ä»Ķç»Ĩ": 7518,
      "ä¼Łå¤§çļĦ": 7519,
      "ä¹Įé¾Ł": 7520,
      "çłĶåıĳ": 7521,
      "å¸ĮèħĬ": 7522,
      "æ²īæµ¸åľ¨": 7523,
      "å¤ķéĺ³": 7524,
      "å¹³éĿ¢ä¸Ĭåįĩ": 7525,
      "é¸¡èĥ¸èĤī": 7526,
      "(s": 7527,
      ")=": 7528,
      ")ãĢĤ": 7529,
      "ec": 7530,
      "ning": 7531,
      "sqrt": 7532,
      "ug": 7533,
      "ven": 7534,
      "Ġ<": 7535,
      "Ġå¦Ĥæŀľ": 7536,
      "Ġé¸¡èĽĭ": 7537,
      "Ġvery": 7538,
      "ï¼ĮçĽ®åīį": 7539,
      "çļĦè¡¨çİ°": 7540,
      "çļĦåĪĽæĦı": 7541,
      "çļĦçĶŁæĹ¥": 7542,
      "ãĢĤä½¿çĶ¨": 7543,
      "ãĢĤæľ¬æĸĩ": 7544,
      "è¿«": 7545,
      "è¿Ī": 7546,
      "åĲĲ": 7547,
      "åĴĮæĶ¯æĮģ": 7548,
      "æĺ¯å°Ĩ": 7549,
      "ä»¥åħ¶": 7550,
      "æľīå¤ļ": 7551,
      "ä¸ŃåĬłåħ¥": 7552,
      "ï¼ļI": 7553,
      "åĩĭ": 7554,
      "è¦ģåİ»": 7555,
      "åĵĩ": 7556,
      "æĪĲä¸Ģä¸ª": 7557,
      "ï¼Łé¦ĸåħĪ": 7558,
      "è´«": 7559,
      "åŃ¦æľ¯": 7560,
      "æĦŁäºº": 7561,
      "æĦŁåĨĴ": 7562,
      "âĢĿï¼Ī": 7563,
      "åıĳè¡¨": 7564,
      "ä½ĵåŀĭ": 7565,
      "è¯ŃæĢģ": 7566,
      "éĤĥ": 7567,
      "åħ¥èĥľ": 7568,
      "åĽłæŀľ": 7569,
      "å¹´åīį": 7570,
      "ï¼Įå¹¶ç»Ļåĩº": 7571,
      "çĲĥéĺŁ": 7572,
      "æĺ¯ä¸Ģé¦ĸ": 7573,
      "ãĢĭæĺ¯": 7574,
      "ç§ĳæĻ®": 7575,
      "åīįè¿Ľ": 7576,
      "çĪ±ä½ł": 7577,
      "è¾¾åĪ°äºĨ": 7578,
      "ans": 7579,
      "é¤Ĳé¥®": 7580,
      "Ġspe": 7581,
      "æķ°æį®åĴĮ": 7582,
      "è¯ķçĿĢ": 7583,
      "åħĪè¿Ľ": 7584,
      "çĭĹçļĦ": 7585,
      "Ġwill": 7586,
      "äºĮæ¬¡": 7587,
      "é¥®çĶ¨": 7588,
      "æĶ¶çĽĬ": 7589,
      "åĪ¶ä½ľä¸Ģä¸ª": 7590,
      "å¤ļå°ĳä¸ª": 7591,
      "æĮīéĴ®": 7592,
      "çģ«éĶħ": 7593,
      "åĪĩçīĩ": 7594,
      "çĶŁæĪĲä¸Ģä¸ªåħ³äºİ": 7595,
      "èµ°åĲĳ": 7596,
      "èģĶçĽŁ": 7597,
      "Ġhas": 7598,
      "åİĨåı²ä¸ĬæľĢ": 7599,
      "ï¼Įå¯»": 7600,
      "ãĢĤä»ĸçļĦ": 7601,
      "åı¯èĥ½ä¼ļå¯¼èĩ´": 7602,
      "çİĭåŃĲ": 7603,
      "ä¸¾ä¸ª": 7604,
      "éĻįä¸´": 7605,
      "åıĳçĶŁåľ¨": 7606,
      "ï¼Įåħ¶ä¸ŃåĮħæĭ¬": 7607,
      "ife": 7608,
      "ific": 7609,
      "éĽªèĬ±": 7610,
      "ãĢĤ\"čĊ": 7611,
      "æĪĲåĬŁåľ°": 7612,
      "èĳ±å§ľ": 7613,
      "å±ħä½ı": 7614,
      "æĿİæĺİ": 7615,
      "çĥ§çĥ¤": 7616,
      "ï¼Łå½ĵæĪĳä»¬": 7617,
      "å½¢æĪĲçļĦ": 7618,
      "å·§åħĭåĬĽèĽĭç³ķ": 7619,
      "ä¾ĿçĦ¶": 7620,
      "éĵģå¡Ķ": 7621,
      "åĶ±æŃĮ": 7622,
      "ï¼Įå¿«": 7623,
      "éļıæľºæķ°": 7624,
      "éĻĦè¿ĳçļĦ": 7625,
      "æł¹æį®ç»Ļå®ļçļĦæĸĩæľ¬": 7626,
      "åĽŀçŃĶéĹ®é¢ĺå¹¶ç»Ļåĩº": 7627,
      "çļĦèĬ±æľµ": 7628,
      "ï¼Įåĵģ": 7629,
      "ï¼ĮåĢĴåħ¥": 7630,
      "ï¼Įéĺ³åħīæĺİåªļ": 7631,
      "è¿Ŀåıį": 7632,
      "æ¢µé«ĺ": 7633,
      "çļĦæĢģåº¦": 7634,
      "çģ¿çĥĤ": 7635,
      "æĵħéķ¿": 7636,
      "king": 7637,
      "tr": 7638,
      "Ġä¸Ģ": 7639,
      "Ĳå°Ħ": 7640,
      "çļĦè¯įæ±ĩ": 7641,
      "çļĦéĩįéĩı": 7642,
      "ãĢĤæľĢ": 7643,
      "ãĢĤæµ·": 7644,
      "ãĢĤå°ıè¯´": 7645,
      "åĴĮé£İæł¼": 7646,
      "æĺ¯æĪĳçļĦ": 7647,
      "ãĢģçĶŁ": 7648,
      "ãĢģæ¸¸æ³³": 7649,
      "ä¸Ńæī¾åĪ°": 7650,
      "ä¸Ģä¸ªåħ³äºİ": 7651,
      "çĽĨ": 7652,
      "æĭ¯æķĳ": 7653,
      "è¾¨": 7654,
      "è¾Ĳå°Ħ": 7655,
      "å¤§è§Ħæ¨¡": 7656,
      "çļĦçķ": 7657,
      "æĤ¨çļĦéĹ®é¢ĺ": 7658,
      "è¯·æ³¨æĦı": 7659,
      "æľĢéĩįè¦ģçļĦ": 7660,
      "å°Ĩè¿Ļä¸ª": 7661,
      "å°Ĩè¿ĻäºĽ": 7662,
      "æĽ´æ·±åħ¥": 7663,
      "åıĳéĢģ": 7664,
      "ä¹Łæĺ¯ä¸Ģä¸ª": 7665,
      "é«ĺæ¸©": 7666,
      "æ¯Ķçī¹": 7667,
      "ï¼ĮæĪĳæĿ¥": 7668,
      "éĩįåĬĽ": 7669,
      "ä¿Ŀé¸¡ä¸ģ": 7670,
      "å¾Īå¤§çļĦ": 7671,
      "ï¼Įå¹¶çĶ¨": 7672,
      "èµ·ä¼ı": 7673,
      "æĺ¯ä¸Ģé¡¹": 7674,
      "éĿŀå¸¸éĢĤåĲĪ": 7675,
      "éļĨ": 7676,
      "å»ºè®¾": 7677,
      "æ¯ıå¹´": 7678,
      "æ¯ıå°ıæĹ¶": 7679,
      "æľ¯è¯Ń": 7680,
      "å¹¶è¾ĵåĩº": 7681,
      "çĮĽ": 7682,
      "æ¸ħçĲĨ": 7683,
      "èĥĨ": 7684,
      "ãĢĤè¯·ä»İ": 7685,
      "ata": 7686,
      "æİ¨èįĲä¸Ģéĥ¨": 7687,
      "å¸¦ä¸Ĭ": 7688,
      "ä¼ĺåħĪ": 7689,
      "é»ĳèī²çļĦ": 7690,
      "åĨįç»ĻæĪĳ": 7691,
      "åı·çłģ": 7692,
      "æĪĺæĸĹ": 7693,
      "éħĴç²¾": 7694,
      "çĶŁåĳ½ä¸Ń": 7695,
      "èµĦäº§": 7696,
      "ç§ĳæĬĢçļĦ": 7697,
      "Ġinput": 7698,
      "åį³å°Ĩ": 7699,
      "ç³ĸéĨĭ": 7700,
      "ç¿»è¯ĳæĪĲèĭ±è¯Ń": 7701,
      "Pythonç¨ĭåºı": 7702,
      "è¯¦ç»ĨåĽŀçŃĶä¸ĬéĿ¢çļĦéĹ®é¢ĺ": 7703,
      "å®īåħ¨åĴĮ": 7704,
      "è¿½æº¯": 7705,
      "åħ¨çĲĥèĮĥåĽ´åĨħ": 7706,
      "æ¯Ľåıĳ": 7707,
      "verse": 7708,
      "çļĦçĪ¶": 7709,
      "éĶĻè¯¯çļĦ": 7710,
      "åĿļæŀľ": 7711,
      "ç½ĳç«Ļä¸Ĭ": 7712,
      "è°ģæĺ¯": 7713,
      "çºªå¿µ": 7714,
      "çĽĳçĭ±": 7715,
      "çıįè´µ": 7716,
      "åįıè°ĥ": 7717,
      "å¤ªéĺ³ç³»ä¸Ń": 7718,
      "çīĪæľ¬": 7719,
      "ï¼Įå°±åĥı": 7720,
      "å®«ä¿Ŀé¸¡ä¸ģ": 7721,
      "åĨľä¸ļ": 7722,
      "å¯Ĥå¯": 7723,
      "Ġmax": 7724,
      "è§Ĩè§īæķĪæŀľ": 7725,
      "ä½łèĥ½åĳĬè¯īæĪĳ": 7726,
      "çľŁæŃ£çļĦ": 7727,
      "ç¿ħèĨĢ": 7728,
      "çļĦæĢ§èĥ½": 7729,
      "çļĦæ±½": 7730,
      "ĠYou": 7731,
      "çļĦæµģè¡Į": 7732,
      "ĠChin": 7733,
      "æ¸´æľĽ": 7734,
      "çĢĳ": 7735,
      "æİ¨èįĲä¸Ģæ¬¾éĢĤåĲĪ": 7736,
      "æ¹ĽèĵĿ": 7737,
      "åĮ¹éħį": 7738,
      "çĻ¾å¹´åŃ¤çĭ¬": 7739,
      "åı¯åĨįçĶŁèĥ½æºĲ": 7740,
      "çĸ¯çĭĤ": 7741,
      "çļĦçĿ¡": 7742,
      "æĸĲæ³¢éĤ£å¥ĳæķ°åĪĹ": 7743,
      "BA": 7744,
      "cc": 7745,
      "me": 7746,
      "uct": 7747,
      "è©": 7748,
      "ĠU": 7749,
      "Ġï¼Ī": 7750,
      "ï¼ĮåĬł": 7751,
      "ï¼Įè¿Ľè¡Į": 7752,
      "ï¼Įæīĭ": 7753,
      "ï¼Įä¸ŃåĽ½": 7754,
      "ï¼Įç»ĵæŀľ": 7755,
      "çļĦçĶŁçī©": 7756,
      "çļĦç»ĨèĬĤ": 7757,
      "çļĦåĨĴéĻ©": 7758,
      "ãĢĤM": 7759,
      "æĪĳä¼ļ": 7760,
      "ãĢģçº¢": 7761,
      "ãĢģäº¤éĢļ": 7762,
      "æľīåħ¶ä»ĸ": 7763,
      "æľīä¸¤ä¸ª": 7764,
      "éĢĽ": 7765,
      "å¥Ī": 7766,
      "ï¼ļä¸Ģ": 7767,
      "ï¼ļå¥½çļĦ": 7768,
      "äºĨå¾Īå¤ļ": 7769,
      "å¼¯": 7770,
      "ä¸įæĥ³": 7771,
      "æĭĨ": 7772,
      "æĭĴ": 7773,
      "æ¯¯": 7774,
      "å¤©åľ°": 7775,
      "èīĺ": 7776,
      "å¤§æĪĺ": 7777,
      "èĩªåĪ¶": 7778,
      "ä¼ļå¯¼èĩ´": 7779,
      "åĬ¨çĶ»": 7780,
      "åħ³éĹŃ": 7781,
      "æĽ´åħ·ä½ĵ": 7782,
      "è¡¨æĥħ": 7783,
      "è¿Ļä¸ªåĩ½æķ°": 7784,
      "é«ĺåĵģè´¨": 7785,
      "å®¶åĴĮ": 7786,
      "ï¼ĮæĪĳçļĦ": 7787,
      "éĶ¦": 7788,
      "éĶĲ": 7789,
      "éĥ½å¾Ī": 7790,
      "ä»¥ä¸ĭåĩł": 7791,
      "éĢĤä¸Ń": 7792,
      "åıĹåĪ°äºĨ": 7793,
      "ä¸¤è¾¹": 7794,
      "ä¸¤åı¥è¯Ŀ": 7795,
      "åķ¸": 7796,
      "ç¯ĩå°ıè¯´": 7797,
      "ãĢĤåľ¨è¿Ļ": 7798,
      "èº²": 7799,
      "éĴł": 7800,
      "æĢ»åħ±": 7801,
      "çº¢åı¶": 7802,
      "èĽĻ": 7803,
      "æ²¡æľīä»»ä½ķ": 7804,
      "ï¼Įå®ĥä¼ļ": 7805,
      "ä¸ĸçķĮæĿ¯": 7806,
      "è¿ĳå¹´æĿ¥": 7807,
      "æĸ¹å¼ıåĴĮ": 7808,
      "Ġdel": 7809,
      "èįīæľ¨": 7810,
      "å²Ĺ": 7811,
      "è¡¨è¾¾åĩº": 7812,
      "èĵī": 7813,
      "æķħäºĭåĲ§": 7814,
      "ï¼Įæľīä¸Ģä¸ª": 7815,
      "ç§ĳæĬĢåıĳå±ķ": 7816,
      "ç«ĭæĸ¹": 7817,
      "è¡¨ç¤ºä¸º": 7818,
      "åĽĽå¤§": 7819,
      "åİĨåı²ä¸Ĭ": 7820,
      "éĺŁä¼į": 7821,
      "ï¼ĮåĽłæŃ¤åı¯ä»¥": 7822,
      "å£«æ¯Ķäºļ": 7823,
      "è¯¦ç»ĨçļĦæİ¨çĲĨ": 7824,
      "åħįè´¹": 7825,
      "ï¼ĮæĪĳåı¯ä»¥å¸®æĤ¨": 7826,
      "çļĦæµª": 7827,
      "æµªè´¹": 7828,
      "ï¼Įå®ĥä»¬çļĦ": 7829,
      "æ¿Ģæĥħ": 7830,
      "å»ºçŃĳçī©": 7831,
      "ĠÃł": 7832,
      "åį³åı¯äº«çĶ¨": 7833,
      "èĶ¬èıľåĴĮ": 7834,
      "ç¼ĸåĨĻä¸Ģä»½": 7835,
      "ãĢĤæĪĳä»¬åı¯ä»¥": 7836,
      "random": 7837,
      "çĶµåŃĲéĤ®ä»¶": 7838,
      "å®ĩå®ĻçļĦ": 7839,
      "çļĦæ°´æŀľ": 7840,
      "çļĦçģ¯": 7841,
      "ï¼Įäººä»¬åı¯ä»¥": 7842,
      "æĭįæīĵ": 7843,
      "Ġjum": 7844,
      "ãĢĤä½ľä¸ºAIè¯Ńè¨Ģæ¨¡åŀĭ": 7845,
      "ãĢĤå»ºè®®æĤ¨": 7846,
      "å¤ļæł·æĢ§": 7847,
      "è¯·è¾ĵåħ¥ç¬¬ä¸Ģä¸ª": 7848,
      "ç¨įå¾®": 7849,
      "æŀĿå¤´": 7850,
      "çĽĴåŃĲ": 7851,
      "çļĦæĹħæ¸¸æĻ¯çĤ¹": 7852,
      "èĬ±åĽŃéĩĮ": 7853,
      "èİİå£«æ¯Ķäºļ": 7854,
      "çļĦæ¼Ķè®²": 7855,
      "ç¿©ç¿©": 7856,
      "çĽĲåĴĮé»ĳèĥ¡æ¤Ĵ": 7857,
      "æĽ´åĩĨç¡®åľ°": 7858,
      "çļĦæŁĲ": 7859,
      "ï¼Įå°¤åħ¶æĺ¯": 7860,
      "è¿Ļå®¶é¤Ĳåİħ": 7861,
      "éĿĻéĿĻåľ°": 7862,
      "èŁ¹": 7863,
      "ãĢĤä¸ĢèĪ¬æĿ¥è¯´": 7864,
      "çīĽä»Ķè£¤": 7865,
      "éĻ¶éĨī": 7866,
      "èı²å°Ķéĵģå¡Ķ": 7867,
      "åĽŀçŃĶéĹ®é¢ĺå¹¶ç»Ļåĩºè¯¦ç»ĨçļĦæİ¨çĲĨ": 7868,
      "åĽŀçŃĶéĹ®é¢ĺå¹¶ç»Ļåĩºè¯¦ç»ĨçļĦæİ¨çĲĨè¿ĩç¨ĭ": 7869,
      "),": 7870,
      "ll": 7871,
      "old": 7872,
      "td": 7873,
      "ÃŃ": 7874,
      "Ġä½¿çĶ¨": 7875,
      "Ġä»·æł¼": 7876,
      "ï¼Įåħ±": 7877,
      "ï¼Įæĺ¥": 7878,
      "ï¼ĮçĶ¨æĪ·": 7879,
      "ï¼ĮAI": 7880,
      "ï¼Įç¡®å®ļ": 7881,
      "ï¼Įèĩ³å°ĳ": 7882,
      "ï¼Įè¡¨è¾¾äºĨ": 7883,
      "ï¼ĮçªģçĦ¶": 7884,
      "çļĦåı¯": 7885,
      "çļĦåĪĨç±»": 7886,
      "çļĦèīºæľ¯": 7887,
      "ãĢĤä¸ĭéĿ¢": 7888,
      "ãĢĤåı¯ä»¥ä½¿çĶ¨": 7889,
      "ãĢĤä»¥ä¸ĭæĺ¯ä¸Ģä¸ª": 7890,
      "ä¸Ģå°ģ": 7891,
      "åĪ¸": 7892,
      "åĴĮäººç±»": 7893,
      "åĴĮæ³ķå¾ĭ": 7894,
      "ä»¥æĿ¥": 7895,
      "è®¼": 7896,
      "æľīéĻĲ": 7897,
      "æľīä¸Ģåıª": 7898,
      "æĿľ": 7899,
      "æīĳ": 7900,
      "å¯Ħ": 7901,
      "èĩĤ": 7902,
      "ï¼Ł\"": 7903,
      "ï¼ŁæĪĳæĥ³": 7904,
      "åİĤ": 7905,
      "è¡Įèµ°": 7906,
      "è´º": 7907,
      "å®ĥåľ¨": 7908,
      "èµ¤": 7909,
      "å±¿": 7910,
      "çİ°æľī": 7911,
      "âĢľçĮ«": 7912,
      "èĢĮéĹ»åĲį": 7913,
      "éĢļçŁ¥": 7914,
      "éħ·": 7915,
      "æ·ĺ": 7916,
      "ï¼ĮæĪĳå¾Ī": 7917,
      "è¿ĺæ²¡æľī": 7918,
      "åĨĻåĩº": 7919,
      "éĽĢ": 7920,
      "èµ·èĪŀ": 7921,
      "è¯¥éĹ®é¢ĺ": 7922,
      "ãĢĤè¿ĻéĩĮ": 7923,
      "åİ»å¹´": 7924,
      "ä¸¤ç»Ħ": 7925,
      "ç»ĵå±Ģ": 7926,
      "ï¼Įåı¯ä»¥è®©": 7927,
      "çĸ¼": 7928,
      "æ¸¸è®°": 7929,
      "äººå·¥æĻºèĥ½çļĦåıĳå±ķ": 7930,
      "éĴĵ": 7931,
      "è¯īè®¼": 7932,
      "æĳĺ": 7933,
      "Ġfriend": 7934,
      "é»Ħæĺı": 7935,
      "ï¼ĮéĤ£ä¹Īè¿Ļä¸ª": 7936,
      "Ġwas": 7937,
      "ä¹°äºĨä¸Ģ": 7938,
      "åĩıèĤ¥": 7939,
      "ç»¿èĮ¶": 7940,
      "å¥ĩçī¹": 7941,
      "ï¼Įæľīå¾Īå¤ļ": 7942,
      "ä»£çłģå¦Ĥä¸ĭ": 7943,
      "æ¯įäº²": 7944,
      "æ¶Īæģ¯": 7945,
      "åį³ä½¿": 7946,
      "æĿ¯åŃĲ": 7947,
      "å¿ħå¤ĩ": 7948,
      "ï¼Įä¸ĢèĪ¬": 7949,
      "çīĽå¥¶åĴĮ": 7950,
      "éĩįè¦ģçļĦä½ľçĶ¨": 7951,
      "éĥ½æľīçĿĢ": 7952,
      "çļĦç¬Ķ": 7953,
      "ãĢĤèĢĮä¸Ķ": 7954,
      "é£ĺèį¡": 7955,
      "è´¢äº§": 7956,
      "çļĦæĹħç¨ĭ": 7957,
      "èµŀåı¹": 7958,
      "åıĮæĸ¹": 7959,
      "è¯Ńæ³ķåĴĮ": 7960,
      "éĺ¿çĶĺ": 7961,
      "æ£Ģæµĭ": 7962,
      "ä¸ĢçĽ´åľ¨": 7963,
      "ï¼Įåĳ¨": 7964,
      "å¹´è½»çļĦ": 7965,
      "æĭħå¿ĥ": 7966,
      "èģĬå¤©æľºåĻ¨äºº": 7967,
      "è¯·è¾ĵåħ¥ç¬¬äºĮä¸ª": 7968,
      "æĹłéĻĲçļĦ": 7969,
      "å®Įæķ´çļĦ": 7970,
      "Ġune": 7971,
      "éļľç¢į": 7972,
      "çļĦåħīèĬĴ": 7973,
      "çļĦæĮĩå¯¼": 7974,
      "åĶĲä»£": 7975,
      "éªĳèĩªè¡Įè½¦": 7976,
      "æī©å±ķ": 7977,
      "èĸ¯çīĩ": 7978,
      "è¡¥åħħ": 7979,
      "ï¼Įåģļ": 7980,
      "æİ¨æĸŃåĩº": 7981,
      "çļĦç±»åŀĭ": 7982,
      "äººéĻħåħ³ç³»": 7983,
      "è¥¿åħ°èĬ±": 7984,
      "éĢĹåı·": 7985,
      "BC": 7986,
      "He": 7987,
      "Je": 7988,
      "ian": 7989,
      "xx": 7990,
      "¬ī": 7991,
      "Ã³": 7992,
      "ç°": 7993,
      "ï¼ĮåĲİ": 7994,
      "ï¼Įéĥ½æĺ¯": 7995,
      "ï¼Įæİ¢ç´¢": 7996,
      "ï¼Įç»§ç»Ń": 7997,
      "çļĦé¡ºåºı": 7998,
      "çļĦé£Łè°±": 7999,
      "çļĦä¸ľè¥¿": 8000,
      "ãĢĤèĥ½": 8001,
      "ãĢĤçĶµå½±": 8002,
      "ä¸ĢåĪ»": 8003,
      "åĴĮçĮ«": 8004,
      "è¿Ļä¹Ī": 8005,
      "æĹ·": 8006,
      "ï¼ļä¸Ģä¸ª": 8007,
      "ï¼ļå°ıæĺİ": 8008,
      "äºĨä»ĸ": 8009,
      "ä¸įåĸľæ¬¢": 8010,
      "ä¸įè§ģ": 8011,
      "å¥½åĲ¬": 8012,
      "æĪĲäºĨ": 8013,
      "æĬ¬": 8014,
      "åĪĨéļĶ": 8015,
      "æ¸¯": 8016,
      "å°ıå¿ĥ": 8017,
      "æľĢéķ¿": 8018,
      "æľĢåıĹæ¬¢è¿İ": 8019,
      "æľĢèĳĹåĲįçļĦ": 8020,
      "å°Ĩä¸ĭåĪĹ": 8021,
      "æŀľå®ŀ": 8022,
      "è¿ĩæĿ¥": 8023,
      "å¸¸è§Ħ": 8024,
      "åıĳçĶµ": 8025,
      "æ±Ĺ": 8026,
      "é«ĺçº§": 8027,
      "çĲĨæĥ³": 8028,
      "çĶµç£ģ": 8029,
      "éħ¥": 8030,
      "å®ŀæĹ¶": 8031,
      "ï¼Įè¿Ļå°Ĩ": 8032,
      "ä¹ĲåĻ¨": 8033,
      "èĬĤçĤ¹": 8034,
      "å£¶": 8035,
      "çĪ±åĴĮ": 8036,
      "æĭ¬åı·": 8037,
      "ï¼ĮåĽĽ": 8038,
      "ç²¥": 8039,
      "éĴ»": 8040,
      "ï¼Įè®©ä½ł": 8041,
      "æķ°æį®è¿Ľè¡Į": 8042,
      "æŀģåħ¶": 8043,
      "èĳµ": 8044,
      "çīĩæ®µ": 8045,
      "ç¬¬ä¸īä¸ª": 8046,
      "çĻ½èī²çļĦ": 8047,
      "éĩĳèī²çļĦ": 8048,
      "å»ºè®®åĲĹ": 8049,
      "è¾ĥä½İ": 8050,
      "çĽ´çº¿": 8051,
      "Ġbrown": 8052,
      "åħ±é¸£": 8053,
      "é»Ħéĩĳ": 8054,
      "è¡¨è¾¾æĸ¹å¼ı": 8055,
      "æŁ¥ä¸Ģä¸ĭ": 8056,
      "æĪĲä¸ºä¸Ģä¸ª": 8057,
      "å¯ĮåĲ«": 8058,
      "ï¼ĮçĦ¶åĲİåĨį": 8059,
      "æ¶ĪåĮĸ": 8060,
      "åģ¥åº·é¥®é£Ł": 8061,
      "åĲĦç§įåĲĦ": 8062,
      "å¤±æľĽ": 8063,
      "åĦ¿åŃĲ": 8064,
      "åįģä¸ª": 8065,
      "èĪŀåı°": 8066,
      "ram": 8067,
      "æľĢè¿ĳçļĦ": 8068,
      "ï¼Įå¥³": 8069,
      "èĪĴéĢĤçļĦ": 8070,
      "è·³èĪŀ": 8071,
      "åĲ¸å¼ķåĬĽ": 8072,
      "ç¹ģåįİ": 8073,
      "çļĦæ²ŁéĢļ": 8074,
      "åĬªåĬĽåĴĮ": 8075,
      "èĨı": 8076,
      "ä¿ĥéĶĢ": 8077,
      "èĻļæŀĦ": 8078,
      "çļĦæ³¨": 8079,
      "å¥ĸé¡¹": 8080,
      "éľ²èĲ¥": 8081,
      "æĭĤè¿ĩ": 8082,
      "åįıåĬ©": 8083,
      "ï¼Įå°±åı¯ä»¥": 8084,
      "ï¼Įå»ºè®®æĤ¨": 8085,
      "çº·çº·": 8086,
      "å±ķç¤ºäºĨ": 8087,
      "çļĦä¼ĺåĬ¿": 8088,
      "æĺ¨æĻļ": 8089,
      "åĽ¾åĥıè¯ĨåĪ«": 8090,
      "æĦıå¤§åĪ©éĿ¢æĿ¡": 8091,
      "æµ®å®«": 8092,
      "è¾ĵåĩºç»ĵæŀľä¸º": 8093,
      "çļĦæŀľ": 8094,
      "æįŁå¤±": 8095,
      "çļĦå¤ĸè§Ĥ": 8096,
      "çĪ±å¥½èĢħ": 8097,
      "çļĦä¸»æĹ¨": 8098,
      "çļĦç²¾ç¥ŀ": 8099,
      "ç§ĴéĴŁ": 8100,
      "çļĦæ¬¢": 8101,
      "æ»ĭæ¶¦": 8102,
      "è±ªåįİ": 8103,
      "ãĢĤSure": 8104,
      "çĬ¹å¦Ĥ": 8105,
      "ç³Łç³ķ": 8106,
      "ä¸¾ä¸ªä¾ĭåŃĲ": 8107,
      "è©¹": 8108,
      "Cl": 8109,
      "LO": 8110,
      "Script": 8111,
      "con": 8112,
      "frac": 8113,
      "ius": 8114,
      "joy": 8115,
      "}{": 8116,
      "Ã¨": 8117,
      "Ġ`": 8118,
      "Ġæµ·": 8119,
      "ĠæľĢåĲİ": 8120,
      "ĠAI": 8121,
      "Ġout": 8122,
      "ģè®¸": 8123,
      "ä¸Ļ": 8124,
      "ï¼Įä¸Ģèµ·": 8125,
      "ï¼Įä¿ĿæĬ¤": 8126,
      "çļĦåĪĹè¡¨": 8127,
      "çļĦå®¶åºŃ": 8128,
      "ãĢĤåħ³äºİ": 8129,
      "ãĢĤå¤ıæĹ¥": 8130,
      "ä¸Ģèĩ´": 8131,
      "åħĦ": 8132,
      "åħģè®¸": 8133,
      "åĴĮåºĶçĶ¨": 8134,
      "åĴĮæĬĢæľ¯": 8135,
      "ä¸ªæ©ĻåŃĲ": 8136,
      "ãĢģè´ŁéĿ¢": 8137,
      "çļĦæĵ": 8138,
      "åı¯ä»¥çĶ¨äºİ": 8139,
      "ä¸įå¤Ł": 8140,
      "å¥½å¤Ħ": 8141,
      "æĸĩçĮ®": 8142,
      "æĤ¨æĥ³": 8143,
      "å°ıçĲĥ": 8144,
      "éľĢè¦ģæĶ¯ä»ĺ": 8145,
      "é¦ħ": 8146,
      "éĢļä¿¡": 8147,
      "åĲĪæĪĲ": 8148,
      "çĽ¸æľº": 8149,
      "éĩįçĤ¹": 8150,
      "ä¿ĿåŃĺ": 8151,
      "éĢĤçĶ¨": 8152,
      "ç»ıçĲĨ": 8153,
      "ä¿¡çĶ¨": 8154,
      "ãĢĤè¿Ļéĥ¨çĶµå½±": 8155,
      "æĹ¥èĲ½": 8156,
      "æģ¯åľ°": 8157,
      "åİ»åĵªéĩĮ": 8158,
      "ä¸¤äºº": 8159,
      "è´¨åľ°": 8160,
      "åķ¦": 8161,
      "åıªé¸Ł": 8162,
      "åĪĽæĸ°çļĦ": 8163,
      "åĮħè£ħ": 8164,
      "å¹¶æıĲä¾Ľ": 8165,
      "èĬĤçº¦": 8166,
      "èĻ¹": 8167,
      "ï¼Įå¦ĤæŃ¤": 8168,
      "ä»·ä¸º": 8169,
      "ä¹łä¿Ĺ": 8170,
      "ï¼Įä½Ĩä»ĸ": 8171,
      "any": 8172,
      "è¯Ĺåı¥": 8173,
      "ä¸Ģä¸ĭåĲĹ": 8174,
      "ç²Ĺ": 8175,
      "å§»": 8176,
      "è§Ĥèµı": 8177,
      "ï¼Įä½łæľīä»Ģä¹Ī": 8178,
      "æĺ¯ä¸Ģä¸ªåħħæ»¡": 8179,
      "ï¼Įè®©è¯»èĢħ": 8180,
      "åĲĳéĩı": 8181,
      "å±±åĮº": 8182,
      "ä¼łæĿ¥": 8183,
      "ç®ĢåĮĸ": 8184,
      "åĽŀçŃĶä»¥ä¸ĭéĹ®é¢ĺ": 8185,
      "å¼ķå¯¼": 8186,
      "ark": 8187,
      "Ġfox": 8188,
      "æ¢¨": 8189,
      "çħ§é¡¾": 8190,
      "å¦¹": 8191,
      "èħº": 8192,
      "è¿ľç¦»": 8193,
      "éĻ¤æ³ķ": 8194,
      "é¢ľèī²åĴĮ": 8195,
      "èµ°åĪ°": 8196,
      "åįİçĽĽé¡¿": 8197,
      "äºĳå½©": 8198,
      "è¿ĲåĬ¨åĳĺ": 8199,
      "è®¡ç®Ĺæľºç¨ĭåºı": 8200,
      "è´ŁåĢº": 8201,
      "è¶ħè¶Ĭ": 8202,
      "è¿ŀç»Ń": 8203,
      "ä¸°å¯Įå¤ļå½©": 8204,
      "æ¸©åº¦ä¸º": 8205,
      "ç¬Ķè®°æľ¬": 8206,
      "ï¼ĮåĩĨ": 8207,
      "ä½ĽæķĻ": 8208,
      "çļĦæ°ĶåĢĻ": 8209,
      "æ¹ĸæ³Ĭ": 8210,
      "æĦŁè§īåĪ°": 8211,
      "å®ĪæĬ¤": 8212,
      "å¥¥æĸ¯": 8213,
      "è¸©": 8214,
      "å®½åº¦": 8215,
      "avor": 8216,
      "ï¼Įå±ŀ": 8217,
      "æ±īåŃĹ": 8218,
      "Ġlazy": 8219,
      "æķıæĦŁ": 8220,
      "çķĻä¸ĭäºĨ": 8221,
      "çļĦæĳĦ": 8222,
      "æī©å¤§": 8223,
      "æĸĳé©¬": 8224,
      "å¸ĿåĽ½": 8225,
      "åľ¨æłĳä¸Ĭ": 8226,
      "ï¼Įå¼Ģå§ĭ": 8227,
      "ï¼Įçī¹åĪ«æĺ¯": 8228,
      "ï¼ĮåĶ¯": 8229,
      "æ£µæłĳ": 8230,
      "å¾ĴæŃ¥": 8231,
      "ï¼Įåĸľæ¬¢": 8232,
      "åĽłæŀľåħ³ç³»": 8233,
      "çļĦçĿ¡çľł": 8234,
      "è©¹å§Ĩæĸ¯": 8235,
      "[:": 8236,
      "ax": 8237,
      "ile": 8238,
      "Ġå¤§": 8239,
      "Ġé¦Ļ": 8240,
      "ĠæĦıå¤§åĪ©": 8241,
      "çļĳ": 8242,
      "ï¼ĮéĹ®": 8243,
      "ï¼Įæĥ³": 8244,
      "ï¼Įé£İ": 8245,
      "ï¼Įéķ¿": 8246,
      "ï¼Įçĥ¤": 8247,
      "ï¼ĮåĪ¶ä½ľ": 8248,
      "ï¼Įç¨ĭåºı": 8249,
      "ï¼ĮåĪĹåĩº": 8250,
      "çļĦæĸĩåĮĸ": 8251,
      "çļĦè¦ģæ±Ĥ": 8252,
      "çļĦä¼łç»Ł": 8253,
      "çļĦæĸ¹åĲĳ": 8254,
      "ãĢĤå¦Ĥ": 8255,
      "ãĢĤçªģçĦ¶": 8256,
      "ãĢĤäºİæĺ¯": 8257,
      "ä»ĵ": 8258,
      "åĴ¬": 8259,
      "ãĢģB": 8260,
      "æĿĨ": 8261,
      "ä¸ŃçŃī": 8262,
      "æķĮ": 8263,
      "å½¹": 8264,
      "ä¸Ģä¸ªéĢĤåĲĪ": 8265,
      "å¥½å¥ĩ": 8266,
      "æ³¼": 8267,
      "åĪ°çļĦ": 8268,
      "å¦ĤåĲĮ": 8269,
      "æı´": 8270,
      "çŃīæĬĢæľ¯": 8271,
      "å¿į": 8272,
      "ä¿¯": 8273,
      "ä»ĸäººçļĦ": 8274,
      "æľĢåıĹæ¬¢è¿İçļĦ": 8275,
      "å¤ļèĬ¬": 8276,
      "ç»Ļäººä»¬": 8277,
      "æ³ķéĻ¢": 8278,
      "è¿ĽåĮĸ": 8279,
      "æĦıä¸º": 8280,
      "çĥ·": 8281,
      "çŁ®": 8282,
      "åīĳ": 8283,
      "åħ¬è½¬": 8284,
      "è¿ĺè¦ģ": 8285,
      "éĢīçĶ¨": 8286,
      "å¾Īéļ¾": 8287,
      "çĪµå£«": 8288,
      "ä»£è°¢": 8289,
      "æł¹æį®ä¸ªäºº": 8290,
      "æĹłæķ°": 8291,
      "æĺŁåħī": 8292,
      "ãĢĭčĊ": 8293,
      "ãĢĭï¼Ľ": 8294,
      "åħīæ»ĳ": 8295,
      "ï¼ī-": 8296,
      "ç¯ĩåħ³äºİ": 8297,
      "è¾¾èĬ¬å¥ĩ": 8298,
      "åĻ¬": 8299,
      "ä¸īä½ĵ": 8300,
      "åı£è¯Ń": 8301,
      "æ·±åĳ¼åĲ¸": 8302,
      "æ¸©åĴĮ": 8303,
      "ise": 8304,
      "ï¼ģéĤ£": 8305,
      "æĲŀ": 8306,
      "æķĪåºĶ": 8307,
      "Ġbanana": 8308,
      "Ġpre": 8309,
      "é¸¡èħ¿": 8310,
      "éŁ³ä¹Ĳå®¶": 8311,
      "ï¼ĮéĤ£ä¹Īè¯·éĹ®": 8312,
      "Ġword": 8313,
      "æĸ¯æĭī": 8314,
      "éĶĻè¿ĩ": 8315,
      "æ¼ĶåĶ±": 8316,
      "åľ°çĲĥä¸ĬæľĢ": 8317,
      "ï¼Įæľīä»Ģä¹Ī": 8318,
      "åı¤é£İ": 8319,
      "ï¼Įä¸įèĥ½": 8320,
      "è¿ĺæľīå¾Īå¤ļ": 8321,
      "çļĦæĢĢ": 8322,
      "æĦŁåıĹåĪ°äºĨ": 8323,
      "å¾®è§Ĥ": 8324,
      "äº§çĶŁçļĦ": 8325,
      "æĭ¥æĬ±": 8326,
      "æ¿ĢçĥĪ": 8327,
      "é¡ºåĪ©": 8328,
      "åĩĨç¡®åľ°": 8329,
      "ãĢĤå¦Ĥæŀľä½łæĥ³è¦ģ": 8330,
      "ãĢĤç»ĻæĪĳè®²ä¸Ģä¸ª": 8331,
      "éĢĲæŃ¥": 8332,
      "æĻ®åıĬ": 8333,
      "åįĥç±³": 8334,
      "ĠBe": 8335,
      "ç´§åĩĳ": 8336,
      "ä¸Ģå®ļä¼ļ": 8337,
      "æ´ĹåĩĢ": 8338,
      "çŁ¥è¯ĨåĴĮ": 8339,
      "ï¼Łå½ĵä½ł": 8340,
      "que": 8341,
      "ï¼ĮæĪĳä¼ļæİ¨èįĲ": 8342,
      "åĿļå®ļ": 8343,
      "è¿·è·¯": 8344,
      "è·ŁçĿĢ": 8345,
      "Ġbeaut": 8346,
      "éº¦çĶ°": 8347,
      "ï¼Įè¿ĺæľīä¸ĢäºĽ": 8348,
      "çļĦæĹ¥åŃĲ": 8349,
      "éģįåİĨ": 8350,
      "å¹³åĿĩåĢ¼": 8351,
      "æĭįæĳĦ": 8352,
      "åı¯ä»¥è¢«å½Ĵç±»ä¸º": 8353,
      "å¹³åı°ä¸Ĭ": 8354,
      "è½»æĿ¾åľ°": 8355,
      "ç¾ĬèĤī": 8356,
      "XXX": 8357,
      "å®£å¸ĥ": 8358,
      "è´Ŀå¤ļèĬ¬": 8359,
      "Ġque": 8360,
      "çļĦæĭĽ": 8361,
      "éĿ¢ä¸´çĿĢ": 8362,
      "çļĦæĢ§æł¼": 8363,
      "çĮİçī©": 8364,
      "æĿĳåºĦ": 8365,
      "çļĦç¥ŀç§ĺ": 8366,
      "ï¼ĮåĽŀçŃĶéĹ®é¢ĺ": 8367,
      "çļĦæ¯ıä¸ª": 8368,
      "è´¦æĪ·": 8369,
      "çģŃç»Ŀ": 8370,
      "çļĦçĥ¤ç®±": 8371,
      "è¿Ľè¡ĮæĥħæĦŁåĪĨç±»": 8372,
      "ä¸ĵæ³¨äºİ": 8373,
      "å¼ķäººåħ¥èĥľ": 8374,
      "æĬĴæĥħ": 8375,
      "åĲŀåĻ¬": 8376,
      "çĢĳå¸ĥ": 8377,
      "$$": 8378,
      ")/": 8379,
      "/å°ıæĹ¶": 8380,
      ":return": 8381,
      "Google": 8382,
      "ML": 8383,
      "TA": 8384,
      "ble": 8385,
      "ek": 8386,
      "jour": 8387,
      "kg": 8388,
      "pro": 8389,
      "åĥ": 8390,
      "å¬ī": 8391,
      "Ġ%": 8392,
      "Ġ>": 8393,
      "ï¼ĮåĲ¬": 8394,
      "ï¼Įå°±æĺ¯": 8395,
      "ï¼Įçľĭçľĭ": 8396,
      "ï¼ĮæĹ¢": 8397,
      "çļĦåŃ¦ä¹ł": 8398,
      "çļĦå½¢è±¡": 8399,
      "ãĢĤä»¥ä¸Ĭ": 8400,
      "ãĢĤThis": 8401,
      "åĴĮçĲĨè§£": 8402,
      "ãĢģçĮ«": 8403,
      "ãĢģçĥ¤": 8404,
      "åľ¨åħ¬åĽŃéĩĮ": 8405,
      "è¿Ļéĥ¨": 8406,
      "ä¸Ńç«ĭ": 8407,
      "åĩĮ": 8408,
      "äºĨä¸Ģç§į": 8409,
      "å¥½è¯Ħ": 8410,
      "æĿ¥è¡¨ç¤º": 8411,
      "çī©èģĶç½ĳ": 8412,
      "æµ©": 8413,
      "è´¸": 8414,
      "åĪĨåī²": 8415,
      "æľĢé«ĺçļĦ": 8416,
      "åĬ¨è¯į": 8417,
      "éĹ®åĢĻ": 8418,
      "æĪĸæľįåĬ¡": 8419,
      "èĬ¹": 8420,
      "æĽ´æľī": 8421,
      "è¿ĩæķı": 8422,
      "éľĢè¦ģåľ¨": 8423,
      "åıĳæ°´": 8424,
      "ä½¿åħ¶": 8425,
      "åĸĤ": 8426,
      "çĽ¸ä¼´": 8427,
      "éĹ´çļĦ": 8428,
      "ï¼ĮæĪĳä¸ºæĤ¨": 8429,
      "éĩįåĨĻ": 8430,
      "éĩįè§Ĩ": 8431,
      "åŃĹå·¦åı³": 8432,
      "å¾Īå®¹æĺĵ": 8433,
      "è¢Ń": 8434,
      "ç½ļ": 8435,
      "æĺ¯ä¸Ģå®¶": 8436,
      "æĺ¯ä¸Ģéģĵ": 8437,
      "å®ŀä½ĵ": 8438,
      "åĸľé©¬æĭī": 8439,
      "åİ»çľĭ": 8440,
      "ï¼Įè¿ĻæĦıåĳ³çĿĢ": 8441,
      "èĬĤçľģ": 8442,
      "æŃ£ä¼ł": 8443,
      "æ´»åĬĽåĴĮ": 8444,
      "æ¶¯": 8445,
      "å°ĳå¹´": 8446,
      "èĪĮ": 8447,
      "æĻ¯è±¡": 8448,
      "ï¼Įå¦ĤåĲĮ": 8449,
      "ï¼Įä½Ĩå®ĥ": 8450,
      "ç²ĺ": 8451,
      "åľºåľ°": 8452,
      "èĥ¶": 8453,
      "ãĢĤè¯·æıĲåıĸ": 8454,
      "åĲĳæĤ¨": 8455,
      "èĦĬ": 8456,
      "åİŁæĿ¥": 8457,
      "çīĩåĴĮ": 8458,
      "ä¸ĸçķĮä¸Ń": 8459,
      "ãĢĤæĪĳåľ¨": 8460,
      "ãĢĤæĪĳä¼ļ": 8461,
      "ç¬¬ä¸Ģæ¬¡": 8462,
      "è¿ĳä¹īè¯į": 8463,
      "ä¹ĭéĹ´åŃĺåľ¨": 8464,
      "ä¸Ģç¯ĩåħ³äºİ": 8465,
      "å®ĮåĸĦ": 8466,
      "åĶĩ": 8467,
      "ary": 8468,
      "æ£ī": 8469,
      "çİ¯å¢ĥåĴĮ": 8470,
      "else": 8471,
      "ings": 8472,
      "å®¢äºº": 8473,
      "åĬŁæķĪ": 8474,
      "èħ¹": 8475,
      "èħĮ": 8476,
      "èħĶ": 8477,
      "å¤įèĭı": 8478,
      "ä»·æł¼ä¸º": 8479,
      "å¥³ç¥ŀ": 8480,
      "Ġhow": 8481,
      "ï¼Įæ¯Ķå¦Ĥè¯´": 8482,
      "ç²īèī²": 8483,
      "é£Łçī©éĵ¾": 8484,
      "äºĨä¸Ģåıª": 8485,
      "äºĳå±Ĥ": 8486,
      "çļĦæķħäºĭæĥħèĬĤ": 8487,
      "æ¢¦å¹»": 8488,
      "åĨ·éĿĻ": 8489,
      "çļĦå°ıçĭĹ": 8490,
      "åıĳçĶŁäºĨ": 8491,
      "åıįåºĶçī©": 8492,
      "æľºåĻ¨åŃ¦ä¹łç®Ĺæ³ķ": 8493,
      "iful": 8494,
      "æ²īéĨī": 8495,
      "ãĢĤæĪĳä»¬éľĢè¦ģ": 8496,
      "åİĭåĬĽåĴĮ": 8497,
      "ä»¤äººæĥĬåı¹": 8498,
      "åħ´è¶£çĪ±å¥½": 8499,
      "é¢ĳç¹ģ": 8500,
      "ç¼ĵç¼ĵ": 8501,
      "è¯ĬæĸŃåĴĮæ²»çĸĹ": 8502,
      "æī§å¯¼": 8503,
      "è¡Ĺå¤´": 8504,
      "çĶµè§Ĩæľº": 8505,
      "åģľè½¦": 8506,
      "å£®ä¸½": 8507,
      "çļĦæĢĿå¿µ": 8508,
      "ï¼Įåĳ³": 8509,
      "ï¼ĮåĳĪ": 8510,
      "åı¯ä»¥è¢«åĪĨç±»ä¸º": 8511,
      "å©ļå§»": 8512,
      "çĪ¬å±±": 8513,
      "ãĢĤä½ľä¸ºä¸Ģä¸ª": 8514,
      "çļĦæ¯ĶèµĽ": 8515,
      "()`": 8516,
      "çļĦæŀģ": 8517,
      "æ¨¡æĭŁäººç±»": 8518,
      "çļĦæĽ²": 8519,
      "æľĢå°ıåĢ¼": 8520,
      "Ġup": 8521,
      "ï¼Įå·²ç»ı": 8522,
      "å¼¥æ¼«çĿĢ": 8523,
      "æĮĸæİĺ": 8524,
      "å¤´èĦĳé£İæļ´": 8525,
      "çļĦæĵįä½ľ": 8526,
      "ï¼Įå±ŀäºİ": 8527,
      "åĸľé©¬æĭīéĽħ": 8528,
      "\")": 8529,
      "To": 8530,
      "ious": 8531,
      "³å®ļ": 8532,
      "à¥": 8533,
      "æĨ": 8534,
      "Ġz": 8535,
      "ĠæĢ»": 8536,
      "Ġè¡¨ç¤º": 8537,
      "Ġus": 8538,
      "Ġà¤": 8539,
      "ï¼ĮC": 8540,
      "ï¼Įå¤©æ°Ķ": 8541,
      "ï¼Įä¾¿": 8542,
      "ï¼ĮçľĭåĪ°": 8543,
      "ï¼Įåħ±åĲĮ": 8544,
      "ï¼ĮçĽ¸ä¿¡": 8545,
      "ï¼ĮéĩĮéĿ¢": 8546,
      "çļĦåıĳ": 8547,
      "çļĦä¹¦ç±į": 8548,
      "ãĢĤæĪĸèĢħ": 8549,
      "ãĢĤå°ıæĺİ": 8550,
      "åıĽ": 8551,
      "è¿Ń": 8552,
      "ä¸ĢåıĮ": 8553,
      "å®ı": 8554,
      "åĴĮç¾İé£Ł": 8555,
      "æĺ¯ä¸ºäºĨ": 8556,
      "è¿Ļåı¥": 8557,
      "æľīä¸Ģå¤©": 8558,
      "ï¼Įå²": 8559,
      "æĹ±": 8560,
      "ä¸ºæĪĳä»¬": 8561,
      "å¸Ń": 8562,
      "äºĨæĪĳ": 8563,
      "åı¯ä»¥çĶ¨æĿ¥": 8564,
      "ä¸įåľ¨": 8565,
      "ä¸įè¶ħè¿ĩ": 8566,
      "æĬ«": 8567,
      "èī°": 8568,
      "çļĦçħ": 8569,
      "æĹ¶ä¼ļ": 8570,
      "åĪĨç¦»": 8571,
      "èĩªåľ¨": 8572,
      "å°ıçº¢": 8573,
      "æľĢä¸º": 8574,
      "å¤ļåħĥ": 8575,
      "âĢĿè¡¨ç¤º": 8576,
      "æĮ¤": 8577,
      "æĮ¯": 8578,
      "åĬłå¯Ĩ": 8579,
      "è°£": 8580,
      "è¡¨éĿ¢ç§¯": 8581,
      "ä¹Łèĥ½": 8582,
      "ä¹Łå°Ĩ": 8583,
      "ç«Ł": 8584,
      "ç¾İæ´²": 8585,
      "å¾Ĺä»¥": 8586,
      "åħ¥æīĭ": 8587,
      "éĹ®é¢ĺéľĢè¦ģ": 8588,
      "è¯´æ³ķ": 8589,
      "å¤ĸéĿ¢": 8590,
      "ç»ıèĲ¥": 8591,
      "æĺ¯ä¸Ģåº§": 8592,
      "æĹ¥èĳµ": 8593,
      "åĽŀå¤į": 8594,
      "åĽŀæĶ¶": 8595,
      "åĽŀå½Ĵ": 8596,
      "ä¾ĭåı¥": 8597,
      "ãĢĭï¼ļ": 8598,
      "åİ»éĻ¤": 8599,
      "åİ»åħ¬åĽŃ": 8600,
      "è¢«å½Ĵç±»ä¸º": 8601,
      "é¥ºåŃĲ": 8602,
      "ç»ĵå°¾": 8603,
      "èĬ±çĵ£": 8604,
      "æ¡ĳ": 8605,
      "ï¼īï¼ļ": 8606,
      "orm": 8607,
      "ãĢĤåľ¨ä¸Ģä¸ª": 8608,
      "åı¯èĥ½åľ¨": 8609,
      "ance": 8610,
      "å§Ĳ": 8611,
      "å§ĳ": 8612,
      "èĩªçĦ¶çļĦ": 8613,
      "æīĭè¡¨": 8614,
      "æľĪåħī": 8615,
      "ä»ĸä»¬åľ¨": 8616,
      "æµģåĬ¨": 8617,
      "Ġsp": 8618,
      "Ġsentence": 8619,
      "ated": 8620,
      "ï¼ģçİ°åľ¨": 8621,
      "ï¼ģéĤ£ä¹Ī": 8622,
      "åģļä¸ĢäºĽ": 8623,
      "å¼ºå£®": 8624,
      "å¿«æį·": 8625,
      "é¢Ħå®ļ": 8626,
      "å¼ķè¯ģ": 8627,
      "å»ºè®®æĤ¨": 8628,
      "æİ¥è§¦": 8629,
      "è¾ĥå°ı": 8630,
      "åĲ¬åĪ°äºĨ": 8631,
      "åħ·ä½ĵçļĦæİ¨çĲĨ": 8632,
      "ç¥ŀæĢ¡": 8633,
      "Ġpizza": 8634,
      "é¸¡å°¾": 8635,
      "èĩ³ä»Ĭ": 8636,
      "æĶ¹ä¸º": 8637,
      "çľŁçĽ¸": 8638,
      "çĶŁæ´»æĸ¹å¼ı": 8639,
      "ï¼Įä»ĸçļĦ": 8640,
      "ä¾¿å®ľ": 8641,
      "ç»¿æłĳ": 8642,
      "åĪ¶ä½ľæĸ¹æ³ķ": 8643,
      "åĪ¶ä½ľä¸Ģä»½": 8644,
      "åĿĩè¡¡": 8645,
      "å¥³çĶŁ": 8646,
      "åĴĸåķ¡é¦Ĩ": 8647,
      "åįĩæ°´": 8648,
      "åıĳçİ°äºĨä¸Ģä¸ª": 8649,
      "æŀĹé»Ľçİī": 8650,
      "ç¨ĭåºıåĳĺ": 8651,
      "æ¶ĪéĻ¤": 8652,
      "è´¨éĩıåĴĮ": 8653,
      "ç³ĸæµĨ": 8654,
      "ï¼ĮéľĢè¦ģæ³¨æĦı": 8655,
      "çļĦæĹ¶åĪ»": 8656,
      "äºĨä¸Ģåľº": 8657,
      "èº«ä½ĵåĴĮ": 8658,
      "ä¿®è¾ŀ": 8659,
      "ï¼Įçİ°åľ¨æĪĳæĥ³": 8660,
      "log": 8661,
      "çī¹çĤ¹åĴĮ": 8662,
      "äº²åŃĲ": 8663,
      "èĩªçĶ±åĴĮ": 8664,
      "é¾ĻèĻ¾": 8665,
      "æĥĬéĻ©": 8666,
      "ift": 8667,
      "ãĢĤæĢ»ä½ĵ": 8668,
      "æĳĦå½±": 8669,
      "çīĻé½¿": 8670,
      "ï¼ĮæĪĳä¼ļå°½åĬĽ": 8671,
      "æ©Ļæ±ģ": 8672,
      "çļĦæ²»çĸĹ": 8673,
      "ä¾Ŀæį®": 8674,
      "è´ŁéĿ¢æĥħæĦŁ": 8675,
      "çĽ¸ä¼¼æĢ§": 8676,
      "å¤įæĿĤçļĦ": 8677,
      "çĽĸèĮ¨": 8678,
      "æł¹æį®ä»¥ä¸ĭæĸĩæľ¬": 8679,
      "éĢĶå¾Ħ": 8680,
      "æ¹¿æ¶¦": 8681,
      "åįĪé¤Ĳ": 8682,
      "çĽĳç®¡": 8683,
      "çĽĳçĿ£": 8684,
      "ï¼Įä»¥ä¾¿æĪĳ": 8685,
      "åĨĻä¸Ģé¦ĸåħ³äºİ": 8686,
      "æ·±åĪ»åľ°": 8687,
      "ï¼Įåıªè¦ģ": 8688,
      "å¡«ç©º": 8689,
      "text": 8690,
      "çĤ¸é¸¡": 8691,
      "é«ĺæķĪçļĦ": 8692,
      "æĭħä»»": 8693,
      "çĪ¶äº²": 8694,
      "çľŁçļĦå¾Ī": 8695,
      "èİ«æīİ": 8696,
      "åĪĹä¸¾ä¸ĢäºĽ": 8697,
      "é¸ŃåŃĲ": 8698,
      "å¥½çľĭçļĦå°ıè¯´": 8699,
      "èĦĨå¼±": 8700,
      "çļĦçģµéŃĤ": 8701,
      "ä»İä»¥ä¸ĭéĢīé¡¹ä¸ŃéĢīæĭ©": 8702,
      "angu": 8703,
      "è¾¹éķ¿ä¸º": 8704,
      "åľĨçļĦåĳ¨éķ¿": 8705,
      "ï¼Įç»Ļåĩºåħ·ä½ĵçļĦæİ¨çĲĨ": 8706,
      "åİ¦éĹ¨": 8707,
      "èĲ¥éĢłåĩº": 8708,
      "äºĶè¨Ģç»Ŀåı¥": 8709,
      "åį¢æµ®å®«": 8710,
      "æ¡Ĩæŀ¶": 8711,
      "åįĵè¶Ĭ": 8712,
      "Ġresult": 8713,
      "éĺ¿çĶĺæŃ£ä¼ł": 8714,
      "åħĦå¼Ł": 8715,
      "ï¼Įç»Ļåĩºåħ·ä½ĵçļĦæİ¨çĲĨéĢ»è¾ĳ": 8716,
      "duct": 8717,
      "ier": 8718,
      "lor": 8719,
      "we": 8720,
      "Ġè¾ĵåĩº": 8721,
      "ï¼ĮæĹ¨åľ¨": 8722,
      "çļĦé£İ": 8723,
      "çļĦéķ¿": 8724,
      "ãĢĤæķ´": 8725,
      "ãĢĤå¦Ĥä½ķ": 8726,
      "ãĢĤåİŁåĽł": 8727,
      "ãĢĤå¤ıåŃ£": 8728,
      "ãĢĤçĽ¸åıį": 8729,
      "ãĢĤç»¼ä¸ĬæīĢè¿°": 8730,
      "æĪª": 8731,
      "ä¸ĢåĪĻ": 8732,
      "åĴĮB": 8733,
      "åĴĮä½ł": 8734,
      "æĺ¯æĺŁæľŁ": 8735,
      "æĺ¯æŃ£éĿ¢": 8736,
      "æĺ¯å¦ĤæŃ¤": 8737,
      "ä¸ªå°ıæľĭåıĭ": 8738,
      "ãĢģä½¿çĶ¨": 8739,
      "è¿Ļæľ¬å°ıè¯´": 8740,
      "ï¼Įåĭ": 8741,
      "å¸Ĳ": 8742,
      "ï¼ļS": 8743,
      "ï¼ļéĢļè¿ĩ": 8744,
      "ï¼ļé¦ĸåħĪ": 8745,
      "å¾¡": 8746,
      "âĢ¢": 8747,
      "åĪ°ä¸Ģä¸ª": 8748,
      "ï¼ŁâĢľ": 8749,
      "ï¼Łå¯¹äºİ": 8750,
      "é¢ĺæĦı": 8751,
      "æĤ¨å¯¹": 8752,
      "å°ıäºİ": 8753,
      "å°ıåĲĥ": 8754,
      "å¯¹ä»¥ä¸ĭ": 8755,
      "æıĲåĩºäºĨ": 8756,
      "æĦŁæģ©": 8757,
      "æĽ´æį¢": 8758,
      "æĮļ": 8759,
      "è¿ĩå¤ļ": 8760,
      "éĻµ": 8761,
      "èĢĮä¸įæĺ¯": 8762,
      "ç¨Ģ": 8763,
      "éĤ£åıª": 8764,
      "å®¶é¤Ĳåİħ": 8765,
      "åĲįè¯į": 8766,
      "ï¼ĮæĪĳå·²ç»ı": 8767,
      "ç¤ģ": 8768,
      "åħ¬çº¦": 8769,
      "è¿ĺèĥ½": 8770,
      "è¿ĺåİŁ": 8771,
      "å¤ĸåĩº": 8772,
      "æıĲä¾Ľå¸®åĬ©": 8773,
      "é£ŁåĬ¨çī©": 8774,
      "ä¿¡å¿µ": 8775,
      "ä»Ģä¹Īç±»åŀĭ": 8776,
      "ern": 8777,
      "ä¸¤æķ°": 8778,
      "è±ļ": 8779,
      "åı¥åŃĲä¸ŃçļĦ": 8780,
      "åīįèıľ": 8781,
      "å±ķçİ°äºĨ": 8782,
      "ï¼ĪS": 8783,
      "ãĢĤåľ¨è¿ĻéĩĮ": 8784,
      "å°±èĥ½": 8785,
      "ank": 8786,
      "æ·±éĤĥ": 8787,
      "ener": 8788,
      "å¤ªå¥½äºĨ": 8789,
      "ï¼Įè®©å®ĥ": 8790,
      "åĲĳæĹ¥èĳµ": 8791,
      "äº¤ç»ĩ": 8792,
      "Ġtime": 8793,
      "æİĴéª¨": 8794,
      "çĥŃæ°´": 8795,
      "åĲ¬åĲ¬": 8796,
      "é¢ĨåŁŁä¸Ń": 8797,
      "Ġple": 8798,
      "åħħçĶµ": 8799,
      "åĲĥæİī": 8800,
      "å¦®": 8801,
      "ç»¿èī²çļĦ": 8802,
      "Ġlist": 8803,
      "éĽ¨å¤©": 8804,
      "æŁĲäºº": 8805,
      "ich": 8806,
      "èĢĥèĻĳåĪ°": 8807,
      "ä»ħä»ħ": 8808,
      "çļĦæĹ¶å°ļ": 8809,
      "éħ±æĸĻ": 8810,
      "äºĳæľµ": 8811,
      "æ¤įçī©çļĦ": 8812,
      "æ©ĺ": 8813,
      "æĵį": 8814,
      "åħħæ»¡çĿĢ": 8815,
      "ãĢĤæĤ¨éľĢè¦ģ": 8816,
      "å³¡": 8817,
      "ï¼Įå¹¶ä¸Ķåľ¨": 8818,
      "ions": 8819,
      "ily": 8820,
      "æĹħæ¸¸æĻ¯çĤ¹": 8821,
      "ï¼Įä¸ºä»Ģä¹Ī": 8822,
      "ç½Ĺæĸ¯": 8823,
      "æĭĮåĮĢ": 8824,
      "ä»£è¡¨çĿĢ": 8825,
      "ç¼ºå°ĳ": 8826,
      "çļĦä¸»é¢ĺåĴĮ": 8827,
      "éĹªéĹª": 8828,
      "ãĢĤåľ¨è¿Ļä¸ªåı¥åŃĲä¸Ń": 8829,
      "ï¼Įè®©äººæĦŁåĪ°": 8830,
      "è¯įè¯Ńåħ³ç³»": 8831,
      "æ¦Ĥæĭ¬ä¸Ģä¸ĭ": 8832,
      "é»ĺé»ĺ": 8833,
      "èĪªç©º": 8834,
      "æķıæį·": 8835,
      "æłĩåĩĨå·®": 8836,
      "å¤ªç©ºæİ¢ç´¢": 8837,
      "è´¢åĬ¡æĬ¥è¡¨": 8838,
      "çĪĨçĤ¸": 8839,
      "èĸ¯æĿ¡": 8840,
      "åĪļåĪļ": 8841,
      "æ¶ĤæĬ¹": 8842,
      "ä»£åħ¥åħ¬å¼ı": 8843,
      "æĽ¿æį¢ä¸º": 8844,
      "round": 8845,
      "Ġknow": 8846,
      "æĹłäººæľº": 8847,
      "ï¼Įå¸¸å¸¸": 8848,
      "ï¼Įä»¥ä¸ĭæĺ¯æĪĳä¸ºæĤ¨": 8849,
      "åıĻè¿°": 8850,
      "èĲ§çĳŁ": 8851,
      "çļĦçĤ¹": 8852,
      "çļĦæ±½è½¦": 8853,
      "å²Ĺä½į": 8854,
      "æĹ·ç¥ŀæĢ¡": 8855,
      "ï¼Įåĳ³éģĵ": 8856,
      "é¸¡å°¾éħĴ": 8857,
      "##": 8858,
      "'t": 8859,
      "ER": 8860,
      "io": 8861,
      "lst": 8862,
      "mer": 8863,
      "to": 8864,
      "Ġæ°´": 8865,
      "Ġ__": 8866,
      "łéģĵ": 8867,
      "ï¼Įæ°¸è¿ľ": 8868,
      "ãĢĤä¹Ł": 8869,
      "ãĢĤæĬĬ": 8870,
      "ä¸Ģé¢Ĺ": 8871,
      "ãĢģæķ°æį®": 8872,
      "ãĢģèĥ¡èĲĿåįľ": 8873,
      "è¿Ļä¸īä¸ª": 8874,
      "éĢ¼": 8875,
      "ä¸Ńè¿Ľè¡Į": 8876,
      "äºĨæĪĳä»¬": 8877,
      "å¾Ĳ": 8878,
      "ä¸Ģä¸ªåŃĹç¬¦ä¸²": 8879,
      "ä¸įèī¯": 8880,
      "ä½łæīĢ": 8881,
      "åĵĳ": 8882,
      "æ°¯": 8883,
      "æĪĲèį«": 8884,
      "åİī": 8885,
      "è¡ĮæĿİ": 8886,
      "è´·": 8887,
      "å¤§å¤§": 8888,
      "æĹ¶èĬĤ": 8889,
      "ä½ľä¸ļ": 8890,
      "çºµ": 8891,
      "å¯¹è¿Ļä¸ª": 8892,
      "åħ³å¿ĥ": 8893,
      "æĽ´è¯¦ç»Ĩ": 8894,
      "æĮ¡": 8895,
      "æĥħäººèĬĤ": 8896,
      "è¿Ļä¸ªäºº": 8897,
      "æŃ¤å¤ĸ": 8898,
      "åĬĽäºİ": 8899,
      "å½ĵä»£": 8900,
      "çĶµåķĨ": 8901,
      "æīĢç¤º": 8902,
      "æ°´åĮĸåĲĪçī©": 8903,
      "çĤ¹çĤ¹": 8904,
      "åħ¬ä¼Ĺ": 8905,
      "é£ŁèĤī": 8906,
      "åĿĢ": 8907,
      "æł¹æį®æıĲä¾ĽçļĦ": 8908,
      "å¼Ģå±ķ": 8909,
      "å»ºéĢł": 8910,
      "ä»İæľª": 8911,
      "ç¯·": 8912,
      "æĸĩæľ¬ä¸ŃçļĦ": 8913,
      "èĬ±åĦ¿": 8914,
      "ï¼Įåı¯ä»¥å¾ĹåĪ°": 8915,
      "çłĤ": 8916,
      "äººå·¥æĻºèĥ½åĴĮ": 8917,
      "çĻĮ": 8918,
      "ä¸īæĸĩ": 8919,
      "ä»¶è¡£æľį": 8920,
      "æĸĻçĲĨ": 8921,
      "éĴ¥": 8922,
      "èĥİ": 8923,
      "èĮ¸": 8924,
      "ä¼łè¾ĵ": 8925,
      "ãĢĤæĪĳçļĦ": 8926,
      "ãĢĤæĪĳæİ¨èįĲ": 8927,
      "åħĪçĶŁ": 8928,
      "å¼ºåĮĸ": 8929,
      "éħįç½®": 8930,
      "äººä»¬åľ¨": 8931,
      "æİ¥æĶ¶": 8932,
      "æ£ķèī²": 8933,
      "Ġbre": 8934,
      "æīĵéĢł": 8935,
      "éĢĤåĲĪåľ¨": 8936,
      "æĳ¸": 8937,
      "çħ§äº®": 8938,
      "å¥¶æ³¡": 8939,
      "è®¾è®¡åĴĮ": 8940,
      "æİ¢æµĭ": 8941,
      "çĶŁæ´»çļĦ": 8942,
      "æĽ´å¤ļçļĦä¿¡æģ¯": 8943,
      "å¤ľå¹ķ": 8944,
      "åįİä¸½": 8945,
      "Ġtoday": 8946,
      "å¹²æī°": 8947,
      "çļĦæĬķ": 8948,
      "åĪĽä½ľçļĦ": 8949,
      "çģµéŃĤ": 8950,
      "çĤĴèĽĭ": 8951,
      "è¿İæİ¥": 8952,
      "å½Ĵçº³": 8953,
      "çļĦè¯ĹæŃĮåĲ§": 8954,
      "éĻįéĽ¨": 8955,
      "åį°åĪ·": 8956,
      "è¯Ħè®ºèĢħ": 8957,
      "æĪĲåĬŁçļĦ": 8958,
      "Ġreturn": 8959,
      "éĶĢåĶ®éĩı": 8960,
      "ä¾ĭåŃĲä¸Ń": 8961,
      "æĮĳæĪĺåĴĮ": 8962,
      "æĢĿèĢĥåĴĮ": 8963,
[...]
